{
  "merges": [
    [
      " ",
      "t"
    ],
    [
      "h",
      "e"
    ],
    [
      " ",
      "a"
    ],
    [
      " ",
      "s"
    ],
    [
      " ",
      "w"
    ],
    [
      "n",
      "d"
    ],
    [
      " t",
      "he"
    ],
    [
      "e",
      "d"
    ],
    [
      " ",
      "b"
    ],
    [
      " t",
      "o"
    ],
    [
      " a",
      "nd"
    ],
    [
      " ",
      "h"
    ],
    [
      " ",
      "f"
    ],
    [
      " ",
      "T"
    ],
    [
      "i",
      "n"
    ],
    [
      " w",
      "a"
    ],
    [
      "r",
      "e"
    ],
    [
      "i",
      "t"
    ],
    [
      "o",
      "u"
    ],
    [
      " ",
      "l"
    ],
    [
      " ",
      "d"
    ],
    [
      " ",
      "c"
    ],
    [
      " ",
      "p"
    ],
    [
      "a",
      "y"
    ],
    [
      " ",
      "m"
    ],
    [
      "e",
      "r"
    ],
    [
      " wa",
      "s"
    ],
    [
      " T",
      "he"
    ],
    [
      "o",
      "m"
    ],
    [
      " ",
      "he"
    ],
    [
      "i",
      "s"
    ],
    [
      " ",
      "n"
    ],
    [
      "i",
      "m"
    ],
    [
      "a",
      "r"
    ],
    [
      "o",
      "n"
    ],
    [
      " s",
      "a"
    ],
    [
      "l",
      "l"
    ],
    [
      "i",
      "d"
    ],
    [
      " h",
      "a"
    ],
    [
      " ",
      "g"
    ],
    [
      "a",
      "t"
    ],
    [
      " ",
      "S"
    ],
    [
      "in",
      "g"
    ],
    [
      "o",
      "t"
    ],
    [
      "e",
      "n"
    ],
    [
      "a",
      "n"
    ],
    [
      "l",
      "e"
    ],
    [
      "o",
      "r"
    ],
    [
      "e",
      "nd"
    ],
    [
      "i",
      "r"
    ],
    [
      "o",
      "f"
    ],
    [
      "a",
      "m"
    ],
    [
      "e",
      "t"
    ],
    [
      " ",
      "H"
    ],
    [
      " ",
      "it"
    ],
    [
      " t",
      "h"
    ],
    [
      "i",
      "g"
    ],
    [
      " The",
      "y"
    ],
    [
      " p",
      "l"
    ],
    [
      " ",
      "in"
    ],
    [
      "i",
      "l"
    ],
    [
      " H",
      "e"
    ],
    [
      " ",
      "\""
    ],
    [
      "o",
      "w"
    ],
    [
      "v",
      "er"
    ],
    [
      "r",
      "i"
    ],
    [
      " ",
      "u"
    ],
    [
      "u",
      "t"
    ],
    [
      " pl",
      "ay"
    ],
    [
      "it",
      "h"
    ],
    [
      " sa",
      "id"
    ],
    [
      " b",
      "e"
    ],
    [
      " d",
      "ay"
    ],
    [
      " w",
      "ith"
    ],
    [
      "p",
      "p"
    ],
    [
      "O",
      "n"
    ],
    [
      " ",
      "y"
    ],
    [
      "k",
      "ed"
    ],
    [
      "o",
      "o"
    ],
    [
      " ",
      "r"
    ],
    [
      " he",
      "r"
    ],
    [
      "e",
      "x"
    ],
    [
      "c",
      "e"
    ],
    [
      "l",
      "d"
    ],
    [
      " h",
      "is"
    ],
    [
      " T",
      "im"
    ],
    [
      " ",
      "I"
    ],
    [
      " S",
      "he"
    ],
    [
      " s",
      "t"
    ],
    [
      "k",
      "e"
    ],
    [
      " b",
      "ig"
    ],
    [
      "n",
      "t"
    ],
    [
      "c",
      "k"
    ],
    [
      "ver",
      "y"
    ],
    [
      " y",
      "ou"
    ],
    [
      "s",
      "t"
    ],
    [
      "v",
      "e"
    ],
    [
      "u",
      "n"
    ],
    [
      " ha",
      "pp"
    ],
    [
      " ",
      "on"
    ],
    [
      "a",
      "ll"
    ],
    [
      "ri",
      "end"
    ],
    [
      " f",
      "riend"
    ],
    [
      "ex",
      "t"
    ],
    [
      " the",
      "y"
    ],
    [
      "of",
      "t"
    ],
    [
      " ",
      "L"
    ],
    [
      "il",
      "y"
    ],
    [
      " w",
      "e"
    ],
    [
      " ha",
      "d"
    ],
    [
      " u",
      "p"
    ],
    [
      " l",
      "i"
    ],
    [
      " n",
      "ot"
    ],
    [
      "he",
      "r"
    ],
    [
      " wa",
      "nt"
    ],
    [
      "it",
      "t"
    ],
    [
      " ",
      "of"
    ],
    [
      "oft",
      "ext"
    ],
    [
      "end",
      "oftext"
    ],
    [
      "|",
      ">"
    ],
    [
      "<",
      "|"
    ],
    [
      "a",
      "d"
    ],
    [
      " d",
      "o"
    ],
    [
      " ",
      "B"
    ],
    [
      " ",
      "e"
    ],
    [
      "s",
      "e"
    ],
    [
      " happ",
      "y"
    ],
    [
      "en",
      "t"
    ],
    [
      " ",
      "very"
    ],
    [
      " ",
      "M"
    ],
    [
      "e",
      "s"
    ],
    [
      " sa",
      "w"
    ],
    [
      "On",
      "e"
    ],
    [
      " th",
      "at"
    ],
    [
      "ou",
      "ld"
    ],
    [
      "'",
      "s"
    ],
    [
      " f",
      "or"
    ],
    [
      "itt",
      "le"
    ],
    [
      " m",
      "om"
    ],
    [
      " l",
      "ittle"
    ],
    [
      " s",
      "h"
    ],
    [
      " s",
      "he"
    ],
    [
      "im",
      "e"
    ],
    [
      "c",
      "h"
    ],
    [
      " n",
      "am"
    ],
    [
      " t",
      "ime"
    ],
    [
      " ",
      "k"
    ],
    [
      " s",
      "o"
    ],
    [
      "ou",
      "nd"
    ],
    [
      ".",
      "\""
    ],
    [
      " the",
      "re"
    ],
    [
      " nam",
      "ed"
    ],
    [
      " b",
      "o"
    ],
    [
      " s",
      "m"
    ],
    [
      " we",
      "re"
    ],
    [
      " want",
      "ed"
    ],
    [
      " L",
      "ily"
    ],
    [
      " n",
      "e"
    ],
    [
      " friend",
      "s"
    ],
    [
      "ou",
      "t"
    ],
    [
      "ir",
      "d"
    ],
    [
      " b",
      "ut"
    ],
    [
      "v",
      "ed"
    ],
    [
      "h",
      "t"
    ],
    [
      "!",
      "\""
    ],
    [
      "T",
      "he"
    ],
    [
      " T",
      "om"
    ],
    [
      " b",
      "ird"
    ],
    [
      "e",
      "l"
    ],
    [
      "a",
      "ke"
    ],
    [
      " a",
      "n"
    ],
    [
      "a",
      "l"
    ],
    [
      " to",
      "o"
    ],
    [
      "om",
      "e"
    ],
    [
      " w",
      "ent"
    ],
    [
      " w",
      "h"
    ],
    [
      "id",
      "e"
    ],
    [
      "On",
      "ce"
    ],
    [
      " a",
      "ll"
    ],
    [
      " I",
      "t"
    ],
    [
      " he",
      "l"
    ],
    [
      "u",
      "g"
    ],
    [
      "u",
      "e"
    ],
    [
      " hel",
      "p"
    ],
    [
      " ",
      "is"
    ],
    [
      " l",
      "oo"
    ],
    [
      " ",
      "A"
    ],
    [
      " up",
      "on"
    ],
    [
      " l",
      "o"
    ],
    [
      "t",
      "er"
    ],
    [
      "r",
      "y"
    ],
    [
      " to",
      "y"
    ],
    [
      "o",
      "re"
    ],
    [
      " f",
      "un"
    ],
    [
      "i",
      "nd"
    ],
    [
      "g",
      "et"
    ],
    [
      "i",
      "ll"
    ],
    [
      "am",
      "e"
    ],
    [
      " a",
      "s"
    ],
    [
      " ",
      "j"
    ],
    [
      "r",
      "a"
    ],
    [
      " a",
      "t"
    ],
    [
      "get",
      "her"
    ],
    [
      " ",
      "o"
    ],
    [
      " c",
      "at"
    ],
    [
      " d",
      "id"
    ],
    [
      " ",
      "re"
    ],
    [
      "u",
      "r"
    ],
    [
      " to",
      "gether"
    ],
    [
      "a",
      "ck"
    ],
    [
      " s",
      "e"
    ],
    [
      "l",
      "y"
    ],
    [
      " t",
      "re"
    ],
    [
      "oo",
      "d"
    ],
    [
      " do",
      "g"
    ],
    [
      "i",
      "c"
    ],
    [
      " c",
      "ould"
    ],
    [
      "t",
      "ed"
    ],
    [
      " c",
      "an"
    ],
    [
      " b",
      "all"
    ],
    [
      "ar",
      "d"
    ],
    [
      " g",
      "ir"
    ],
    [
      " the",
      "ir"
    ],
    [
      "ar",
      "k"
    ],
    [
      " gir",
      "l"
    ],
    [
      " play",
      "ed"
    ],
    [
      "e",
      "c"
    ],
    [
      "m",
      "y"
    ],
    [
      " h",
      "im"
    ],
    [
      " r",
      "o"
    ],
    [
      " g",
      "o"
    ],
    [
      "w",
      "ay"
    ],
    [
      "?",
      "\""
    ],
    [
      "he",
      "d"
    ],
    [
      "a",
      "in"
    ],
    [
      " k",
      "n"
    ],
    [
      " l",
      "e"
    ],
    [
      " ",
      "out"
    ],
    [
      "he",
      "n"
    ],
    [
      " a",
      "re"
    ],
    [
      " f",
      "r"
    ],
    [
      "u",
      "m"
    ],
    [
      "'",
      "t"
    ],
    [
      " the",
      "m"
    ],
    [
      " bo",
      "y"
    ],
    [
      " sa",
      "d"
    ],
    [
      "u",
      "l"
    ],
    [
      "a",
      "x"
    ],
    [
      " tre",
      "e"
    ],
    [
      "ot",
      "her"
    ],
    [
      "ou",
      "g"
    ],
    [
      " m",
      "an"
    ],
    [
      " lo",
      "ved"
    ],
    [
      " ha",
      "ve"
    ],
    [
      " c",
      "l"
    ],
    [
      " f",
      "ound"
    ],
    [
      " loo",
      "ked"
    ],
    [
      " s",
      "p"
    ],
    [
      " S",
      "ue"
    ],
    [
      " st",
      "ar"
    ],
    [
      " s",
      "c"
    ],
    [
      "on",
      "e"
    ],
    [
      " b",
      "ack"
    ],
    [
      "ow",
      "n"
    ],
    [
      "h",
      "ing"
    ],
    [
      "a",
      "re"
    ],
    [
      " M",
      "ax"
    ],
    [
      " li",
      "ke"
    ],
    [
      " be",
      "c"
    ],
    [
      "s",
      "ide"
    ],
    [
      "f",
      "ul"
    ],
    [
      " m",
      "e"
    ],
    [
      "o",
      "p"
    ],
    [
      "on",
      "g"
    ],
    [
      " p",
      "ark"
    ],
    [
      " w",
      "ould"
    ],
    [
      "ig",
      "ht"
    ],
    [
      " li",
      "ked"
    ],
    [
      "r",
      "ound"
    ],
    [
      " ",
      "One"
    ],
    [
      "el",
      "t"
    ],
    [
      " f",
      "a"
    ],
    [
      " m",
      "ake"
    ],
    [
      " c",
      "ar"
    ],
    [
      "e",
      "ll"
    ],
    [
      " B",
      "ut"
    ],
    [
      " f",
      "elt"
    ],
    [
      " l",
      "a"
    ],
    [
      " ",
      "W"
    ],
    [
      " as",
      "ked"
    ],
    [
      " S",
      "am"
    ],
    [
      "Y",
      "ou"
    ],
    [
      "ar",
      "ed"
    ],
    [
      "om",
      "et"
    ],
    [
      "i",
      "ce"
    ],
    [
      " c",
      "ame"
    ],
    [
      " star",
      "ted"
    ],
    [
      " ne",
      "w"
    ],
    [
      "a",
      "g"
    ],
    [
      " se",
      "e"
    ],
    [
      " n",
      "o"
    ],
    [
      "oug",
      "ht"
    ],
    [
      "ou",
      "se"
    ],
    [
      " B",
      "en"
    ],
    [
      " a",
      "l"
    ],
    [
      "il",
      "ed"
    ],
    [
      " a",
      "g"
    ],
    [
      " ",
      "other"
    ],
    [
      " g",
      "ood"
    ],
    [
      "p",
      "ot"
    ],
    [
      " ",
      "\n"
    ],
    [
      " s",
      "omet"
    ],
    [
      " sm",
      "all"
    ],
    [
      " b",
      "r"
    ],
    [
      "o",
      "b"
    ],
    [
      "s",
      "s"
    ],
    [
      " sm",
      "iled"
    ],
    [
      "ad",
      "e"
    ],
    [
      "ri",
      "ed"
    ],
    [
      "ing",
      "s"
    ],
    [
      " s",
      "ay"
    ],
    [
      " f",
      "ind"
    ],
    [
      " w",
      "or"
    ],
    [
      " a",
      "way"
    ],
    [
      " fr",
      "om"
    ],
    [
      " th",
      "ought"
    ],
    [
      " m",
      "ade"
    ],
    [
      " S",
      "pot"
    ],
    [
      " wh",
      "at"
    ],
    [
      " ",
      "ex"
    ],
    [
      " h",
      "ome"
    ],
    [
      " play",
      "ing"
    ],
    [
      "en",
      "ed"
    ],
    [
      " somet",
      "hing"
    ],
    [
      "t",
      "y"
    ],
    [
      " p",
      "ut"
    ],
    [
      " e",
      "very"
    ],
    [
      " c",
      "o"
    ],
    [
      " wa",
      "l"
    ],
    [
      "a",
      "ch"
    ],
    [
      " m",
      "u"
    ],
    [
      "i",
      "a"
    ],
    [
      "u",
      "c"
    ],
    [
      "oo",
      "k"
    ],
    [
      "i",
      "e"
    ],
    [
      "n",
      "y"
    ],
    [
      " ",
      "F"
    ],
    [
      " ag",
      "ain"
    ],
    [
      " r",
      "an"
    ],
    [
      " d",
      "own"
    ],
    [
      "i",
      "le"
    ],
    [
      "d",
      "d"
    ],
    [
      "ar",
      "n"
    ],
    [
      " toy",
      "s"
    ],
    [
      "a",
      "ve"
    ],
    [
      " p",
      "r"
    ],
    [
      "k",
      "ing"
    ],
    [
      " sc",
      "ared"
    ],
    [
      " s",
      "ome"
    ],
    [
      " too",
      "k"
    ],
    [
      " la",
      "ug"
    ],
    [
      " ",
      "J"
    ],
    [
      " h",
      "ouse"
    ],
    [
      " f",
      "l"
    ],
    [
      "i",
      "f"
    ],
    [
      "a",
      "b"
    ],
    [
      " a",
      "round"
    ],
    [
      " bo",
      "x"
    ],
    [
      " s",
      "w"
    ],
    [
      "u",
      "re"
    ],
    [
      "i",
      "ck"
    ],
    [
      " le",
      "arn"
    ],
    [
      "e",
      "p"
    ],
    [
      "re",
      "t"
    ],
    [
      "is",
      "h"
    ],
    [
      "ou",
      "d"
    ],
    [
      "u",
      "ck"
    ],
    [
      " you",
      "r"
    ],
    [
      " li",
      "ved"
    ],
    [
      " ",
      "You"
    ],
    [
      " th",
      "ings"
    ],
    [
      " s",
      "un"
    ],
    [
      " the",
      "n"
    ],
    [
      " w",
      "ill"
    ],
    [
      "e",
      "w"
    ],
    [
      " b",
      "l"
    ],
    [
      " m",
      "y"
    ],
    [
      "a",
      "s"
    ],
    [
      " w",
      "hen"
    ],
    [
      " a",
      "b"
    ],
    [
      "pp",
      "ed"
    ],
    [
      ",",
      "\""
    ],
    [
      "u",
      "s"
    ],
    [
      " g",
      "et"
    ],
    [
      "an",
      "k"
    ],
    [
      "T",
      "im"
    ],
    [
      "T",
      "h"
    ],
    [
      " c",
      "h"
    ],
    [
      " l",
      "ot"
    ],
    [
      "uc",
      "y"
    ],
    [
      "ot",
      "h"
    ],
    [
      "a",
      "p"
    ],
    [
      "um",
      "p"
    ],
    [
      " M",
      "ia"
    ],
    [
      " wh",
      "o"
    ],
    [
      " t",
      "ried"
    ],
    [
      "is",
      "t"
    ],
    [
      " f",
      "e"
    ],
    [
      " kn",
      "ow"
    ],
    [
      " g",
      "ot"
    ],
    [
      "it",
      "ed"
    ],
    [
      "u",
      "st"
    ],
    [
      " man",
      "y"
    ],
    [
      " ab",
      "out"
    ],
    [
      " say",
      "s"
    ],
    [
      " in",
      "t"
    ],
    [
      "all",
      "y"
    ],
    [
      "nd",
      "er"
    ],
    [
      " r",
      "ed"
    ],
    [
      " kn",
      "ew"
    ],
    [
      " p",
      "ret"
    ],
    [
      "i",
      "ve"
    ],
    [
      " d",
      "ec"
    ],
    [
      "L",
      "ily"
    ],
    [
      "is",
      "e"
    ],
    [
      "ou",
      "s"
    ],
    [
      " an",
      "y"
    ],
    [
      "a",
      "u"
    ],
    [
      " ",
      "D"
    ],
    [
      "a",
      "ce"
    ],
    [
      " c",
      "are"
    ],
    [
      " m",
      "ore"
    ],
    [
      " p",
      "ic"
    ],
    [
      "q",
      "u"
    ],
    [
      " be",
      "st"
    ],
    [
      "au",
      "se"
    ],
    [
      " o",
      "p"
    ],
    [
      "f",
      "ter"
    ],
    [
      " bec",
      "ame"
    ],
    [
      " L",
      "ucy"
    ],
    [
      " p",
      "o"
    ],
    [
      " wa",
      "ter"
    ],
    [
      "way",
      "s"
    ],
    [
      "�",
      "�"
    ],
    [
      "f",
      "e"
    ],
    [
      " h",
      "ug"
    ],
    [
      " learn",
      "ed"
    ],
    [
      " B",
      "ob"
    ],
    [
      " ex",
      "c"
    ],
    [
      " bec",
      "ause"
    ],
    [
      "it",
      "e"
    ],
    [
      " al",
      "ways"
    ],
    [
      " loo",
      "k"
    ],
    [
      " ",
      "v"
    ],
    [
      " out",
      "side"
    ],
    [
      " int",
      "o"
    ],
    [
      " ro",
      "om"
    ],
    [
      " b",
      "oth"
    ],
    [
      " u",
      "n"
    ],
    [
      "id",
      "ed"
    ],
    [
      " sh",
      "ow"
    ],
    [
      " laug",
      "hed"
    ],
    [
      " S",
      "o"
    ],
    [
      " e",
      "at"
    ],
    [
      " dec",
      "ided"
    ],
    [
      " A",
      "nd"
    ],
    [
      " h",
      "o"
    ],
    [
      " g",
      "re"
    ],
    [
      "ur",
      "p"
    ],
    [
      "u",
      "dd"
    ],
    [
      "an",
      "t"
    ],
    [
      " p",
      "e"
    ],
    [
      "er",
      "s"
    ],
    [
      " ",
      "E"
    ],
    [
      " M",
      "om"
    ],
    [
      " j",
      "ump"
    ],
    [
      "n",
      "n"
    ],
    [
      " l",
      "ong"
    ],
    [
      " on",
      "e"
    ],
    [
      " ",
      "ke"
    ],
    [
      " th",
      "is"
    ],
    [
      " r",
      "un"
    ],
    [
      " n",
      "ice"
    ],
    [
      "Y",
      "es"
    ],
    [
      " exc",
      "ited"
    ],
    [
      " fa",
      "st"
    ],
    [
      "The",
      "y"
    ],
    [
      "T",
      "om"
    ],
    [
      " fe",
      "el"
    ],
    [
      " d",
      "ad"
    ],
    [
      " to",
      "ld"
    ],
    [
      " m",
      "o"
    ],
    [
      " s",
      "k"
    ],
    [
      " in",
      "side"
    ],
    [
      "ou",
      "r"
    ],
    [
      " a",
      "m"
    ],
    [
      " t",
      "r"
    ],
    [
      " s",
      "l"
    ],
    [
      "u",
      "ll"
    ],
    [
      "le",
      "w"
    ],
    [
      " s",
      "or"
    ],
    [
      " t",
      "ake"
    ],
    [
      "urp",
      "r"
    ],
    [
      " ro",
      "ck"
    ],
    [
      "in",
      "y"
    ],
    [
      " pret",
      "ty"
    ],
    [
      "nn",
      "a"
    ],
    [
      " s",
      "urpr"
    ],
    [
      " g",
      "ave"
    ],
    [
      " e",
      "ach"
    ],
    [
      " g",
      "ra"
    ],
    [
      "im",
      "al"
    ],
    [
      " an",
      "imal"
    ],
    [
      "in",
      "k"
    ],
    [
      " mu",
      "ch"
    ],
    [
      " h",
      "ow"
    ],
    [
      "W",
      "h"
    ],
    [
      " st",
      "r"
    ],
    [
      " o",
      "ld"
    ],
    [
      " ne",
      "ed"
    ],
    [
      "B",
      "ut"
    ],
    [
      " th",
      "an"
    ],
    [
      " l",
      "et"
    ],
    [
      "v",
      "en"
    ],
    [
      "ar",
      "a"
    ],
    [
      "r",
      "o"
    ],
    [
      "g",
      "ed"
    ],
    [
      " to",
      "w"
    ],
    [
      "es",
      "s"
    ],
    [
      " u",
      "nder"
    ],
    [
      " ",
      "C"
    ],
    [
      " sor",
      "ry"
    ],
    [
      " ",
      "or"
    ],
    [
      " wal",
      "ked"
    ],
    [
      " c",
      "le"
    ],
    [
      "a",
      "nd"
    ],
    [
      " t",
      "a"
    ],
    [
      " ha",
      "nd"
    ],
    [
      "g",
      "e"
    ],
    [
      "is",
      "ed"
    ],
    [
      "o",
      "g"
    ],
    [
      " f",
      "ish"
    ],
    [
      "ur",
      "n"
    ],
    [
      " t",
      "e"
    ],
    [
      "ur",
      "t"
    ],
    [
      " k",
      "ind"
    ],
    [
      "f",
      "f"
    ],
    [
      " cl",
      "o"
    ],
    [
      " H",
      "is"
    ],
    [
      " wa",
      "t"
    ],
    [
      "v",
      "ing"
    ],
    [
      " h",
      "ig"
    ],
    [
      " animal",
      "s"
    ],
    [
      "a",
      "se"
    ],
    [
      " A",
      "my"
    ],
    [
      " j",
      "ust"
    ],
    [
      " happ",
      "ened"
    ],
    [
      " u",
      "s"
    ],
    [
      "c",
      "hed"
    ],
    [
      " f",
      "ood"
    ],
    [
      "p",
      "l"
    ],
    [
      " sk",
      "y"
    ],
    [
      " fl",
      "ow"
    ],
    [
      "he",
      "re"
    ],
    [
      " s",
      "n"
    ],
    [
      "r",
      "om"
    ],
    [
      " l",
      "ist"
    ],
    [
      " t",
      "ry"
    ],
    [
      " ",
      "ide"
    ],
    [
      " W",
      "e"
    ],
    [
      " ne",
      "ar"
    ],
    [
      "g",
      "ry"
    ],
    [
      " did",
      "n"
    ],
    [
      " ide",
      "a"
    ],
    [
      " b",
      "et"
    ],
    [
      " ",
      "en"
    ],
    [
      "ab",
      "le"
    ],
    [
      "at",
      "e"
    ],
    [
      "in",
      "e"
    ],
    [
      " f",
      "i"
    ],
    [
      " f",
      "lew"
    ],
    [
      "ec",
      "i"
    ],
    [
      " it",
      "s"
    ],
    [
      "re",
      "am"
    ],
    [
      " care",
      "ful"
    ],
    [
      "Th",
      "ank"
    ],
    [
      " sh",
      "are"
    ],
    [
      " c",
      "ake"
    ],
    [
      " he",
      "ard"
    ],
    [
      " bet",
      "ter"
    ],
    [
      " t",
      "w"
    ],
    [
      " st",
      "or"
    ],
    [
      " ",
      "if"
    ],
    [
      "eci",
      "al"
    ],
    [
      " sp",
      "ecial"
    ],
    [
      " d",
      "an"
    ],
    [
      "p",
      "ec"
    ],
    [
      "b",
      "er"
    ],
    [
      "i",
      "on"
    ],
    [
      " T",
      "h"
    ],
    [
      " be",
      "ar"
    ],
    [
      " lot",
      "s"
    ],
    [
      " w",
      "ind"
    ],
    [
      "l",
      "f"
    ],
    [
      "m",
      "ore"
    ],
    [
      " any",
      "more"
    ],
    [
      " cle",
      "an"
    ],
    [
      "udd",
      "en"
    ],
    [
      " ne",
      "ver"
    ],
    [
      " f",
      "o"
    ],
    [
      " d",
      "on"
    ],
    [
      "M",
      "om"
    ],
    [
      " g",
      "r"
    ],
    [
      " b",
      "ug"
    ],
    [
      " t",
      "al"
    ],
    [
      "op",
      "le"
    ],
    [
      " c",
      "om"
    ],
    [
      " h",
      "ard"
    ],
    [
      " b",
      "u"
    ],
    [
      " ",
      "end"
    ],
    [
      " The",
      "n"
    ],
    [
      " b",
      "y"
    ],
    [
      " f",
      "ly"
    ],
    [
      "udden",
      "ly"
    ],
    [
      " m",
      "ag"
    ],
    [
      "or",
      "t"
    ],
    [
      " f",
      "ore"
    ],
    [
      " t",
      "urn"
    ],
    [
      " o",
      "ver"
    ],
    [
      " A",
      "nna"
    ],
    [
      " E",
      "very"
    ],
    [
      " e",
      "ven"
    ],
    [
      "r",
      "m"
    ],
    [
      " lo",
      "ve"
    ],
    [
      " co",
      "l"
    ],
    [
      " pe",
      "ople"
    ],
    [
      " sa",
      "fe"
    ],
    [
      " a",
      "fter"
    ],
    [
      " b",
      "ad"
    ],
    [
      "ad",
      "y"
    ],
    [
      " hig",
      "h"
    ],
    [
      " f",
      "am"
    ],
    [
      " g",
      "round"
    ],
    [
      "a",
      "k"
    ],
    [
      " do",
      "or"
    ],
    [
      "im",
      "b"
    ],
    [
      " c",
      "ome"
    ],
    [
      " sh",
      "iny"
    ],
    [
      "b",
      "b"
    ],
    [
      " pr",
      "oud"
    ],
    [
      " op",
      "ened"
    ],
    [
      " cl",
      "imb"
    ],
    [
      "A",
      "s"
    ],
    [
      "u",
      "ff"
    ],
    [
      " h",
      "urt"
    ],
    [
      " pic",
      "ked"
    ],
    [
      " bl",
      "ue"
    ],
    [
      " l",
      "oud"
    ],
    [
      "pec",
      "ted"
    ],
    [
      "L",
      "et"
    ],
    [
      " c",
      "he"
    ],
    [
      " g",
      "ive"
    ],
    [
      " wa",
      "y"
    ],
    [
      " surpr",
      "ised"
    ],
    [
      " g",
      "l"
    ],
    [
      "'",
      "m"
    ],
    [
      " un",
      "ex"
    ],
    [
      " unex",
      "pected"
    ],
    [
      "il",
      "d"
    ],
    [
      " than",
      "ked"
    ],
    [
      " c",
      "u"
    ],
    [
      " b",
      "ook"
    ],
    [
      "um",
      "my"
    ],
    [
      " F",
      "rom"
    ],
    [
      " W",
      "hen"
    ],
    [
      " c",
      "all"
    ],
    [
      " col",
      "or"
    ],
    [
      " H",
      "er"
    ],
    [
      " f",
      "ar"
    ],
    [
      "ard",
      "en"
    ],
    [
      " g",
      "arden"
    ],
    [
      " mag",
      "ic"
    ],
    [
      " e",
      "ver"
    ],
    [
      " ",
      "K"
    ],
    [
      " p",
      "ar"
    ],
    [
      "oug",
      "h"
    ],
    [
      "k",
      "ay"
    ],
    [
      " ",
      "im"
    ],
    [
      " hug",
      "ged"
    ],
    [
      " st",
      "ill"
    ],
    [
      " pl",
      "ace"
    ],
    [
      "N",
      "o"
    ],
    [
      " u",
      "nt"
    ],
    [
      "oo",
      "l"
    ],
    [
      " of",
      "f"
    ],
    [
      " S",
      "ara"
    ],
    [
      "ag",
      "e"
    ],
    [
      " m",
      "a"
    ],
    [
      " sm",
      "ile"
    ],
    [
      " wal",
      "k"
    ],
    [
      " ",
      "P"
    ],
    [
      " jump",
      "ed"
    ],
    [
      " fam",
      "ily"
    ],
    [
      " I",
      "n"
    ],
    [
      " unt",
      "il"
    ],
    [
      "un",
      "ny"
    ],
    [
      "i",
      "z"
    ],
    [
      "t",
      "ure"
    ],
    [
      "he",
      "s"
    ],
    [
      " p",
      "a"
    ],
    [
      "e",
      "m"
    ],
    [
      " sh",
      "ould"
    ],
    [
      " ",
      "qu"
    ],
    [
      " n",
      "ow"
    ],
    [
      "i",
      "p"
    ],
    [
      " k",
      "id"
    ],
    [
      "c",
      "t"
    ],
    [
      " st",
      "ick"
    ],
    [
      "itt",
      "y"
    ],
    [
      " st",
      "ay"
    ],
    [
      " str",
      "ong"
    ],
    [
      " fore",
      "st"
    ],
    [
      " st",
      "o"
    ],
    [
      "an",
      "e"
    ],
    [
      " d",
      "ra"
    ],
    [
      "a",
      "ut"
    ],
    [
      " a",
      "pp"
    ],
    [
      "uff",
      "y"
    ],
    [
      "d",
      "y"
    ],
    [
      " br",
      "o"
    ],
    [
      " bo",
      "at"
    ],
    [
      " gre",
      "at"
    ],
    [
      " b",
      "ra"
    ],
    [
      " s",
      "qu"
    ],
    [
      " be",
      "aut"
    ],
    [
      " t",
      "ra"
    ],
    [
      " n",
      "ext"
    ],
    [
      " j",
      "o"
    ],
    [
      " help",
      "ed"
    ],
    [
      " S",
      "ally"
    ],
    [
      "le",
      "ase"
    ],
    [
      " ha",
      "t"
    ],
    [
      " happ",
      "ily"
    ],
    [
      "le",
      "s"
    ],
    [
      " pic",
      "ture"
    ],
    [
      " stor",
      "y"
    ],
    [
      "i",
      "ful"
    ],
    [
      " beaut",
      "iful"
    ],
    [
      "i",
      "es"
    ],
    [
      " list",
      "en"
    ],
    [
      "n",
      "ing"
    ],
    [
      "t",
      "h"
    ],
    [
      " show",
      "ed"
    ],
    [
      " call",
      "ed"
    ],
    [
      " wh",
      "ile"
    ],
    [
      "o",
      "on"
    ],
    [
      " clo",
      "s"
    ],
    [
      " m",
      "et"
    ],
    [
      " kid",
      "s"
    ],
    [
      "N",
      "ow"
    ],
    [
      " op",
      "en"
    ],
    [
      "p",
      "t"
    ],
    [
      " fr",
      "og"
    ],
    [
      " s",
      "oft"
    ],
    [
      " m",
      "or"
    ],
    [
      " re",
      "m"
    ],
    [
      "l",
      "uffy"
    ],
    [
      " tow",
      "n"
    ],
    [
      " every",
      "one"
    ],
    [
      "C",
      "an"
    ],
    [
      "I",
      "t"
    ],
    [
      "g",
      "er"
    ],
    [
      " im",
      "p"
    ],
    [
      " be",
      "ing"
    ],
    [
      "H",
      "e"
    ],
    [
      "W",
      "hen"
    ],
    [
      " sto",
      "pped"
    ],
    [
      " a",
      "d"
    ],
    [
      "re",
      "l"
    ],
    [
      " r",
      "ain"
    ],
    [
      " an",
      "gry"
    ],
    [
      " y",
      "ummy"
    ],
    [
      "b",
      "y"
    ],
    [
      " wat",
      "ch"
    ],
    [
      "b",
      "it"
    ],
    [
      " do",
      "ll"
    ],
    [
      " could",
      "n"
    ],
    [
      " c",
      "a"
    ],
    [
      "ab",
      "bit"
    ],
    [
      "ar",
      "y"
    ],
    [
      "v",
      "ent"
    ],
    [
      " L",
      "et"
    ],
    [
      "re",
      "e"
    ],
    [
      " tr",
      "uck"
    ],
    [
      " d",
      "e"
    ],
    [
      " w",
      "o"
    ],
    [
      "is",
      "hed"
    ],
    [
      " K",
      "itty"
    ],
    [
      " m",
      "ouse"
    ],
    [
      " r",
      "abbit"
    ],
    [
      "b",
      "e"
    ],
    [
      "dd",
      "ed"
    ],
    [
      " at",
      "e"
    ],
    [
      "re",
      "ss"
    ],
    [
      "is",
      "s"
    ],
    [
      " F",
      "luffy"
    ],
    [
      " lo",
      "st"
    ],
    [
      " wa",
      "rm"
    ],
    [
      " sl",
      "ide"
    ],
    [
      " fa",
      "ce"
    ],
    [
      " bra",
      "ve"
    ],
    [
      " g",
      "ame"
    ],
    [
      " W",
      "h"
    ],
    [
      " ke",
      "ep"
    ],
    [
      " f",
      "ell"
    ],
    [
      " le",
      "ave"
    ],
    [
      "f",
      "ore"
    ],
    [
      " flow",
      "ers"
    ],
    [
      " tw",
      "o"
    ],
    [
      " c",
      "ook"
    ],
    [
      "ow",
      "l"
    ],
    [
      " b",
      "ed"
    ],
    [
      " c",
      "ry"
    ],
    [
      " p",
      "us"
    ],
    [
      "ill",
      "y"
    ],
    [
      "s",
      "o"
    ],
    [
      "o",
      "ck"
    ],
    [
      " so",
      "on"
    ],
    [
      " no",
      "ise"
    ],
    [
      " gre",
      "en"
    ],
    [
      " al",
      "so"
    ],
    [
      " ",
      "R"
    ],
    [
      "Th",
      "at"
    ],
    [
      " b",
      "unny"
    ],
    [
      "e",
      "ar"
    ],
    [
      " no",
      "dded"
    ],
    [
      " w",
      "here"
    ],
    [
      "g",
      "an"
    ],
    [
      "se",
      "lf"
    ],
    [
      " fi",
      "x"
    ],
    [
      " sa",
      "t"
    ],
    [
      " ha",
      "ving"
    ],
    [
      "ir",
      "ed"
    ],
    [
      "H",
      "i"
    ],
    [
      " y",
      "ell"
    ],
    [
      " be",
      "fore"
    ],
    [
      " ke",
      "pt"
    ],
    [
      "�",
      "�"
    ],
    [
      " ho",
      "le"
    ],
    [
      " p",
      "ain"
    ],
    [
      "�",
      "�"
    ],
    [
      " he",
      "ar"
    ],
    [
      "b",
      "le"
    ],
    [
      "d",
      "ay"
    ],
    [
      " st",
      "ore"
    ],
    [
      "Wh",
      "at"
    ],
    [
      " hand",
      "s"
    ],
    [
      " cat",
      "ch"
    ],
    [
      "L",
      "ook"
    ],
    [
      " u",
      "se"
    ],
    [
      "ir",
      "rel"
    ],
    [
      "The",
      "n"
    ],
    [
      " f",
      "in"
    ],
    [
      " s",
      "ing"
    ],
    [
      "a",
      "z"
    ],
    [
      "ir",
      "st"
    ],
    [
      " us",
      "ed"
    ],
    [
      " mom",
      "my"
    ],
    [
      " ex",
      "pl"
    ],
    [
      " th",
      "r"
    ],
    [
      " fun",
      "ny"
    ],
    [
      " squ",
      "irrel"
    ],
    [
      " bird",
      "s"
    ],
    [
      "B",
      "en"
    ],
    [
      " ",
      "Now"
    ],
    [
      " c",
      "ra"
    ],
    [
      " loo",
      "king"
    ],
    [
      "u",
      "ch"
    ],
    [
      " e",
      "y"
    ],
    [
      " t",
      "ired"
    ],
    [
      " go",
      "ing"
    ],
    [
      " wa",
      "it"
    ],
    [
      " b",
      "re"
    ],
    [
      " k",
      "it"
    ],
    [
      "o",
      "y"
    ],
    [
      "e",
      "et"
    ],
    [
      "ay",
      "be"
    ],
    [
      "le",
      "ep"
    ],
    [
      " me",
      "an"
    ],
    [
      "an",
      "ge"
    ],
    [
      "t",
      "hing"
    ],
    [
      "ug",
      "ht"
    ],
    [
      " ",
      "our"
    ],
    [
      "l",
      "ed"
    ],
    [
      " p",
      "ull"
    ],
    [
      "a",
      "ir"
    ],
    [
      " d",
      "if"
    ],
    [
      " fa",
      "v"
    ],
    [
      " sun",
      "ny"
    ],
    [
      " t",
      "ri"
    ],
    [
      " po",
      "nd"
    ],
    [
      "em",
      "ber"
    ],
    [
      " C",
      "an"
    ],
    [
      " ha",
      "s"
    ],
    [
      " kit",
      "c"
    ],
    [
      " kitc",
      "hen"
    ],
    [
      " w",
      "r"
    ],
    [
      " par",
      "ty"
    ],
    [
      " th",
      "ink"
    ],
    [
      "t",
      "ing"
    ],
    [
      " ",
      "ice"
    ],
    [
      " fl",
      "o"
    ],
    [
      " J",
      "o"
    ],
    [
      "or",
      "n"
    ],
    [
      " wor",
      "k"
    ],
    [
      " he",
      "ad"
    ],
    [
      "a",
      "c"
    ],
    [
      "W",
      "e"
    ],
    [
      "u",
      "it"
    ],
    [
      " b",
      "us"
    ],
    [
      " wor",
      "ked"
    ],
    [
      " m",
      "ess"
    ],
    [
      " d",
      "r"
    ],
    [
      "n",
      "g"
    ],
    [
      " re",
      "al"
    ],
    [
      " D",
      "o"
    ],
    [
      "z",
      "y"
    ],
    [
      "i",
      "ous"
    ],
    [
      "h",
      "n"
    ],
    [
      " o",
      "kay"
    ],
    [
      " other",
      "s"
    ],
    [
      " s",
      "ound"
    ],
    [
      "ll",
      "ow"
    ],
    [
      "f",
      "t"
    ],
    [
      " mor",
      "al"
    ],
    [
      " be",
      "h"
    ],
    [
      " ey",
      "es"
    ],
    [
      "at",
      "h"
    ],
    [
      " sa",
      "nd"
    ],
    [
      " ad",
      "vent"
    ],
    [
      " tal",
      "k"
    ],
    [
      " sh",
      "ared"
    ],
    [
      "re",
      "w"
    ],
    [
      " ",
      "z"
    ],
    [
      " rem",
      "ember"
    ],
    [
      " ",
      "“"
    ],
    [
      " fav",
      "or"
    ],
    [
      "j",
      "oy"
    ],
    [
      "m",
      "a"
    ],
    [
      " favor",
      "ite"
    ],
    [
      "ell",
      "o"
    ],
    [
      " as",
      "k"
    ],
    [
      " r",
      "ight"
    ],
    [
      "H",
      "ello"
    ],
    [
      " cu",
      "ri"
    ],
    [
      " c",
      "ut"
    ],
    [
      " co",
      "ld"
    ],
    [
      " ",
      "ri"
    ],
    [
      " h",
      "op"
    ],
    [
      " c",
      "on"
    ],
    [
      " imp",
      "ort"
    ],
    [
      " h",
      "ill"
    ],
    [
      " m",
      "on"
    ],
    [
      "ll",
      "y"
    ],
    [
      " d",
      "ir"
    ],
    [
      "im",
      "es"
    ],
    [
      " ma",
      "king"
    ],
    [
      " en",
      "joy"
    ],
    [
      " curi",
      "ous"
    ],
    [
      " fo",
      "llow"
    ],
    [
      " v",
      "o"
    ],
    [
      " p",
      "ie"
    ],
    [
      " br",
      "ight"
    ],
    [
      " y",
      "ard"
    ],
    [
      " ",
      "G"
    ],
    [
      " flow",
      "er"
    ],
    [
      "A",
      "t"
    ],
    [
      "k",
      "en"
    ],
    [
      " sw",
      "eet"
    ],
    [
      "D",
      "on"
    ],
    [
      " mo",
      "ve"
    ],
    [
      "re",
      "ed"
    ],
    [
      " d",
      "uck"
    ],
    [
      " d",
      "is"
    ],
    [
      " re",
      "st"
    ],
    [
      " ",
      "own"
    ],
    [
      " dra",
      "w"
    ],
    [
      " f",
      "irst"
    ],
    [
      " import",
      "ant"
    ],
    [
      " to",
      "p"
    ],
    [
      " J",
      "ack"
    ],
    [
      " cl",
      "a"
    ],
    [
      " sh",
      "o"
    ],
    [
      " be",
      "gan"
    ],
    [
      " t",
      "all"
    ],
    [
      " p",
      "ick"
    ],
    [
      " bl",
      "ock"
    ],
    [
      " wat",
      "ched"
    ],
    [
      "ou",
      "nt"
    ],
    [
      " s",
      "leep"
    ],
    [
      " be",
      "l"
    ],
    [
      " l",
      "ady"
    ],
    [
      "A",
      "fter"
    ],
    [
      " n",
      "ight"
    ],
    [
      " th",
      "ing"
    ],
    [
      "W",
      "ow"
    ],
    [
      "i",
      "ed"
    ],
    [
      " r",
      "ace"
    ],
    [
      "st",
      "er"
    ],
    [
      " ta",
      "il"
    ],
    [
      " h",
      "ot"
    ],
    [
      "fe",
      "re"
    ],
    [
      " h",
      "id"
    ],
    [
      " h",
      "un"
    ],
    [
      " dif",
      "fere"
    ],
    [
      " ag",
      "reed"
    ],
    [
      " flo",
      "or"
    ],
    [
      " sh",
      "out"
    ],
    [
      " he",
      "re"
    ],
    [
      " st",
      "op"
    ],
    [
      "ec",
      "t"
    ],
    [
      " for",
      "g"
    ],
    [
      " Th",
      "is"
    ],
    [
      " d",
      "ark"
    ],
    [
      " b",
      "ag"
    ],
    [
      " gra",
      "ss"
    ],
    [
      " wor",
      "ry"
    ],
    [
      "ig",
      "n"
    ],
    [
      " s",
      "ong"
    ],
    [
      " t",
      "able"
    ],
    [
      " ta",
      "st"
    ],
    [
      " t",
      "ell"
    ],
    [
      " need",
      "ed"
    ],
    [
      " pr",
      "in"
    ],
    [
      "q",
      "ue"
    ],
    [
      " leave",
      "s"
    ],
    [
      " vo",
      "ice"
    ],
    [
      "ar",
      "ing"
    ],
    [
      " yell",
      "ow"
    ],
    [
      " re",
      "ad"
    ],
    [
      " far",
      "m"
    ],
    [
      "ap",
      "er"
    ],
    [
      " F",
      "in"
    ],
    [
      " r",
      "u"
    ],
    [
      " tre",
      "es"
    ],
    [
      " d",
      "ress"
    ],
    [
      " ha",
      "ir"
    ],
    [
      " sw",
      "ing"
    ],
    [
      "Wh",
      "y"
    ],
    [
      " differe",
      "nt"
    ],
    [
      " d",
      "el"
    ],
    [
      " advent",
      "ure"
    ],
    [
      " wal",
      "king"
    ],
    [
      " turn",
      "ed"
    ],
    [
      " surpr",
      "ise"
    ],
    [
      " p",
      "lease"
    ],
    [
      "�",
      "�"
    ],
    [
      " M",
      "r"
    ],
    [
      " hun",
      "gry"
    ],
    [
      "M",
      "ax"
    ],
    [
      " car",
      "s"
    ],
    [
      " do",
      "es"
    ],
    [
      " S",
      "uddenly"
    ],
    [
      " color",
      "s"
    ],
    [
      " D",
      "ad"
    ],
    [
      "o",
      "om"
    ],
    [
      "S",
      "uddenly"
    ],
    [
      " laug",
      "h"
    ],
    [
      "b",
      "o"
    ],
    [
      "S",
      "ue"
    ],
    [
      " clos",
      "er"
    ],
    [
      "a",
      "ched"
    ],
    [
      " pret",
      "end"
    ],
    [
      "S",
      "am"
    ],
    [
      " li",
      "on"
    ],
    [
      "c",
      "o"
    ],
    [
      "i",
      "ent"
    ],
    [
      "er",
      "ed"
    ],
    [
      "il",
      "a"
    ],
    [
      " bro",
      "ken"
    ],
    [
      " pr",
      "om"
    ],
    [
      " c",
      "ried"
    ],
    [
      " w",
      "ood"
    ],
    [
      "by",
      "e"
    ],
    [
      " w",
      "et"
    ],
    [
      " pie",
      "ce"
    ],
    [
      " friend",
      "ly"
    ],
    [
      " Tim",
      "my"
    ],
    [
      " f",
      "ull"
    ],
    [
      " beh",
      "ind"
    ],
    [
      " tra",
      "in"
    ],
    [
      "is",
      "y"
    ],
    [
      " dan",
      "ce"
    ],
    [
      "A",
      "nna"
    ],
    [
      "pp",
      "y"
    ],
    [
      " climb",
      "ed"
    ],
    [
      " to",
      "uch"
    ],
    [
      " an",
      "other"
    ],
    [
      " dan",
      "c"
    ],
    [
      " g",
      "one"
    ],
    [
      "a",
      "f"
    ],
    [
      "w",
      "here"
    ],
    [
      " app",
      "le"
    ],
    [
      " sm",
      "ell"
    ],
    [
      "bb",
      "ed"
    ],
    [
      " sw",
      "im"
    ],
    [
      " st",
      "e"
    ],
    [
      " block",
      "s"
    ],
    [
      "c",
      "ked"
    ],
    [
      "S",
      "o"
    ],
    [
      " feel",
      "ing"
    ],
    [
      "at",
      "er"
    ],
    [
      "s",
      "h"
    ],
    [
      " Th",
      "at"
    ],
    [
      " p",
      "aper"
    ],
    [
      " am",
      "az"
    ],
    [
      "S",
      "he"
    ],
    [
      " A",
      "s"
    ],
    [
      " a",
      "nt"
    ],
    [
      " but",
      "ter"
    ],
    [
      " p",
      "er"
    ],
    [
      " run",
      "ning"
    ],
    [
      " J",
      "ane"
    ],
    [
      " re",
      "ached"
    ],
    [
      " help",
      "ing"
    ],
    [
      " list",
      "ened"
    ],
    [
      " fa",
      "ir"
    ],
    [
      " good",
      "bye"
    ],
    [
      "ic",
      "ed"
    ],
    [
      " re",
      "ady"
    ],
    [
      " ho",
      "ld"
    ],
    [
      " on",
      "ly"
    ],
    [
      "a",
      "v"
    ],
    [
      " l",
      "ight"
    ],
    [
      " a",
      "c"
    ],
    [
      "r",
      "ay"
    ],
    [
      "ab",
      "y"
    ],
    [
      "i",
      "ke"
    ],
    [
      " ",
      "O"
    ],
    [
      " ro",
      "ll"
    ],
    [
      "S",
      "ara"
    ],
    [
      " c",
      "ream"
    ],
    [
      " Bob",
      "o"
    ],
    [
      " re",
      "pl"
    ],
    [
      " d",
      "ri"
    ],
    [
      " pus",
      "hed"
    ],
    [
      "ke",
      "y"
    ],
    [
      " s",
      "it"
    ],
    [
      " f",
      "ight"
    ],
    [
      " sl",
      "ow"
    ],
    [
      " pl",
      "an"
    ],
    [
      " clo",
      "se"
    ],
    [
      "r",
      "ed"
    ],
    [
      " A",
      "ll"
    ],
    [
      " l",
      "ess"
    ],
    [
      " d",
      "one"
    ],
    [
      "p",
      "e"
    ],
    [
      " wa",
      "g"
    ],
    [
      " wa",
      "ll"
    ],
    [
      " ",
      "owl"
    ],
    [
      " c",
      "ool"
    ],
    [
      " mu",
      "st"
    ],
    [
      " se",
      "es"
    ],
    [
      " gl",
      "ad"
    ],
    [
      " fr",
      "uit"
    ],
    [
      " w",
      "ise"
    ],
    [
      "ie",
      "ld"
    ],
    [
      " t",
      "iny"
    ],
    [
      " wo",
      "nder"
    ],
    [
      " mom",
      "ent"
    ],
    [
      " try",
      "ing"
    ],
    [
      " st",
      "uck"
    ],
    [
      "at",
      "her"
    ],
    [
      " d",
      "ream"
    ],
    [
      " thr",
      "ough"
    ],
    [
      " d",
      "in"
    ],
    [
      "I",
      "n"
    ],
    [
      "as",
      "h"
    ],
    [
      " p",
      "en"
    ],
    [
      " w",
      "ished"
    ],
    [
      " fi",
      "re"
    ],
    [
      "am",
      "es"
    ],
    [
      " re",
      "ach"
    ],
    [
      " th",
      "ank"
    ],
    [
      " b",
      "ar"
    ],
    [
      " be",
      "en"
    ],
    [
      " b",
      "aby"
    ],
    [
      " expl",
      "ore"
    ],
    [
      " jo",
      "in"
    ],
    [
      " wind",
      "ow"
    ],
    [
      "ot",
      "t"
    ],
    [
      " look",
      "s"
    ],
    [
      " do",
      "ing"
    ],
    [
      " Every",
      "one"
    ],
    [
      " a",
      "r"
    ],
    [
      " bu",
      "y"
    ],
    [
      " b",
      "it"
    ],
    [
      " shout",
      "ed"
    ],
    [
      " a",
      "ir"
    ],
    [
      " bu",
      "ild"
    ],
    [
      " h",
      "ide"
    ],
    [
      "M",
      "ia"
    ],
    [
      " Mom",
      "my"
    ],
    [
      " ne",
      "st"
    ],
    [
      " sw",
      "am"
    ],
    [
      " sc",
      "ary"
    ],
    [
      " f",
      "all"
    ],
    [
      " com",
      "ing"
    ],
    [
      " cl",
      "oud"
    ],
    [
      " br",
      "an"
    ],
    [
      " la",
      "nd"
    ],
    [
      "one",
      "y"
    ],
    [
      " b",
      "lew"
    ],
    [
      " w",
      "in"
    ],
    [
      " se",
      "en"
    ],
    [
      " per",
      "f"
    ],
    [
      "and",
      "y"
    ],
    [
      "as",
      "k"
    ],
    [
      " dir",
      "ty"
    ],
    [
      " ch",
      "ild"
    ],
    [
      " book",
      "s"
    ],
    [
      " he",
      "ld"
    ],
    [
      "av",
      "y"
    ],
    [
      "p",
      "h"
    ],
    [
      " big",
      "ger"
    ],
    [
      " repl",
      "ied"
    ],
    [
      " qu",
      "ick"
    ],
    [
      " le",
      "ft"
    ],
    [
      " m",
      "at"
    ],
    [
      " under",
      "st"
    ],
    [
      "el",
      "y"
    ],
    [
      " m",
      "ight"
    ],
    [
      " tre",
      "at"
    ],
    [
      " color",
      "ful"
    ],
    [
      "nd",
      "ma"
    ],
    [
      " pull",
      "ed"
    ],
    [
      " gra",
      "bbed"
    ],
    [
      " turn",
      "s"
    ],
    [
      " wh",
      "y"
    ],
    [
      "O",
      "kay"
    ],
    [
      " butter",
      "f"
    ],
    [
      " d",
      "ro"
    ],
    [
      "iz",
      "ed"
    ],
    [
      " remember",
      "ed"
    ],
    [
      "ic",
      "y"
    ],
    [
      " f",
      "ill"
    ],
    [
      " nam",
      "e"
    ],
    [
      " cu",
      "p"
    ],
    [
      " ch",
      "air"
    ],
    [
      "uck",
      "y"
    ],
    [
      " ca",
      "st"
    ],
    [
      " bro",
      "ke"
    ],
    [
      "or",
      "m"
    ],
    [
      " somet",
      "imes"
    ],
    [
      " c",
      "ount"
    ],
    [
      " th",
      "ree"
    ],
    [
      " s",
      "ure"
    ],
    [
      "a",
      "isy"
    ],
    [
      " sp",
      "l"
    ],
    [
      "at",
      "ion"
    ],
    [
      "ou",
      "p"
    ],
    [
      " ho",
      "pped"
    ],
    [
      " p",
      "ink"
    ],
    [
      " stay",
      "ed"
    ],
    [
      "t",
      "on"
    ],
    [
      " sn",
      "ow"
    ],
    [
      " j",
      "ob"
    ],
    [
      " cla",
      "pped"
    ],
    [
      "u",
      "p"
    ],
    [
      "O",
      "h"
    ],
    [
      " g",
      "ames"
    ],
    [
      " b",
      "ott"
    ],
    [
      "d",
      "er"
    ],
    [
      " g",
      "if"
    ],
    [
      "e",
      "e"
    ],
    [
      " wa",
      "ited"
    ],
    [
      " The",
      "re"
    ],
    [
      "'",
      "re"
    ],
    [
      " pl",
      "ant"
    ],
    [
      " gr",
      "ow"
    ],
    [
      " not",
      "iced"
    ],
    [
      " less",
      "on"
    ],
    [
      " ball",
      "oon"
    ],
    [
      " any",
      "thing"
    ],
    [
      "i",
      "x"
    ],
    [
      " picture",
      "s"
    ],
    [
      " wood",
      "s"
    ],
    [
      "out",
      "h"
    ],
    [
      " m",
      "outh"
    ],
    [
      " pain",
      "t"
    ],
    [
      " A",
      "fter"
    ],
    [
      "udd",
      "y"
    ],
    [
      " wa",
      "ved"
    ],
    [
      " s",
      "et"
    ],
    [
      " enjoy",
      "ed"
    ],
    [
      "ow",
      "er"
    ],
    [
      "ro",
      "om"
    ],
    [
      " al",
      "one"
    ],
    [
      " sp",
      "ot"
    ],
    [
      " p",
      "ot"
    ],
    [
      " con",
      "t"
    ],
    [
      "J",
      "o"
    ],
    [
      "Th",
      "is"
    ],
    [
      " se",
      "a"
    ],
    [
      " br",
      "other"
    ],
    [
      " like",
      "s"
    ],
    [
      "d",
      "s"
    ],
    [
      "ar",
      "t"
    ],
    [
      "ou",
      "n"
    ],
    [
      "am",
      "p"
    ],
    [
      "H",
      "er"
    ],
    [
      " t",
      "ight"
    ],
    [
      " y",
      "ear"
    ],
    [
      " th",
      "rew"
    ],
    [
      "\"",
      "."
    ],
    [
      " he",
      "avy"
    ],
    [
      " wh",
      "ite"
    ],
    [
      " follow",
      "ed"
    ],
    [
      " quick",
      "ly"
    ],
    [
      " g",
      "ent"
    ],
    [
      " butterf",
      "ly"
    ],
    [
      "in",
      "s"
    ],
    [
      " cook",
      "ies"
    ],
    [
      " m",
      "iss"
    ],
    [
      "S",
      "pot"
    ],
    [
      " de",
      "ep"
    ],
    [
      "ap",
      "e"
    ],
    [
      " j",
      "u"
    ],
    [
      "as",
      "ure"
    ],
    [
      " every",
      "where"
    ],
    [
      "d",
      "e"
    ],
    [
      "L",
      "ucy"
    ],
    [
      " be",
      "e"
    ],
    [
      "z",
      "e"
    ],
    [
      " p",
      "at"
    ],
    [
      " Jo",
      "hn"
    ],
    [
      "ri",
      "es"
    ],
    [
      "a",
      "ught"
    ],
    [
      " m",
      "ar"
    ],
    [
      "B",
      "ob"
    ],
    [
      " wor",
      "ld"
    ],
    [
      "is",
      "ter"
    ],
    [
      "c",
      "le"
    ],
    [
      " cl",
      "ot"
    ],
    [
      " wr",
      "ong"
    ],
    [
      " clot",
      "hes"
    ],
    [
      " cast",
      "le"
    ],
    [
      " c",
      "re"
    ],
    [
      " we",
      "ar"
    ],
    [
      "le",
      "ss"
    ],
    [
      " p",
      "u"
    ],
    [
      "l",
      "c"
    ],
    [
      "ro",
      "ss"
    ],
    [
      " but",
      "ton"
    ],
    [
      " m",
      "um"
    ],
    [
      " le",
      "af"
    ],
    [
      "o",
      "lly"
    ],
    [
      "i",
      "et"
    ],
    [
      " B",
      "uddy"
    ],
    [
      " n",
      "ap"
    ],
    [
      "n",
      "er"
    ],
    [
      " qu",
      "iet"
    ],
    [
      " ke",
      "y"
    ],
    [
      " m",
      "ix"
    ],
    [
      "are",
      "nt"
    ],
    [
      " make",
      "s"
    ],
    [
      "an",
      "g"
    ],
    [
      " br",
      "ought"
    ],
    [
      " r",
      "ound"
    ],
    [
      " p",
      "arent"
    ],
    [
      "r",
      "ow"
    ],
    [
      "ull",
      "y"
    ],
    [
      " want",
      "s"
    ],
    [
      "u",
      "ed"
    ],
    [
      "r",
      "ot"
    ],
    [
      " D",
      "aisy"
    ],
    [
      " him",
      "self"
    ],
    [
      " we",
      "ll"
    ],
    [
      "o",
      "s"
    ],
    [
      " w",
      "on"
    ],
    [
      " del",
      "ic"
    ],
    [
      " r",
      "ide"
    ],
    [
      " f",
      "ield"
    ],
    [
      "m",
      "an"
    ],
    [
      " danc",
      "ed"
    ],
    [
      " bre",
      "ak"
    ],
    [
      " a",
      "rm"
    ],
    [
      " tow",
      "er"
    ],
    [
      " L",
      "ila"
    ],
    [
      " s",
      "ign"
    ],
    [
      "D",
      "o"
    ],
    [
      " Wh",
      "at"
    ],
    [
      "f",
      "ully"
    ],
    [
      " sn",
      "ack"
    ],
    [
      " h",
      "it"
    ],
    [
      "th",
      "y"
    ],
    [
      " dra",
      "g"
    ],
    [
      " fast",
      "er"
    ],
    [
      " gif",
      "t"
    ],
    [
      " k",
      "ing"
    ],
    [
      " tal",
      "ked"
    ],
    [
      " forg",
      "ot"
    ],
    [
      " w",
      "ish"
    ],
    [
      " le",
      "g"
    ],
    [
      " be",
      "ach"
    ],
    [
      "g",
      "g"
    ],
    [
      " ri",
      "ver"
    ],
    [
      " s",
      "ister"
    ],
    [
      " mu",
      "s"
    ],
    [
      "ce",
      "ss"
    ],
    [
      " fin",
      "ished"
    ],
    [
      "en",
      "ce"
    ],
    [
      " bran",
      "ch"
    ],
    [
      " com",
      "p"
    ],
    [
      " d",
      "ry"
    ],
    [
      "le",
      "ph"
    ],
    [
      "ve",
      "s"
    ],
    [
      " sh",
      "aring"
    ],
    [
      "itt",
      "en"
    ],
    [
      "c",
      "y"
    ],
    [
      "F",
      "rom"
    ],
    [
      " In",
      "side"
    ],
    [
      " po",
      "l"
    ],
    [
      " b",
      "ike"
    ],
    [
      "ve",
      "l"
    ],
    [
      " din",
      "ner"
    ],
    [
      " drag",
      "on"
    ],
    [
      " f",
      "ur"
    ],
    [
      "ard",
      "s"
    ],
    [
      " dan",
      "ger"
    ],
    [
      " r",
      "a"
    ],
    [
      " re",
      "l"
    ],
    [
      " e",
      "m"
    ],
    [
      " re",
      "ally"
    ],
    [
      " b",
      "or"
    ],
    [
      " underst",
      "and"
    ],
    [
      " v",
      "is"
    ],
    [
      "i",
      "pp"
    ],
    [
      " sh",
      "in"
    ],
    [
      "an",
      "ce"
    ],
    [
      " T",
      "o"
    ],
    [
      " bl",
      "ack"
    ],
    [
      "Jo",
      "hn"
    ],
    [
      " bott",
      "le"
    ],
    [
      "re",
      "n"
    ],
    [
      " mon",
      "key"
    ],
    [
      " fo",
      "x"
    ],
    [
      "H",
      "is"
    ],
    [
      " mon",
      "ster"
    ],
    [
      "ed",
      "dy"
    ],
    [
      " p",
      "ig"
    ],
    [
      " A",
      "t"
    ],
    [
      " sm",
      "art"
    ],
    [
      " po",
      "in"
    ],
    [
      " cont",
      "in"
    ],
    [
      " rock",
      "s"
    ],
    [
      " wor",
      "ried"
    ],
    [
      " care",
      "fully"
    ],
    [
      " g",
      "u"
    ],
    [
      "A",
      "my"
    ],
    [
      " b",
      "owl"
    ],
    [
      " some",
      "one"
    ],
    [
      "ct",
      "or"
    ],
    [
      "im",
      "i"
    ],
    [
      " fair",
      "y"
    ],
    [
      " at",
      "t"
    ],
    [
      " to",
      "day"
    ],
    [
      "a",
      "st"
    ],
    [
      " fill",
      "ed"
    ],
    [
      " eat",
      "ing"
    ],
    [
      " p",
      "udd"
    ],
    [
      " s",
      "ide"
    ],
    [
      "us",
      "h"
    ],
    [
      " e",
      "l"
    ],
    [
      " we",
      "lc"
    ],
    [
      "se",
      "s"
    ],
    [
      " g",
      "i"
    ],
    [
      " c",
      "ow"
    ],
    [
      " b",
      "oun"
    ],
    [
      " sn",
      "ake"
    ],
    [
      " br",
      "own"
    ],
    [
      "itt",
      "ing"
    ],
    [
      "e",
      "ad"
    ],
    [
      " w",
      "he"
    ],
    [
      " prom",
      "ised"
    ],
    [
      " f",
      "an"
    ],
    [
      "Wh",
      "ile"
    ],
    [
      " happ",
      "en"
    ],
    [
      " p",
      "et"
    ],
    [
      " s",
      "illy"
    ],
    [
      " every",
      "thing"
    ],
    [
      "J",
      "ust"
    ],
    [
      " y",
      "es"
    ],
    [
      " re",
      "s"
    ],
    [
      "t",
      "s"
    ],
    [
      " parent",
      "s"
    ],
    [
      " So",
      "on"
    ],
    [
      " M",
      "aybe"
    ],
    [
      " s",
      "oup"
    ],
    [
      " vis",
      "it"
    ],
    [
      " mus",
      "ic"
    ],
    [
      " let",
      "ter"
    ],
    [
      " mu",
      "d"
    ],
    [
      " el",
      "se"
    ],
    [
      "at",
      "ed"
    ],
    [
      " f",
      "ree"
    ],
    [
      " piece",
      "s"
    ],
    [
      " child",
      "ren"
    ],
    [
      " ro",
      "ad"
    ],
    [
      "st",
      "ead"
    ],
    [
      " b",
      "ite"
    ],
    [
      " contin",
      "ued"
    ],
    [
      " sh",
      "op"
    ],
    [
      " sa",
      "ng"
    ],
    [
      " tal",
      "king"
    ],
    [
      "F",
      "in"
    ],
    [
      " perf",
      "ect"
    ],
    [
      " k",
      "ite"
    ],
    [
      " fly",
      "ing"
    ],
    [
      " e",
      "gg"
    ],
    [
      "z",
      "z"
    ],
    [
      " smile",
      "s"
    ],
    [
      " real",
      "ized"
    ],
    [
      " thr",
      "ow"
    ],
    [
      " B",
      "illy"
    ],
    [
      " ma",
      "il"
    ],
    [
      " e",
      "ar"
    ],
    [
      " Sara",
      "h"
    ],
    [
      " wor",
      "ds"
    ],
    [
      "or",
      "d"
    ],
    [
      " E",
      "m"
    ],
    [
      ".",
      "”"
    ],
    [
      " amaz",
      "ing"
    ],
    [
      " laug",
      "hing"
    ],
    [
      " j",
      "ar"
    ],
    [
      "ck",
      "et"
    ],
    [
      " wag",
      "ged"
    ],
    [
      " or",
      "ange"
    ],
    [
      " ",
      "que"
    ],
    [
      " mo",
      "ved"
    ],
    [
      " se",
      "c"
    ],
    [
      " s",
      "itting"
    ],
    [
      " en",
      "ough"
    ],
    [
      " clos",
      "ed"
    ],
    [
      " ",
      "Z"
    ],
    [
      " pa",
      "ss"
    ],
    [
      "e",
      "y"
    ],
    [
      " shin",
      "ing"
    ],
    [
      " with",
      "out"
    ],
    [
      " m",
      "other"
    ],
    [
      " sm",
      "o"
    ],
    [
      "g",
      "ly"
    ],
    [
      " cra",
      "b"
    ],
    [
      " st",
      "and"
    ],
    [
      " b",
      "uck"
    ],
    [
      " danger",
      "ous"
    ],
    [
      " ro",
      "pe"
    ],
    [
      " sa",
      "il"
    ],
    [
      "f",
      "ort"
    ],
    [
      " sec",
      "ret"
    ],
    [
      " bar",
      "ked"
    ],
    [
      " str",
      "ange"
    ],
    [
      " b",
      "ath"
    ],
    [
      " st",
      "u"
    ],
    [
      " tast",
      "y"
    ],
    [
      " dr",
      "ink"
    ],
    [
      " M",
      "imi"
    ],
    [
      "un",
      "ch"
    ],
    [
      " ",
      "ve"
    ],
    [
      " welc",
      "ome"
    ],
    [
      "ell",
      "a"
    ],
    [
      "f",
      "ish"
    ],
    [
      " pa",
      "w"
    ],
    [
      "us",
      "ed"
    ],
    [
      "bo",
      "ard"
    ],
    [
      "i",
      "ver"
    ],
    [
      " cry",
      "ing"
    ],
    [
      " pa",
      "st"
    ],
    [
      " wh",
      "ist"
    ],
    [
      " he",
      "al"
    ],
    [
      " c",
      "e"
    ],
    [
      "is",
      "es"
    ],
    [
      " l",
      "on"
    ],
    [
      " c",
      "andy"
    ],
    [
      " li",
      "ving"
    ],
    [
      " ",
      "-"
    ],
    [
      " hig",
      "her"
    ],
    [
      " lon",
      "ely"
    ],
    [
      "c",
      "hes"
    ],
    [
      "M",
      "aybe"
    ],
    [
      " own",
      "er"
    ],
    [
      " C",
      "h"
    ],
    [
      " p",
      "re"
    ],
    [
      " sho",
      "es"
    ],
    [
      " bel",
      "ie"
    ],
    [
      " farm",
      "er"
    ],
    [
      " sa",
      "ck"
    ],
    [
      " mor",
      "ning"
    ],
    [
      "P",
      "lease"
    ],
    [
      "ch",
      "ool"
    ],
    [
      "at",
      "o"
    ],
    [
      "ar",
      "m"
    ],
    [
      " to",
      "m"
    ],
    [
      " J",
      "en"
    ],
    [
      " delic",
      "ious"
    ],
    [
      " sw",
      "ings"
    ],
    [
      "g",
      "y"
    ],
    [
      " p",
      "urp"
    ],
    [
      "ra",
      "ct"
    ],
    [
      " s",
      "chool"
    ],
    [
      " sc",
      "ream"
    ],
    [
      "ll",
      "ie"
    ],
    [
      "is",
      "k"
    ],
    [
      " te",
      "ac"
    ],
    [
      " fin",
      "ally"
    ],
    [
      " pus",
      "h"
    ],
    [
      "i",
      "ble"
    ],
    [
      " roll",
      "ed"
    ],
    [
      " gra",
      "ndma"
    ],
    [
      " st",
      "one"
    ],
    [
      " p",
      "h"
    ],
    [
      "!",
      "”"
    ],
    [
      " pudd",
      "le"
    ],
    [
      "leph",
      "ant"
    ],
    [
      "Mom",
      "my"
    ],
    [
      "ld",
      "er"
    ],
    [
      " doll",
      "s"
    ],
    [
      " st",
      "re"
    ],
    [
      "i",
      "ch"
    ],
    [
      " B",
      "l"
    ],
    [
      "m",
      "e"
    ],
    [
      " get",
      "ting"
    ],
    [
      " bl",
      "ank"
    ],
    [
      " purp",
      "le"
    ],
    [
      " ask",
      "s"
    ],
    [
      "am",
      "a"
    ],
    [
      " l",
      "ake"
    ],
    [
      "i",
      "re"
    ],
    [
      "ask",
      "et"
    ],
    [
      "ll",
      "a"
    ],
    [
      " year",
      "s"
    ],
    [
      " tr",
      "ou"
    ],
    [
      " she",
      "ll"
    ],
    [
      " m",
      "ad"
    ],
    [
      " blank",
      "et"
    ],
    [
      " ca",
      "ught"
    ],
    [
      "as",
      "ed"
    ],
    [
      " c",
      "orn"
    ],
    [
      " tre",
      "asure"
    ],
    [
      "s",
      "et"
    ],
    [
      " run",
      "s"
    ],
    [
      " m",
      "oney"
    ],
    [
      " w",
      "ore"
    ],
    [
      " b",
      "asket"
    ],
    [
      "u",
      "b"
    ],
    [
      " hop",
      "ed"
    ],
    [
      "on",
      "s"
    ],
    [
      " p",
      "ile"
    ],
    [
      "isk",
      "ers"
    ],
    [
      " sa",
      "me"
    ],
    [
      " Jo",
      "e"
    ],
    [
      " sing",
      "ing"
    ],
    [
      "e",
      "o"
    ],
    [
      " her",
      "self"
    ],
    [
      "a",
      "pp"
    ],
    [
      " w",
      "ings"
    ],
    [
      " p",
      "ers"
    ],
    [
      " app",
      "les"
    ],
    [
      "ck",
      "s"
    ],
    [
      " cut",
      "e"
    ],
    [
      " b",
      "en"
    ],
    [
      "b",
      "r"
    ],
    [
      " j",
      "e"
    ],
    [
      " Tom",
      "my"
    ],
    [
      " m",
      "ine"
    ],
    [
      " b",
      "at"
    ],
    [
      " pl",
      "ane"
    ],
    [
      "ig",
      "h"
    ],
    [
      " gent",
      "le"
    ],
    [
      " car",
      "rot"
    ],
    [
      " c",
      "ray"
    ],
    [
      " teac",
      "her"
    ],
    [
      " e",
      "lephant"
    ],
    [
      " co",
      "at"
    ],
    [
      " dro",
      "pped"
    ],
    [
      " ball",
      "s"
    ],
    [
      " se",
      "ar"
    ],
    [
      " p",
      "ill"
    ],
    [
      " star",
      "t"
    ],
    [
      " f",
      "it"
    ],
    [
      " day",
      "s"
    ],
    [
      " t",
      "eddy"
    ],
    [
      "th",
      "day"
    ],
    [
      "ir",
      "thday"
    ],
    [
      " c",
      "our"
    ],
    [
      " do",
      "ctor"
    ],
    [
      "Fin",
      "ally"
    ],
    [
      " cour",
      "se"
    ],
    [
      " wa",
      "r"
    ],
    [
      "in",
      "ed"
    ],
    [
      " fore",
      "ver"
    ],
    [
      "aught",
      "y"
    ],
    [
      " wo",
      "ke"
    ],
    [
      " jo",
      "y"
    ],
    [
      " hid",
      "ing"
    ],
    [
      " n",
      "aughty"
    ],
    [
      " se",
      "ed"
    ],
    [
      " c",
      "ard"
    ],
    [
      " prom",
      "ise"
    ],
    [
      " br",
      "ing"
    ],
    [
      " m",
      "in"
    ],
    [
      " Wh",
      "iskers"
    ],
    [
      "il",
      "k"
    ],
    [
      " ar",
      "ri"
    ],
    [
      " mo",
      "st"
    ],
    [
      " te",
      "ach"
    ],
    [
      " cook",
      "ie"
    ],
    [
      " sp",
      "in"
    ],
    [
      " c",
      "r"
    ],
    [
      " b",
      "and"
    ],
    [
      "ump",
      "y"
    ],
    [
      " che",
      "e"
    ],
    [
      " sh",
      "ap"
    ],
    [
      "at",
      "or"
    ],
    [
      " f",
      "ence"
    ],
    [
      "o",
      "l"
    ],
    [
      " Bl",
      "ue"
    ],
    [
      " G",
      "ra"
    ],
    [
      " bus",
      "h"
    ],
    [
      " ro",
      "b"
    ],
    [
      " think",
      "s"
    ],
    [
      " sh",
      "r"
    ],
    [
      " m",
      "ilk"
    ],
    [
      " l",
      "unch"
    ],
    [
      " e",
      "as"
    ],
    [
      " u",
      "gly"
    ],
    [
      " b",
      "irthday"
    ],
    [
      " no",
      "se"
    ],
    [
      "ar",
      "p"
    ],
    [
      " to",
      "uc"
    ],
    [
      " ju",
      "ice"
    ],
    [
      " Th",
      "ank"
    ],
    [
      "o",
      "se"
    ],
    [
      " v",
      "ill"
    ],
    [
      " o",
      "b"
    ],
    [
      " gre",
      "w"
    ],
    [
      " b",
      "ow"
    ],
    [
      " bel",
      "ong"
    ],
    [
      " p",
      "op"
    ],
    [
      " shap",
      "es"
    ],
    [
      " an",
      "s"
    ],
    [
      " ans",
      "w"
    ],
    [
      "f",
      "used"
    ],
    [
      " F",
      "red"
    ],
    [
      " sh",
      "arp"
    ],
    [
      "it",
      "ch"
    ],
    [
      "i",
      "pped"
    ],
    [
      " cre",
      "at"
    ],
    [
      "a",
      "ss"
    ],
    [
      "a",
      "il"
    ],
    [
      " hear",
      "t"
    ],
    [
      " you",
      "ng"
    ],
    [
      " ben",
      "ch"
    ],
    [
      "um",
      "ber"
    ],
    [
      "ir",
      "t"
    ],
    [
      "s",
      "y"
    ],
    [
      " stre",
      "et"
    ],
    [
      " B",
      "ella"
    ],
    [
      "i",
      "er"
    ],
    [
      " L",
      "eo"
    ],
    [
      "b",
      "ow"
    ],
    [
      "'",
      "ll"
    ],
    [
      " see",
      "m"
    ],
    [
      " b",
      "one"
    ],
    [
      "J",
      "ack"
    ],
    [
      " ab",
      "le"
    ],
    [
      "er",
      "ry"
    ],
    [
      " m",
      "ark"
    ],
    [
      " l",
      "ate"
    ],
    [
      " w",
      "ra"
    ],
    [
      "et",
      "er"
    ],
    [
      "s",
      "c"
    ],
    [
      "b",
      "all"
    ],
    [
      "a",
      "le"
    ],
    [
      " belie",
      "ve"
    ],
    [
      " rock",
      "et"
    ],
    [
      " buck",
      "et"
    ],
    [
      " z",
      "oom"
    ],
    [
      " bre",
      "ad"
    ],
    [
      " co",
      "in"
    ],
    [
      " rob",
      "ot"
    ],
    [
      " dir",
      "t"
    ],
    [
      " magic",
      "al"
    ],
    [
      " po",
      "cket"
    ],
    [
      " p",
      "ower"
    ],
    [
      " touc",
      "hed"
    ],
    [
      " sp",
      "oon"
    ],
    [
      " k",
      "iss"
    ],
    [
      " sh",
      "y"
    ],
    [
      " in",
      "c"
    ],
    [
      " slow",
      "ly"
    ],
    [
      " bus",
      "y"
    ],
    [
      " sh",
      "ook"
    ],
    [
      " tw",
      "ins"
    ],
    [
      " k",
      "itten"
    ],
    [
      " arri",
      "ved"
    ],
    [
      " che",
      "ered"
    ],
    [
      " pr",
      "ob"
    ],
    [
      " feel",
      "s"
    ],
    [
      " sh",
      "ake"
    ],
    [
      " cra",
      "w"
    ],
    [
      " le",
      "m"
    ],
    [
      " car",
      "ry"
    ],
    [
      " se",
      "at"
    ],
    [
      " ne",
      "ck"
    ],
    [
      " tri",
      "p"
    ],
    [
      " stor",
      "m"
    ],
    [
      " amaz",
      "ed"
    ],
    [
      "l",
      "ing"
    ],
    [
      " sp",
      "o"
    ],
    [
      "un",
      "g"
    ],
    [
      " f",
      "ew"
    ],
    [
      " vill",
      "age"
    ],
    [
      "e",
      "ared"
    ],
    [
      " be",
      "ll"
    ],
    [
      "ig",
      "g"
    ],
    [
      "O",
      "K"
    ],
    [
      "le",
      "m"
    ],
    [
      "id",
      "ge"
    ],
    [
      " ta",
      "king"
    ],
    [
      " pat",
      "ient"
    ],
    [
      " fix",
      "ed"
    ],
    [
      " gr",
      "umpy"
    ],
    [
      " stor",
      "ies"
    ],
    [
      " co",
      "ll"
    ],
    [
      " prob",
      "lem"
    ],
    [
      "oo",
      "se"
    ],
    [
      " n",
      "ut"
    ],
    [
      " whe",
      "el"
    ],
    [
      "urt",
      "le"
    ],
    [
      "o",
      "st"
    ],
    [
      " sound",
      "s"
    ],
    [
      "G",
      "ood"
    ],
    [
      " wonder",
      "ful"
    ],
    [
      " gr",
      "ay"
    ],
    [
      " li",
      "ve"
    ],
    [
      " d",
      "ist"
    ],
    [
      "ir",
      "p"
    ],
    [
      " rain",
      "bow"
    ],
    [
      "un",
      "a"
    ],
    [
      " tow",
      "ards"
    ],
    [
      " wa",
      "ve"
    ],
    [
      " hug",
      "e"
    ],
    [
      " s",
      "ug"
    ],
    [
      " dri",
      "ver"
    ],
    [
      " ru",
      "de"
    ],
    [
      " sp",
      "ark"
    ],
    [
      " h",
      "or"
    ],
    [
      " co",
      "ver"
    ],
    [
      " whist",
      "le"
    ],
    [
      "fort",
      "able"
    ],
    [
      " song",
      "s"
    ],
    [
      "or",
      "s"
    ],
    [
      " car",
      "t"
    ],
    [
      " M",
      "ark"
    ],
    [
      " c",
      "ir"
    ],
    [
      " Mom",
      "o"
    ],
    [
      " w",
      "ide"
    ],
    [
      "e",
      "my"
    ],
    [
      " sa",
      "l"
    ],
    [
      "ep",
      "end"
    ],
    [
      " re",
      "c"
    ],
    [
      " d",
      "es"
    ],
    [
      "L",
      "ila"
    ],
    [
      " str",
      "ing"
    ],
    [
      "en",
      "s"
    ],
    [
      "u",
      "nt"
    ],
    [
      " dis",
      "app"
    ],
    [
      " treat",
      "s"
    ],
    [
      "bb",
      "le"
    ],
    [
      "ell",
      "y"
    ],
    [
      " s",
      "uc"
    ],
    [
      "k",
      "in"
    ],
    [
      " me",
      "et"
    ],
    [
      "pp",
      "ing"
    ],
    [
      " p",
      "ath"
    ],
    [
      " chee",
      "se"
    ],
    [
      " hold",
      "ing"
    ],
    [
      " up",
      "set"
    ],
    [
      "il",
      "ing"
    ],
    [
      "al",
      "m"
    ],
    [
      " mo",
      "on"
    ],
    [
      "op",
      "h"
    ],
    [
      " t",
      "urtle"
    ],
    [
      "B",
      "e"
    ],
    [
      " wor",
      "m"
    ],
    [
      " w",
      "ild"
    ],
    [
      "O",
      "f"
    ],
    [
      "our",
      "n"
    ],
    [
      " hug",
      "s"
    ],
    [
      " l",
      "ay"
    ],
    [
      "S",
      "ure"
    ],
    [
      " ",
      "N"
    ],
    [
      " fight",
      "ing"
    ],
    [
      " gra",
      "b"
    ],
    [
      " gi",
      "ant"
    ],
    [
      " li",
      "fe"
    ],
    [
      " d",
      "i"
    ],
    [
      " pu",
      "ppy"
    ],
    [
      " bug",
      "s"
    ],
    [
      " pe",
      "ace"
    ],
    [
      " j",
      "ourn"
    ],
    [
      " smo",
      "oth"
    ],
    [
      "um",
      "b"
    ],
    [
      " j",
      "ew"
    ],
    [
      "r",
      "ing"
    ],
    [
      " jo",
      "ke"
    ],
    [
      "ad",
      "ow"
    ],
    [
      " not",
      "e"
    ],
    [
      " b",
      "an"
    ],
    [
      " jew",
      "el"
    ],
    [
      " Em",
      "ma"
    ],
    [
      " J",
      "ust"
    ],
    [
      " no",
      "ises"
    ],
    [
      " cl",
      "oth"
    ],
    [
      " smell",
      "y"
    ],
    [
      " m",
      "ist"
    ],
    [
      " h",
      "oney"
    ],
    [
      " s",
      "our"
    ],
    [
      "ount",
      "ain"
    ],
    [
      " in",
      "v"
    ],
    [
      " l",
      "ucky"
    ],
    [
      " land",
      "ed"
    ],
    [
      " c",
      "ou"
    ],
    [
      " s",
      "er"
    ],
    [
      "iz",
      "zy"
    ],
    [
      "ul",
      "ar"
    ],
    [
      "one",
      "st"
    ],
    [
      " ",
      "On"
    ],
    [
      "pp",
      "er"
    ],
    [
      " n",
      "et"
    ],
    [
      " r",
      "ad"
    ],
    [
      " th",
      "in"
    ],
    [
      " c",
      "ave"
    ],
    [
      "S",
      "t"
    ],
    [
      " prin",
      "cess"
    ],
    [
      " A",
      "nn"
    ],
    [
      " be",
      "ak"
    ],
    [
      " h",
      "onest"
    ],
    [
      "a",
      "ur"
    ],
    [
      " dri",
      "ve"
    ],
    [
      "if",
      "e"
    ],
    [
      " j",
      "elly"
    ],
    [
      " bo",
      "ss"
    ],
    [
      "n",
      "ot"
    ],
    [
      " ban",
      "an"
    ],
    [
      " par",
      "t"
    ],
    [
      " che",
      "w"
    ],
    [
      "is",
      "a"
    ],
    [
      " see",
      "k"
    ],
    [
      " can",
      "not"
    ],
    [
      "er",
      "y"
    ],
    [
      " miss",
      "ed"
    ],
    [
      " M",
      "olly"
    ],
    [
      " a",
      "ct"
    ],
    [
      " star",
      "s"
    ],
    [
      " m",
      "ed"
    ],
    [
      " b",
      "a"
    ],
    [
      " dog",
      "s"
    ],
    [
      "o",
      "ve"
    ],
    [
      "re",
      "ad"
    ],
    [
      " s",
      "uddenly"
    ],
    [
      " s",
      "ick"
    ],
    [
      " ",
      "ign"
    ],
    [
      " dro",
      "ve"
    ],
    [
      " o",
      "ven"
    ],
    [
      "s",
      "p"
    ],
    [
      " b",
      "ri"
    ],
    [
      "l",
      "ower"
    ],
    [
      " spl",
      "as"
    ],
    [
      " Fin",
      "ally"
    ],
    [
      " te",
      "a"
    ],
    [
      " st",
      "ep"
    ],
    [
      " she",
      "lf"
    ],
    [
      " ex",
      "p"
    ],
    [
      "ig",
      "er"
    ],
    [
      " snow",
      "man"
    ],
    [
      " in",
      "stead"
    ],
    [
      " was",
      "n"
    ],
    [
      " tast",
      "e"
    ],
    [
      "He",
      "y"
    ],
    [
      " fo",
      "ot"
    ],
    [
      " D",
      "og"
    ],
    [
      " f",
      "le"
    ],
    [
      " duck",
      "s"
    ],
    [
      " m",
      "aybe"
    ],
    [
      " ac",
      "ross"
    ],
    [
      "op",
      "e"
    ],
    [
      "er",
      "t"
    ],
    [
      " s",
      "el"
    ],
    [
      "L",
      "ater"
    ],
    [
      " fan",
      "cy"
    ],
    [
      " sand",
      "w"
    ],
    [
      "ate",
      "ful"
    ],
    [
      " help",
      "ful"
    ],
    [
      " adventure",
      "s"
    ],
    [
      " b",
      "ought"
    ],
    [
      "e",
      "st"
    ],
    [
      " or",
      "gan"
    ],
    [
      " was",
      "h"
    ],
    [
      " c",
      "ross"
    ],
    [
      "i",
      "an"
    ],
    [
      "e",
      "re"
    ],
    [
      " R",
      "emy"
    ],
    [
      " gl",
      "ow"
    ],
    [
      " l",
      "ine"
    ],
    [
      "T",
      "o"
    ],
    [
      " com",
      "es"
    ],
    [
      " gr",
      "ateful"
    ],
    [
      " sl",
      "id"
    ],
    [
      " for",
      "get"
    ],
    [
      " con",
      "fused"
    ],
    [
      " as",
      "h"
    ],
    [
      " pill",
      "ow"
    ],
    [
      " heal",
      "thy"
    ],
    [
      " pu",
      "zz"
    ],
    [
      " ch",
      "ange"
    ],
    [
      " sp",
      "e"
    ],
    [
      "le",
      "t"
    ],
    [
      "id",
      "y"
    ],
    [
      " p",
      "ract"
    ],
    [
      " d",
      "ish"
    ],
    [
      " O",
      "llie"
    ],
    [
      " z",
      "oo"
    ],
    [
      " ste",
      "pped"
    ],
    [
      "oom",
      "y"
    ],
    [
      " v",
      "al"
    ],
    [
      "o",
      "ppy"
    ],
    [
      "ere",
      "st"
    ],
    [
      " la",
      "st"
    ],
    [
      " int",
      "erest"
    ],
    [
      " c",
      "ap"
    ],
    [
      " l",
      "ad"
    ],
    [
      " sel",
      "fish"
    ],
    [
      " ch",
      "o"
    ],
    [
      " e",
      "lder"
    ],
    [
      " elder",
      "ly"
    ],
    [
      " eas",
      "y"
    ],
    [
      " who",
      "le"
    ],
    [
      " wor",
      "king"
    ],
    [
      "it",
      "y"
    ],
    [
      " hop",
      "e"
    ],
    [
      " watch",
      "ing"
    ],
    [
      " stick",
      "s"
    ],
    [
      " any",
      "one"
    ],
    [
      "w",
      "ard"
    ],
    [
      "co",
      "l"
    ],
    [
      " mess",
      "y"
    ],
    [
      " c",
      "alm"
    ],
    [
      " forg",
      "ive"
    ],
    [
      " te",
      "am"
    ],
    [
      " take",
      "s"
    ],
    [
      " dad",
      "dy"
    ],
    [
      " ch",
      "ased"
    ],
    [
      " sa",
      "ve"
    ],
    [
      " p",
      "ri"
    ],
    [
      "irp",
      "y"
    ],
    [
      "iz",
      "e"
    ],
    [
      " my",
      "ster"
    ],
    [
      " we",
      "ak"
    ],
    [
      "am",
      "ed"
    ],
    [
      " a",
      "v"
    ],
    [
      " wr",
      "ite"
    ],
    [
      "e",
      "ver"
    ],
    [
      " lad",
      "der"
    ],
    [
      " sh",
      "irt"
    ],
    [
      "t",
      "o"
    ],
    [
      " wo",
      "lf"
    ],
    [
      " t",
      "ape"
    ],
    [
      "o",
      "c"
    ],
    [
      " lem",
      "on"
    ],
    [
      " leg",
      "s"
    ],
    [
      " spl",
      "ash"
    ],
    [
      "pec",
      "t"
    ],
    [
      " cle",
      "ver"
    ],
    [
      " S",
      "p"
    ],
    [
      " hor",
      "se"
    ],
    [
      " ph",
      "one"
    ],
    [
      " fe",
      "ather"
    ],
    [
      " m",
      "ind"
    ],
    [
      " pers",
      "on"
    ],
    [
      " plant",
      "s"
    ],
    [
      " long",
      "er"
    ],
    [
      " pr",
      "ot"
    ],
    [
      " j",
      "og"
    ],
    [
      " st",
      "ret"
    ],
    [
      "id",
      "er"
    ],
    [
      " p",
      "our"
    ],
    [
      " t",
      "idy"
    ],
    [
      " em",
      "p"
    ],
    [
      "or",
      "k"
    ],
    [
      " emp",
      "ty"
    ],
    [
      "iz",
      "z"
    ],
    [
      " C",
      "at"
    ],
    [
      " al",
      "ong"
    ],
    [
      " p",
      "an"
    ],
    [
      " l",
      "ater"
    ],
    [
      " b",
      "ark"
    ],
    [
      "S",
      "oon"
    ],
    [
      " seem",
      "ed"
    ],
    [
      " face",
      "s"
    ],
    [
      " bo",
      "ot"
    ],
    [
      " B",
      "u"
    ],
    [
      "S",
      "ally"
    ],
    [
      " pretend",
      "ed"
    ],
    [
      " co",
      "zy"
    ],
    [
      " lo",
      "ck"
    ],
    [
      "bb",
      "les"
    ],
    [
      " sleep",
      "y"
    ],
    [
      "ion",
      "s"
    ],
    [
      " h",
      "um"
    ],
    [
      " wait",
      "ing"
    ],
    [
      " fin",
      "ish"
    ],
    [
      " st",
      "ir"
    ],
    [
      " sa",
      "ved"
    ],
    [
      "it",
      "ing"
    ],
    [
      " s",
      "u"
    ],
    [
      " swim",
      "m"
    ],
    [
      "ll",
      "o"
    ],
    [
      " m",
      "ach"
    ],
    [
      " re",
      "t"
    ],
    [
      "ill",
      "ar"
    ],
    [
      "p",
      "illar"
    ],
    [
      "C",
      "ome"
    ],
    [
      " boun",
      "ce"
    ],
    [
      " che",
      "er"
    ],
    [
      " C",
      "ome"
    ],
    [
      " ch",
      "ick"
    ],
    [
      " sp",
      "icy"
    ],
    [
      "ain",
      "ed"
    ],
    [
      "u",
      "ally"
    ],
    [
      "?",
      "”"
    ],
    [
      " ret",
      "urn"
    ],
    [
      " scream",
      "ed"
    ],
    [
      " go",
      "at"
    ],
    [
      " L",
      "isa"
    ],
    [
      " r",
      "ing"
    ],
    [
      " ",
      "ent"
    ],
    [
      " Ch",
      "irpy"
    ],
    [
      "ul",
      "t"
    ],
    [
      " p",
      "ool"
    ],
    [
      " f",
      "ake"
    ],
    [
      " Dad",
      "dy"
    ],
    [
      " jump",
      "ing"
    ],
    [
      "d",
      "en"
    ],
    [
      " su",
      "pp"
    ],
    [
      " interest",
      "ing"
    ],
    [
      " s",
      "uch"
    ],
    [
      " cloud",
      "s"
    ],
    [
      " wonder",
      "ed"
    ],
    [
      " t",
      "ie"
    ],
    [
      " prin",
      "t"
    ],
    [
      " mist",
      "ake"
    ],
    [
      " fruit",
      "s"
    ],
    [
      " D",
      "ucky"
    ],
    [
      " p",
      "in"
    ],
    [
      "e",
      "k"
    ],
    [
      " dr",
      "ank"
    ],
    [
      "un",
      "k"
    ],
    [
      " sp",
      "ray"
    ],
    [
      " li",
      "ft"
    ],
    [
      "o",
      "cked"
    ],
    [
      " cat",
      "er"
    ],
    [
      " cater",
      "pillar"
    ],
    [
      " e",
      "ag"
    ],
    [
      " pl",
      "ate"
    ],
    [
      " th",
      "ough"
    ],
    [
      " boss",
      "y"
    ],
    [
      " To",
      "gether"
    ],
    [
      " st",
      "ra"
    ],
    [
      "bo",
      "x"
    ],
    [
      "iss",
      "ors"
    ],
    [
      "d",
      "ge"
    ],
    [
      " on",
      "to"
    ],
    [
      " g",
      "ather"
    ],
    [
      " build",
      "ing"
    ],
    [
      " Ben",
      "ny"
    ],
    [
      " k",
      "ick"
    ],
    [
      "et",
      "h"
    ],
    [
      " d",
      "rew"
    ],
    [
      " mach",
      "ine"
    ],
    [
      " swimm",
      "ing"
    ],
    [
      " sc",
      "issors"
    ],
    [
      " ri",
      "ch"
    ],
    [
      " W",
      "ith"
    ],
    [
      "le",
      "br"
    ],
    [
      " T",
      "V"
    ],
    [
      " ce",
      "lebr"
    ],
    [
      "orm",
      "al"
    ],
    [
      " hid",
      "den"
    ],
    [
      " give",
      "s"
    ],
    [
      " E",
      "lla"
    ],
    [
      " she",
      "ep"
    ],
    [
      " S",
      "t"
    ],
    [
      " n",
      "umber"
    ],
    [
      "on",
      "t"
    ],
    [
      " n",
      "ormal"
    ],
    [
      " br",
      "ush"
    ],
    [
      " w",
      "ing"
    ],
    [
      " cray",
      "ons"
    ],
    [
      " fur",
      "ry"
    ],
    [
      " arm",
      "s"
    ],
    [
      " expl",
      "or"
    ],
    [
      " love",
      "ly"
    ],
    [
      " clean",
      "ed"
    ],
    [
      "K",
      "itty"
    ],
    [
      " trou",
      "ble"
    ],
    [
      " gl",
      "ue"
    ],
    [
      " fr",
      "ont"
    ],
    [
      "izz",
      "a"
    ],
    [
      " pen",
      "c"
    ],
    [
      "ac",
      "ed"
    ],
    [
      " sp",
      "ider"
    ],
    [
      " M",
      "y"
    ],
    [
      " p",
      "ack"
    ],
    [
      " c",
      "her"
    ],
    [
      " f",
      "ing"
    ],
    [
      "m",
      "ent"
    ],
    [
      " penc",
      "il"
    ],
    [
      " Dog",
      "gy"
    ],
    [
      " sug",
      "ar"
    ],
    [
      " poin",
      "ted"
    ],
    [
      " mat",
      "ch"
    ],
    [
      " c",
      "age"
    ],
    [
      " l",
      "ar"
    ],
    [
      " app",
      "eared"
    ],
    [
      "el",
      "p"
    ],
    [
      " B",
      "unny"
    ],
    [
      " The",
      "ir"
    ],
    [
      " m",
      "el"
    ],
    [
      " put",
      "s"
    ],
    [
      "ur",
      "se"
    ],
    [
      " smell",
      "ed"
    ],
    [
      " prin",
      "ce"
    ],
    [
      " Gra",
      "ndma"
    ],
    [
      "os",
      "aur"
    ],
    [
      " gent",
      "ly"
    ],
    [
      " pr",
      "ay"
    ],
    [
      " L",
      "una"
    ],
    [
      "oo",
      "p"
    ],
    [
      " g",
      "ate"
    ],
    [
      " s",
      "ur"
    ],
    [
      "n",
      "ed"
    ],
    [
      " sear",
      "ch"
    ],
    [
      " mat",
      "ter"
    ],
    [
      " din",
      "osaur"
    ],
    [
      " back",
      "y"
    ],
    [
      " backy",
      "ard"
    ],
    [
      " dr",
      "um"
    ],
    [
      " fe",
      "ar"
    ],
    [
      " f",
      "il"
    ],
    [
      "A",
      "nd"
    ],
    [
      " cla",
      "ss"
    ],
    [
      " sh",
      "ip"
    ],
    [
      "p",
      "a"
    ],
    [
      " cir",
      "cle"
    ],
    [
      " que",
      "en"
    ],
    [
      " tow",
      "el"
    ],
    [
      " g",
      "un"
    ],
    [
      " cou",
      "ch"
    ],
    [
      " G",
      "o"
    ],
    [
      " v",
      "an"
    ],
    [
      " sm",
      "iling"
    ],
    [
      "aught",
      "er"
    ],
    [
      " im",
      "ag"
    ],
    [
      " near",
      "by"
    ],
    [
      " te",
      "ar"
    ],
    [
      " ",
      "icy"
    ],
    [
      " ash",
      "amed"
    ],
    [
      " yell",
      "ed"
    ],
    [
      " power",
      "ful"
    ],
    [
      " lar",
      "ge"
    ],
    [
      " que",
      "st"
    ],
    [
      " place",
      "s"
    ],
    [
      " fl",
      "ag"
    ],
    [
      " J",
      "erry"
    ],
    [
      " S",
      "omet"
    ],
    [
      " c",
      "ri"
    ],
    [
      " wa",
      "nd"
    ],
    [
      " la",
      "w"
    ],
    [
      "H",
      "elp"
    ],
    [
      " Wh",
      "y"
    ],
    [
      "le",
      "v"
    ],
    [
      " l",
      "amp"
    ],
    [
      " w",
      "om"
    ],
    [
      " a",
      "f"
    ],
    [
      " wom",
      "an"
    ],
    [
      "ge",
      "st"
    ],
    [
      " car",
      "ried"
    ],
    [
      "ic",
      "ked"
    ],
    [
      " M",
      "ama"
    ],
    [
      "or",
      "row"
    ],
    [
      " m",
      "ir"
    ],
    [
      " p",
      "izza"
    ],
    [
      " d",
      "aughter"
    ],
    [
      " journ",
      "ey"
    ],
    [
      " wra",
      "p"
    ],
    [
      " gl",
      "ass"
    ],
    [
      " tr",
      "ust"
    ],
    [
      " a",
      "p"
    ],
    [
      "M",
      "y"
    ],
    [
      "St",
      "op"
    ],
    [
      " ru",
      "b"
    ],
    [
      " tr",
      "ue"
    ],
    [
      " J",
      "im"
    ],
    [
      " ne",
      "igh"
    ],
    [
      " g",
      "as"
    ],
    [
      "y",
      "m"
    ],
    [
      " neigh",
      "b"
    ],
    [
      " tri",
      "es"
    ],
    [
      "on",
      "es"
    ],
    [
      " b",
      "al"
    ],
    [
      "v",
      "ous"
    ],
    [
      "r",
      "or"
    ],
    [
      " ign",
      "or"
    ],
    [
      " je",
      "ep"
    ],
    [
      " em",
      "b"
    ],
    [
      " un",
      "i"
    ],
    [
      " uni",
      "que"
    ],
    [
      " J",
      "ill"
    ],
    [
      " exp",
      "ens"
    ],
    [
      " expens",
      "ive"
    ],
    [
      " fr",
      "ight"
    ],
    [
      " we",
      "aring"
    ],
    [
      "is",
      "p"
    ],
    [
      " tom",
      "orrow"
    ],
    [
      " go",
      "es"
    ],
    [
      " I",
      "f"
    ],
    [
      " h",
      "ur"
    ],
    [
      " love",
      "s"
    ],
    [
      " B",
      "e"
    ],
    [
      "itt",
      "er"
    ],
    [
      " d",
      "izzy"
    ],
    [
      " ant",
      "s"
    ],
    [
      " we",
      "ird"
    ],
    [
      " sa",
      "f"
    ],
    [
      " d",
      "ig"
    ],
    [
      "c",
      "ed"
    ],
    [
      " mir",
      "ror"
    ],
    [
      " danc",
      "ing"
    ],
    [
      " Bob",
      "by"
    ],
    [
      " ch",
      "ase"
    ],
    [
      "ra",
      "id"
    ],
    [
      "ug",
      "g"
    ],
    [
      " he",
      "llo"
    ],
    [
      " the",
      "se"
    ],
    [
      " af",
      "raid"
    ],
    [
      " sp",
      "ring"
    ],
    [
      " re",
      "g"
    ],
    [
      " sc",
      "ar"
    ],
    [
      " B",
      "r"
    ],
    [
      " not",
      "hing"
    ],
    [
      " fright",
      "ened"
    ],
    [
      " po",
      "or"
    ],
    [
      "ra",
      "ss"
    ],
    [
      "ar",
      "rass"
    ],
    [
      " T",
      "iny"
    ],
    [
      " emb",
      "arrass"
    ],
    [
      " eag",
      "er"
    ],
    [
      " te",
      "st"
    ],
    [
      " un",
      "k"
    ],
    [
      " la",
      "zy"
    ],
    [
      " wh",
      "isp"
    ],
    [
      " n",
      "er"
    ],
    [
      " c",
      "and"
    ],
    [
      "nd",
      "pa"
    ],
    [
      "m",
      "er"
    ],
    [
      " prot",
      "ect"
    ],
    [
      "if",
      "f"
    ],
    [
      " tom",
      "ato"
    ],
    [
      " de",
      "st"
    ],
    [
      " st",
      "ood"
    ],
    [
      "a",
      "w"
    ],
    [
      " ner",
      "vous"
    ],
    [
      " suc",
      "cess"
    ],
    [
      "n",
      "ess"
    ],
    [
      "n",
      "own"
    ],
    [
      " puzz",
      "le"
    ],
    [
      " splas",
      "hed"
    ],
    [
      "bb",
      "y"
    ],
    [
      " br",
      "idge"
    ],
    [
      " unk",
      "nown"
    ],
    [
      " cl",
      "ay"
    ],
    [
      " p",
      "ay"
    ],
    [
      " b",
      "ake"
    ],
    [
      " w",
      "ip"
    ],
    [
      " w",
      "is"
    ],
    [
      " inc",
      "red"
    ],
    [
      " creat",
      "ive"
    ],
    [
      " imp",
      "ress"
    ],
    [
      " dec",
      "or"
    ],
    [
      " go",
      "ld"
    ],
    [
      " g",
      "igg"
    ],
    [
      " g",
      "en"
    ],
    [
      "vent",
      "ually"
    ],
    [
      " fe",
      "et"
    ],
    [
      "in",
      "a"
    ],
    [
      " incred",
      "ible"
    ],
    [
      " R",
      "ex"
    ],
    [
      "er",
      "a"
    ],
    [
      " sandw",
      "ich"
    ],
    [
      " le",
      "ad"
    ],
    [
      " so",
      "ck"
    ],
    [
      " so",
      "l"
    ],
    [
      " t",
      "ent"
    ],
    [
      " te",
      "eth"
    ],
    [
      " sw",
      "an"
    ],
    [
      " use",
      "ful"
    ],
    [
      "an",
      "y"
    ],
    [
      " clo",
      "ck"
    ],
    [
      " M",
      "ary"
    ],
    [
      " H",
      "ow"
    ],
    [
      " res",
      "pect"
    ],
    [
      " bor",
      "ing"
    ],
    [
      " ste",
      "ak"
    ],
    [
      " B",
      "ear"
    ],
    [
      " B",
      "ird"
    ],
    [
      "ut",
      "e"
    ],
    [
      "u",
      "al"
    ],
    [
      " stra",
      "w"
    ],
    [
      " dis",
      "co"
    ],
    [
      " squ",
      "are"
    ],
    [
      "ber",
      "ry"
    ],
    [
      " so",
      "ap"
    ],
    [
      " pre",
      "s"
    ],
    [
      " mix",
      "ed"
    ],
    [
      " clos",
      "et"
    ],
    [
      " f",
      "ool"
    ],
    [
      "l",
      "ves"
    ],
    [
      " peace",
      "ful"
    ],
    [
      " pot",
      "ato"
    ],
    [
      " kn",
      "ocked"
    ],
    [
      "ow",
      "ed"
    ],
    [
      " m",
      "ask"
    ],
    [
      " p",
      "ump"
    ],
    [
      " myster",
      "ious"
    ],
    [
      "air",
      "s"
    ],
    [
      " fam",
      "ous"
    ],
    [
      " sw",
      "ord"
    ],
    [
      " wh",
      "ale"
    ],
    [
      " b",
      "urn"
    ],
    [
      "c",
      "ream"
    ],
    [
      " gen",
      "er"
    ],
    [
      "up",
      "id"
    ],
    [
      "Tom",
      "my"
    ],
    [
      " And",
      "y"
    ],
    [
      " be",
      "an"
    ],
    [
      " h",
      "ar"
    ],
    [
      " answ",
      "er"
    ],
    [
      " so",
      "ld"
    ],
    [
      " sh",
      "ark"
    ],
    [
      " y",
      "og"
    ],
    [
      "w",
      "e"
    ],
    [
      "r",
      "ated"
    ],
    [
      " ",
      "3"
    ],
    [
      " sc",
      "o"
    ],
    [
      " pol",
      "ite"
    ],
    [
      " P",
      "lease"
    ],
    [
      " fe",
      "ed"
    ],
    [
      " would",
      "n"
    ],
    [
      " k",
      "icked"
    ],
    [
      " r",
      "ug"
    ],
    [
      "ar",
      "l"
    ],
    [
      "c",
      "ient"
    ],
    [
      "b",
      "led"
    ],
    [
      " snack",
      "s"
    ],
    [
      " dis",
      "g"
    ],
    [
      " me",
      "asure"
    ],
    [
      " j",
      "am"
    ],
    [
      " an",
      "cient"
    ],
    [
      "er",
      "ri"
    ],
    [
      "c",
      "om"
    ],
    [
      " corn",
      "er"
    ],
    [
      " rel",
      "ie"
    ],
    [
      " bl",
      "ow"
    ],
    [
      " no",
      "isy"
    ],
    [
      " sp",
      "ace"
    ],
    [
      " e",
      "sc"
    ],
    [
      "o",
      "nd"
    ],
    [
      " scar",
      "f"
    ],
    [
      " bran",
      "ches"
    ],
    [
      " sp",
      "read"
    ],
    [
      "ot",
      "e"
    ],
    [
      "im",
      "p"
    ],
    [
      "re",
      "en"
    ],
    [
      " cho",
      "col"
    ],
    [
      "orm",
      "ous"
    ],
    [
      " pain",
      "ted"
    ],
    [
      " D",
      "on"
    ],
    [
      " st",
      "upid"
    ],
    [
      " egg",
      "s"
    ],
    [
      " mar",
      "ch"
    ],
    [
      " sho",
      "e"
    ],
    [
      " r",
      "ough"
    ],
    [
      "r",
      "ob"
    ],
    [
      " paw",
      "s"
    ],
    [
      " wag",
      "on"
    ],
    [
      " disg",
      "ust"
    ],
    [
      " cr",
      "own"
    ],
    [
      " stu",
      "dy"
    ],
    [
      " de",
      "ad"
    ],
    [
      " fr",
      "ust"
    ],
    [
      " mom",
      "s"
    ],
    [
      " d",
      "ug"
    ],
    [
      "u",
      "ce"
    ],
    [
      "rob",
      "e"
    ],
    [
      " fool",
      "ish"
    ],
    [
      " Somet",
      "imes"
    ],
    [
      " b",
      "arn"
    ],
    [
      " t",
      "erri"
    ],
    [
      " pres",
      "ent"
    ],
    [
      " ste",
      "al"
    ],
    [
      " en",
      "ormous"
    ],
    [
      " se",
      "ll"
    ],
    [
      " r",
      "are"
    ],
    [
      "en",
      "ny"
    ],
    [
      " m",
      "is"
    ],
    [
      "D",
      "ad"
    ],
    [
      " disgust",
      "ing"
    ],
    [
      " chocol",
      "ate"
    ],
    [
      " ba",
      "ld"
    ],
    [
      " med",
      "ic"
    ],
    [
      " banan",
      "a"
    ],
    [
      " sal",
      "ad"
    ],
    [
      " ve",
      "get"
    ],
    [
      " veget",
      "able"
    ],
    [
      " underst",
      "ood"
    ],
    [
      " sc",
      "are"
    ],
    [
      " medic",
      "ine"
    ],
    [
      " gener",
      "ous"
    ],
    [
      " cl",
      "ap"
    ],
    [
      "ad",
      "o"
    ],
    [
      " st",
      "uff"
    ],
    [
      " her",
      "o"
    ],
    [
      "ig",
      "hed"
    ],
    [
      "ed",
      "ient"
    ],
    [
      "c",
      "orn"
    ],
    [
      " dif",
      "f"
    ],
    [
      " diff",
      "ic"
    ],
    [
      " gr",
      "oup"
    ],
    [
      " g",
      "oose"
    ],
    [
      " b",
      "itter"
    ],
    [
      " diffic",
      "ult"
    ],
    [
      " frust",
      "rated"
    ],
    [
      " perf",
      "orm"
    ],
    [
      " bre",
      "ath"
    ],
    [
      " In",
      "stead"
    ],
    [
      " mu",
      "sh"
    ],
    [
      " Sam",
      "my"
    ],
    [
      " ro",
      "ar"
    ],
    [
      " th",
      "ick"
    ],
    [
      "p",
      "es"
    ],
    [
      " mel",
      "on"
    ],
    [
      " cover",
      "ed"
    ],
    [
      " mark",
      "et"
    ],
    [
      " P",
      "e"
    ],
    [
      " small",
      "er"
    ],
    [
      " sh",
      "adow"
    ],
    [
      " t",
      "ick"
    ],
    [
      " ob",
      "edient"
    ],
    [
      " tast",
      "ed"
    ],
    [
      "uit",
      "ar"
    ],
    [
      " or",
      "d"
    ],
    [
      " g",
      "uitar"
    ],
    [
      "ro",
      "y"
    ],
    [
      "or",
      "ry"
    ],
    [
      " wa",
      "ke"
    ],
    [
      "p",
      "ort"
    ],
    [
      "m",
      "b"
    ],
    [
      " dest",
      "roy"
    ],
    [
      " la",
      "b"
    ],
    [
      "al",
      "k"
    ],
    [
      " S",
      "ome"
    ],
    [
      " ha",
      "ng"
    ],
    [
      " h",
      "orn"
    ],
    [
      " bor",
      "ed"
    ],
    [
      "as",
      "ses"
    ],
    [
      " re",
      "f"
    ],
    [
      " as",
      "leep"
    ],
    [
      " m",
      "ountain"
    ],
    [
      " m",
      "ot"
    ],
    [
      "in",
      "al"
    ],
    [
      " to",
      "ug"
    ],
    [
      " stand",
      "ing"
    ],
    [
      " ta",
      "ught"
    ],
    [
      "Tim",
      "my"
    ],
    [
      " wh",
      "ich"
    ],
    [
      "a",
      "king"
    ],
    [
      " relie",
      "ved"
    ],
    [
      " Br",
      "own"
    ],
    [
      "us",
      "ual"
    ],
    [
      " bec",
      "ome"
    ],
    [
      " h",
      "arm"
    ],
    [
      "l",
      "and"
    ],
    [
      " toug",
      "h"
    ],
    [
      " terri",
      "ble"
    ],
    [
      " join",
      "ed"
    ],
    [
      " li",
      "f"
    ],
    [
      " s",
      "uit"
    ],
    [
      " mush",
      "room"
    ],
    [
      " explor",
      "ing"
    ],
    [
      "ung",
      "le"
    ],
    [
      " je",
      "al"
    ],
    [
      " jeal",
      "ous"
    ],
    [
      " squ",
      "ash"
    ],
    [
      " mo",
      "ving"
    ],
    [
      " pe",
      "bble"
    ],
    [
      "at",
      "ter"
    ],
    [
      " ad",
      "m"
    ],
    [
      " par",
      "rot"
    ],
    [
      " your",
      "self"
    ],
    [
      " kn",
      "ife"
    ],
    [
      " j",
      "ungle"
    ],
    [
      "al",
      "s"
    ],
    [
      "ig",
      "inal"
    ],
    [
      " pump",
      "kin"
    ],
    [
      " disco",
      "ver"
    ],
    [
      "To",
      "gether"
    ],
    [
      "He",
      "re"
    ],
    [
      " cle",
      "ar"
    ],
    [
      " un",
      "usual"
    ],
    [
      " as",
      "king"
    ],
    [
      " t",
      "un"
    ],
    [
      " pri",
      "ze"
    ],
    [
      " spo",
      "iled"
    ],
    [
      " d",
      "ull"
    ],
    [
      " chick",
      "en"
    ],
    [
      " sun",
      "f"
    ],
    [
      "ul",
      "b"
    ],
    [
      "at",
      "ch"
    ],
    [
      " f",
      "at"
    ],
    [
      " nut",
      "s"
    ],
    [
      " pop",
      "corn"
    ],
    [
      " might",
      "y"
    ],
    [
      " t",
      "iger"
    ],
    [
      " hear",
      "s"
    ],
    [
      " com",
      "b"
    ],
    [
      " thought",
      "ful"
    ],
    [
      " f",
      "ine"
    ],
    [
      " b",
      "ulb"
    ],
    [
      " seed",
      "s"
    ],
    [
      " P",
      "oppy"
    ],
    [
      " tw",
      "ist"
    ],
    [
      " v",
      "ase"
    ],
    [
      "um",
      "e"
    ],
    [
      " too",
      "l"
    ],
    [
      " st",
      "ri"
    ],
    [
      "id",
      "ent"
    ],
    [
      " h",
      "ay"
    ],
    [
      " s",
      "que"
    ],
    [
      "m",
      "p"
    ],
    [
      " dr",
      "op"
    ],
    [
      " fi",
      "er"
    ],
    [
      " fier",
      "ce"
    ],
    [
      " or",
      "iginal"
    ],
    [
      "ra",
      "g"
    ],
    [
      " ",
      "ind"
    ],
    [
      " draw",
      "ing"
    ],
    [
      " end",
      "ing"
    ],
    [
      " sn",
      "ee"
    ],
    [
      " W",
      "ill"
    ],
    [
      " c",
      "op"
    ],
    [
      " carrot",
      "s"
    ],
    [
      " thank",
      "ful"
    ],
    [
      " is",
      "land"
    ],
    [
      " embarrass",
      "ed"
    ],
    [
      " rel",
      "ax"
    ],
    [
      "In",
      "side"
    ],
    [
      " che",
      "ap"
    ],
    [
      " mu",
      "ff"
    ],
    [
      " sp",
      "ent"
    ],
    [
      "um",
      "sy"
    ],
    [
      " c",
      "ro"
    ],
    [
      " trou",
      "bled"
    ],
    [
      " fo",
      "ld"
    ],
    [
      " en",
      "g"
    ],
    [
      " know",
      "ing"
    ],
    [
      " bl",
      "oom"
    ],
    [
      " cl",
      "own"
    ],
    [
      "se",
      "lves"
    ],
    [
      " m",
      "ic"
    ],
    [
      " a",
      "unt"
    ],
    [
      " sunf",
      "lower"
    ],
    [
      "com",
      "fortable"
    ],
    [
      " bal",
      "ance"
    ],
    [
      " rec",
      "ord"
    ],
    [
      " te",
      "mp"
    ],
    [
      " find",
      "ing"
    ],
    [
      " fr",
      "own"
    ],
    [
      "ot",
      "o"
    ],
    [
      " T",
      "r"
    ],
    [
      "A",
      "re"
    ],
    [
      " hat",
      "s"
    ],
    [
      " che",
      "st"
    ],
    [
      " un",
      "comfortable"
    ],
    [
      " lo",
      "se"
    ],
    [
      " M",
      "any"
    ],
    [
      " ",
      "'"
    ],
    [
      " gu",
      "ess"
    ],
    [
      " sho",
      "ot"
    ],
    [
      " advent",
      "ur"
    ],
    [
      "irst",
      "y"
    ],
    [
      " exc",
      "iting"
    ],
    [
      " o",
      "ce"
    ],
    [
      " oce",
      "an"
    ],
    [
      " A",
      "l"
    ],
    [
      " S",
      "unny"
    ],
    [
      " c",
      "one"
    ],
    [
      " a",
      "dd"
    ],
    [
      "s",
      "er"
    ],
    [
      " lif",
      "ted"
    ],
    [
      " ac",
      "orn"
    ],
    [
      " st",
      "amp"
    ],
    [
      "il",
      "t"
    ],
    [
      "in",
      "ess"
    ],
    [
      "x",
      "ible"
    ],
    [
      " Jen",
      "ny"
    ],
    [
      " tri",
      "ck"
    ],
    [
      "op",
      "ard"
    ],
    [
      " sc",
      "atter"
    ],
    [
      " cl",
      "umsy"
    ],
    [
      " se",
      "al"
    ],
    [
      "y",
      "al"
    ],
    [
      "d",
      "le"
    ],
    [
      " adventur",
      "ous"
    ],
    [
      " past",
      "a"
    ],
    [
      "ang",
      "le"
    ],
    [
      " hair",
      "y"
    ],
    [
      " wr",
      "ote"
    ],
    [
      "ag",
      "es"
    ],
    [
      " c",
      "ush"
    ],
    [
      "S",
      "orry"
    ],
    [
      " neck",
      "l"
    ],
    [
      " neckl",
      "ace"
    ],
    [
      " ar",
      "row"
    ],
    [
      " pick",
      "s"
    ],
    [
      " cra",
      "zy"
    ],
    [
      " un",
      "l"
    ],
    [
      " cat",
      "s"
    ],
    [
      " lo",
      "yal"
    ],
    [
      " bo",
      "dy"
    ],
    [
      "W",
      "here"
    ],
    [
      " harm",
      "less"
    ],
    [
      " stu",
      "bb"
    ],
    [
      " tell",
      "s"
    ],
    [
      " bra",
      "ce"
    ],
    [
      " com",
      "fortable"
    ],
    [
      " ho",
      "se"
    ],
    [
      " co",
      "st"
    ],
    [
      " ex",
      "am"
    ],
    [
      "er",
      "ries"
    ],
    [
      " d",
      "epend"
    ],
    [
      " b",
      "erries"
    ],
    [
      "t",
      "i"
    ],
    [
      " sear",
      "ched"
    ],
    [
      " del",
      "iver"
    ],
    [
      " beh",
      "ave"
    ],
    [
      "ur",
      "key"
    ],
    [
      "am",
      "ond"
    ],
    [
      "x",
      "ious"
    ],
    [
      "i",
      "ant"
    ],
    [
      "a",
      "pped"
    ],
    [
      " eng",
      "ine"
    ],
    [
      " organ",
      "ized"
    ],
    [
      " di",
      "amond"
    ],
    [
      "ag",
      "he"
    ],
    [
      "aghe",
      "t"
    ],
    [
      "aghet",
      "ti"
    ],
    [
      " an",
      "xious"
    ],
    [
      " stubb",
      "orn"
    ],
    [
      "epend",
      "ent"
    ],
    [
      " coll",
      "ect"
    ],
    [
      " cray",
      "on"
    ],
    [
      " rem",
      "ind"
    ],
    [
      " mo",
      "v"
    ],
    [
      " f",
      "is"
    ],
    [
      "g",
      "u"
    ],
    [
      "M",
      "olly"
    ],
    [
      " stret",
      "ch"
    ],
    [
      " pract",
      "iced"
    ],
    [
      " Em",
      "ily"
    ],
    [
      " sw",
      "e"
    ],
    [
      " sc",
      "r"
    ],
    [
      " play",
      "ful"
    ],
    [
      " th",
      "irsty"
    ],
    [
      " t",
      "urkey"
    ],
    [
      "l",
      "ight"
    ],
    [
      " mail",
      "box"
    ],
    [
      " gl",
      "oomy"
    ],
    [
      " bu",
      "bbles"
    ],
    [
      " en",
      "vel"
    ],
    [
      " en",
      "v"
    ],
    [
      " wor",
      "d"
    ],
    [
      " j",
      "ug"
    ],
    [
      "an",
      "ged"
    ],
    [
      " p",
      "ir"
    ],
    [
      " f",
      "rag"
    ],
    [
      " t",
      "ied"
    ],
    [
      "h",
      "ost"
    ],
    [
      " ind",
      "ependent"
    ],
    [
      " fle",
      "xible"
    ],
    [
      " craw",
      "l"
    ],
    [
      " bath",
      "room"
    ],
    [
      " pol",
      "ice"
    ],
    [
      " bar",
      "ber"
    ],
    [
      "co",
      "d"
    ],
    [
      "cod",
      "ile"
    ],
    [
      "ant",
      "s"
    ],
    [
      " your",
      "s"
    ],
    [
      " pr",
      "un"
    ],
    [
      " sp",
      "aghetti"
    ],
    [
      " re",
      "p"
    ],
    [
      "ill",
      "a"
    ],
    [
      " r",
      "aced"
    ],
    [
      "l",
      "ph"
    ],
    [
      " esc",
      "ape"
    ],
    [
      " cra",
      "ck"
    ],
    [
      " de",
      "er"
    ],
    [
      " E",
      "ven"
    ],
    [
      " pr",
      "o"
    ],
    [
      " s",
      "il"
    ],
    [
      "H",
      "ow"
    ],
    [
      " frag",
      "ile"
    ],
    [
      " mot",
      "or"
    ],
    [
      " pass",
      "ed"
    ],
    [
      " pig",
      "e"
    ],
    [
      " li",
      "z"
    ],
    [
      " g",
      "host"
    ],
    [
      " ",
      "U"
    ],
    [
      " depend",
      "able"
    ],
    [
      " celebr",
      "ate"
    ],
    [
      " de",
      "af"
    ],
    [
      " jo",
      "lly"
    ],
    [
      " need",
      "s"
    ],
    [
      "a",
      "ff"
    ],
    [
      " whe",
      "at"
    ],
    [
      "sh",
      "ine"
    ],
    [
      " Wh",
      "ile"
    ],
    [
      " sto",
      "ve"
    ],
    [
      " che",
      "ss"
    ],
    [
      " ro",
      "of"
    ],
    [
      " do",
      "lph"
    ],
    [
      " do",
      "ve"
    ],
    [
      " r",
      "at"
    ],
    [
      " be",
      "es"
    ],
    [
      " f",
      "ig"
    ],
    [
      "i",
      "o"
    ],
    [
      " cro",
      "codile"
    ],
    [
      " bri",
      "ll"
    ],
    [
      " att",
      "ic"
    ],
    [
      " ra",
      "ven"
    ],
    [
      " fl",
      "ash"
    ],
    [
      " le",
      "opard"
    ],
    [
      " st",
      "at"
    ],
    [
      "c",
      "ident"
    ],
    [
      " brill",
      "iant"
    ],
    [
      " expl",
      "ained"
    ],
    [
      " pain",
      "ting"
    ],
    [
      " show",
      "s"
    ],
    [
      " ch",
      "anged"
    ],
    [
      " sun",
      "g"
    ],
    [
      " boy",
      "s"
    ],
    [
      " lo",
      "g"
    ],
    [
      " y",
      "arn"
    ],
    [
      " m",
      "ap"
    ],
    [
      " p",
      "ress"
    ],
    [
      "n",
      "ic"
    ],
    [
      " hum",
      "ble"
    ],
    [
      " col",
      "our"
    ],
    [
      " pic",
      "nic"
    ],
    [
      "The",
      "ir"
    ],
    [
      " we",
      "al"
    ],
    [
      " th",
      "u"
    ],
    [
      "g",
      "round"
    ],
    [
      "I",
      "f"
    ],
    [
      " craw",
      "led"
    ],
    [
      " z",
      "ip"
    ],
    [
      " tri",
      "cks"
    ],
    [
      " bo",
      "ard"
    ],
    [
      " sh",
      "iver"
    ],
    [
      " m",
      "ill"
    ],
    [
      " ",
      "er"
    ],
    [
      " envel",
      "ope"
    ],
    [
      " temp",
      "le"
    ],
    [
      " ignor",
      "ant"
    ],
    [
      " us",
      "ing"
    ],
    [
      " ch",
      "oose"
    ],
    [
      "n",
      "el"
    ],
    [
      "h",
      "ip"
    ],
    [
      " sung",
      "l"
    ],
    [
      " sungl",
      "asses"
    ],
    [
      " cheer",
      "ful"
    ],
    [
      " av",
      "oc"
    ],
    [
      " balloon",
      "s"
    ],
    [
      " ru",
      "ined"
    ],
    [
      " fr",
      "ame"
    ],
    [
      " friends",
      "hip"
    ],
    [
      " h",
      "oop"
    ],
    [
      " s",
      "end"
    ],
    [
      "w",
      "eet"
    ],
    [
      "i",
      "v"
    ],
    [
      "M",
      "ama"
    ],
    [
      "M",
      "e"
    ],
    [
      " pop",
      "ular"
    ],
    [
      " bat",
      "ter"
    ],
    [
      " ra",
      "ft"
    ],
    [
      " bott",
      "om"
    ],
    [
      " count",
      "ed"
    ],
    [
      " ac",
      "cident"
    ],
    [
      " bu",
      "ilt"
    ],
    [
      " fo",
      "lder"
    ],
    [
      " pe",
      "pper"
    ],
    [
      " kn",
      "ee"
    ],
    [
      "in",
      "ary"
    ],
    [
      "n",
      "et"
    ],
    [
      "m",
      "et"
    ],
    [
      " comp",
      "et"
    ],
    [
      " delic",
      "ate"
    ],
    [
      " spot",
      "ted"
    ],
    [
      " ro",
      "se"
    ],
    [
      " hel",
      "met"
    ],
    [
      " st",
      "ones"
    ],
    [
      "id",
      "dle"
    ],
    [
      " p",
      "ants"
    ],
    [
      " wa",
      "ves"
    ],
    [
      "m",
      "ost"
    ],
    [
      " env",
      "ious"
    ],
    [
      " kiss",
      "ed"
    ],
    [
      " tri",
      "angle"
    ],
    [
      " sun",
      "shine"
    ],
    [
      " sc",
      "reen"
    ],
    [
      " sp",
      "ill"
    ],
    [
      "ul",
      "u"
    ],
    [
      " j",
      "ack"
    ],
    [
      "ig",
      "ator"
    ],
    [
      " to",
      "ast"
    ],
    [
      "w",
      "ork"
    ],
    [
      "E",
      "very"
    ],
    [
      " liz",
      "ard"
    ],
    [
      " mis",
      "er"
    ],
    [
      " miser",
      "able"
    ],
    [
      " loud",
      "er"
    ],
    [
      " clean",
      "ing"
    ],
    [
      " tr",
      "ump"
    ],
    [
      " trump",
      "et"
    ],
    [
      "fe",
      "e"
    ],
    [
      " care",
      "less"
    ],
    [
      " You",
      "r"
    ],
    [
      " st",
      "age"
    ],
    [
      " m",
      "iddle"
    ],
    [
      " s",
      "ighed"
    ],
    [
      " stat",
      "ue"
    ],
    [
      " pige",
      "on"
    ],
    [
      " tun",
      "nel"
    ],
    [
      " vegetable",
      "s"
    ],
    [
      " har",
      "sh"
    ],
    [
      " impress",
      "ive"
    ],
    [
      " fing",
      "er"
    ],
    [
      " ser",
      "ious"
    ],
    [
      " al",
      "most"
    ],
    [
      " sc",
      "ale"
    ],
    [
      " p",
      "ow"
    ],
    [
      "it",
      "her"
    ],
    [
      " wa",
      "nder"
    ],
    [
      "y",
      "ing"
    ],
    [
      "J",
      "ane"
    ],
    [
      " ",
      "No"
    ],
    [
      " brace",
      "let"
    ],
    [
      " bor",
      "row"
    ],
    [
      " bel",
      "t"
    ],
    [
      " ma",
      "ze"
    ],
    [
      " ho",
      "pping"
    ],
    [
      "ia",
      "ble"
    ],
    [
      " all",
      "igator"
    ],
    [
      "se",
      "um"
    ],
    [
      "of",
      "fee"
    ],
    [
      " S",
      "h"
    ],
    [
      " sa",
      "iled"
    ],
    [
      " fig",
      "ure"
    ],
    [
      " ear",
      "th"
    ],
    [
      " gu",
      "ard"
    ],
    [
      " nap",
      "kin"
    ],
    [
      " sl",
      "ipped"
    ],
    [
      " mu",
      "seum"
    ],
    [
      " no",
      "sy"
    ],
    [
      " me",
      "ant"
    ],
    [
      " att",
      "ract"
    ],
    [
      " pen",
      "ny"
    ],
    [
      " com",
      "pl"
    ],
    [
      " ta",
      "ken"
    ],
    [
      " po",
      "st"
    ],
    [
      "The",
      "re"
    ],
    [
      " sa",
      "us"
    ],
    [
      " was",
      "hed"
    ],
    [
      " b",
      "in"
    ],
    [
      " jack",
      "et"
    ],
    [
      " mov",
      "ie"
    ],
    [
      " neighb",
      "or"
    ],
    [
      " jelly",
      "fish"
    ],
    [
      " rel",
      "iable"
    ],
    [
      " hurt",
      "s"
    ],
    [
      " happ",
      "iness"
    ],
    [
      " r",
      "h"
    ],
    [
      " g",
      "ar"
    ],
    [
      " c",
      "offee"
    ],
    [
      " c",
      "ries"
    ],
    [
      " c",
      "oo"
    ],
    [
      "M",
      "um"
    ],
    [
      " attract",
      "ive"
    ],
    [
      " ord",
      "inary"
    ],
    [
      " fil",
      "thy"
    ],
    [
      "ct",
      "op"
    ],
    [
      "ber",
      "ries"
    ],
    [
      " kn",
      "ight"
    ],
    [
      " g",
      "or"
    ],
    [
      " weal",
      "thy"
    ],
    [
      " cush",
      "ion"
    ],
    [
      " rad",
      "io"
    ],
    [
      "as",
      "er"
    ],
    [
      " sh",
      "ore"
    ],
    [
      " on",
      "es"
    ],
    [
      " g",
      "em"
    ],
    [
      " c",
      "am"
    ],
    [
      " muff",
      "in"
    ],
    [
      " belong",
      "ed"
    ],
    [
      "ipp",
      "er"
    ],
    [
      " walk",
      "s"
    ],
    [
      " mag",
      "net"
    ],
    [
      " pe",
      "ach"
    ],
    [
      " box",
      "es"
    ],
    [
      "ob",
      "ile"
    ],
    [
      " for",
      "ward"
    ],
    [
      "ut",
      "om"
    ],
    [
      "utom",
      "obile"
    ],
    [
      " c",
      "ab"
    ],
    [
      " cam",
      "era"
    ],
    [
      " gor",
      "illa"
    ],
    [
      " pour",
      "ed"
    ],
    [
      " shell",
      "s"
    ],
    [
      " no",
      "d"
    ],
    [
      " lo",
      "cked"
    ],
    [
      " sh",
      "ade"
    ],
    [
      " t",
      "ag"
    ],
    [
      "l",
      "ive"
    ],
    [
      " cab",
      "in"
    ],
    [
      " dolph",
      "in"
    ],
    [
      " whisp",
      "ered"
    ],
    [
      " reg",
      "ular"
    ],
    [
      " answ",
      "ered"
    ],
    [
      " pers",
      "ist"
    ],
    [
      " boat",
      "s"
    ],
    [
      "ip",
      "op"
    ],
    [
      " fl",
      "uffy"
    ],
    [
      " lo",
      "ll"
    ],
    [
      " loll",
      "ipop"
    ],
    [
      " a",
      "utomobile"
    ],
    [
      "z",
      "zy"
    ],
    [
      "p",
      "ack"
    ],
    [
      " des",
      "k"
    ],
    [
      " gi",
      "ving"
    ],
    [
      " draw",
      "er"
    ],
    [
      " no",
      "ds"
    ],
    [
      "on",
      "y"
    ],
    [
      " t",
      "imes"
    ],
    [
      "a",
      "ppy"
    ],
    [
      " compet",
      "it"
    ],
    [
      " sail",
      "or"
    ],
    [
      " smo",
      "ke"
    ],
    [
      " cre",
      "ate"
    ],
    [
      " mu",
      "le"
    ],
    [
      " lo",
      "ad"
    ],
    [
      " M",
      "iss"
    ],
    [
      " we",
      "ek"
    ],
    [
      " f",
      "our"
    ],
    [
      "d",
      "om"
    ],
    [
      "ctop",
      "us"
    ],
    [
      " ju",
      "dge"
    ],
    [
      "co",
      "a"
    ],
    [
      " tra",
      "vel"
    ],
    [
      " lot",
      "ion"
    ],
    [
      " ch",
      "u"
    ],
    [
      " say",
      "ing"
    ],
    [
      "ut",
      "h"
    ],
    [
      " g",
      "um"
    ],
    [
      "om",
      "es"
    ],
    [
      "c",
      "les"
    ],
    [
      " chu",
      "bby"
    ],
    [
      " shr",
      "imp"
    ],
    [
      " To",
      "day"
    ],
    [
      " cup",
      "board"
    ],
    [
      " del",
      "ight"
    ],
    [
      " strong",
      "er"
    ],
    [
      " tw",
      "ig"
    ],
    [
      " sn",
      "iff"
    ],
    [
      "ink",
      "y"
    ],
    [
      " J",
      "ake"
    ],
    [
      " an",
      "g"
    ],
    [
      "et",
      "e"
    ],
    [
      " w",
      "itch"
    ],
    [
      " gar",
      "age"
    ],
    [
      " success",
      "ful"
    ],
    [
      " return",
      "ed"
    ],
    [
      " inv",
      "ited"
    ],
    [
      " bu",
      "bble"
    ],
    [
      " house",
      "s"
    ],
    [
      "ic",
      "t"
    ],
    [
      " li",
      "br"
    ],
    [
      " w",
      "ool"
    ],
    [
      "u",
      "nd"
    ],
    [
      "g",
      "ing"
    ],
    [
      "G",
      "o"
    ],
    [
      " supp",
      "ort"
    ],
    [
      " live",
      "ly"
    ],
    [
      "ess",
      "ie"
    ],
    [
      " need",
      "le"
    ],
    [
      " mo",
      "le"
    ],
    [
      " nice",
      "ly"
    ],
    [
      " show",
      "ing"
    ],
    [
      " le",
      "an"
    ],
    [
      "ur",
      "b"
    ],
    [
      " help",
      "less"
    ],
    [
      " persist",
      "ent"
    ],
    [
      "mb",
      "re"
    ],
    [
      " fear",
      "ful"
    ],
    [
      " gr",
      "own"
    ],
    [
      "Wh",
      "o"
    ],
    [
      " mo",
      "der"
    ],
    [
      " al",
      "ert"
    ],
    [
      " help",
      "s"
    ],
    [
      " y",
      "et"
    ],
    [
      " u",
      "mbre"
    ],
    [
      " d",
      "ough"
    ],
    [
      " sque",
      "e"
    ],
    [
      " sco",
      "ot"
    ],
    [
      " sol",
      "ve"
    ],
    [
      " rad",
      "ish"
    ],
    [
      " dist",
      "urb"
    ],
    [
      " dream",
      "s"
    ],
    [
      " tr",
      "unk"
    ],
    [
      " get",
      "s"
    ],
    [
      "ie",
      "f"
    ],
    [
      " cl",
      "ub"
    ],
    [
      " fr",
      "idge"
    ],
    [
      " sh",
      "ine"
    ],
    [
      "an",
      "ut"
    ],
    [
      " moder",
      "n"
    ],
    [
      " coo",
      "ked"
    ],
    [
      " val",
      "ue"
    ],
    [
      " sleep",
      "ing"
    ],
    [
      " bed",
      "room"
    ],
    [
      " dec",
      "ide"
    ],
    [
      " o",
      "ctopus"
    ],
    [
      " li",
      "cked"
    ],
    [
      " L",
      "ulu"
    ],
    [
      "an",
      "ger"
    ],
    [
      " l",
      "ow"
    ],
    [
      " creat",
      "ure"
    ],
    [
      " ce",
      "re"
    ],
    [
      " boun",
      "ced"
    ],
    [
      " loud",
      "ly"
    ],
    [
      " car",
      "p"
    ],
    [
      " re",
      "pe"
    ],
    [
      " wis",
      "hes"
    ],
    [
      " spe",
      "ak"
    ],
    [
      " spe",
      "ed"
    ],
    [
      " ac",
      "ce"
    ],
    [
      " qu",
      "ar"
    ],
    [
      " way",
      "s"
    ],
    [
      " sor",
      "t"
    ],
    [
      " un",
      "cle"
    ],
    [
      "ot",
      "ter"
    ],
    [
      " S",
      "n"
    ],
    [
      " c",
      "ity"
    ],
    [
      " d",
      "ive"
    ],
    [
      " h",
      "ive"
    ],
    [
      " b",
      "ase"
    ],
    [
      " s",
      "le"
    ],
    [
      " t",
      "ire"
    ],
    [
      " t",
      "ank"
    ],
    [
      " ",
      "otter"
    ],
    [
      " umbre",
      "lla"
    ],
    [
      " er",
      "aser"
    ],
    [
      " thu",
      "nder"
    ],
    [
      " cand",
      "le"
    ],
    [
      " spl",
      "it"
    ],
    [
      "az",
      "z"
    ],
    [
      " hard",
      "er"
    ],
    [
      " tr",
      "uth"
    ],
    [
      " learn",
      "ing"
    ],
    [
      "en",
      "se"
    ],
    [
      " g",
      "ym"
    ],
    [
      " h",
      "ipp"
    ],
    [
      " rep",
      "air"
    ],
    [
      "Sara",
      "h"
    ],
    [
      " ad",
      "or"
    ],
    [
      " sp",
      "end"
    ],
    [
      " st",
      "ation"
    ],
    [
      " l",
      "it"
    ],
    [
      " cere",
      "al"
    ],
    [
      " cher",
      "ries"
    ],
    [
      " gu",
      "il"
    ],
    [
      " guil",
      "ty"
    ],
    [
      " or",
      "der"
    ],
    [
      " ch",
      "alk"
    ],
    [
      "ri",
      "c"
    ],
    [
      " m",
      "ild"
    ],
    [
      " m",
      "op"
    ],
    [
      " f",
      "ather"
    ],
    [
      "x",
      "y"
    ],
    [
      "c",
      "ut"
    ],
    [
      " quar",
      "rel"
    ],
    [
      " flash",
      "light"
    ],
    [
      " jewel",
      "ry"
    ],
    [
      " wheel",
      "s"
    ],
    [
      " poin",
      "ting"
    ],
    [
      " v",
      "ine"
    ],
    [
      " co",
      "coa"
    ],
    [
      "ul",
      "if"
    ],
    [
      " j",
      "et"
    ],
    [
      " big",
      "gest"
    ],
    [
      " th",
      "ief"
    ],
    [
      "ir",
      "on"
    ],
    [
      "y",
      "e"
    ],
    [
      "o",
      "in"
    ],
    [
      "B",
      "illy"
    ],
    [
      " ador",
      "able"
    ],
    [
      " Tr",
      "ue"
    ],
    [
      " R",
      "ob"
    ],
    [
      " ca",
      "ulif"
    ],
    [
      " ca",
      "ct"
    ],
    [
      " imp",
      "at"
    ],
    [
      " impat",
      "ient"
    ],
    [
      " gra",
      "ce"
    ],
    [
      " kn",
      "ot"
    ],
    [
      "ter",
      "n"
    ],
    [
      " so",
      "ar"
    ],
    [
      " f",
      "ountain"
    ],
    [
      " h",
      "omes"
    ],
    [
      " s",
      "ink"
    ],
    [
      " ",
      "ed"
    ],
    [
      " cact",
      "us"
    ],
    [
      " carp",
      "et"
    ],
    [
      " libr",
      "ary"
    ],
    [
      " pow",
      "der"
    ],
    [
      " happen",
      "ing"
    ],
    [
      " te",
      "as"
    ],
    [
      "g",
      "en"
    ],
    [
      " swe",
      "ater"
    ],
    [
      " pen",
      "gu"
    ],
    [
      " off",
      "ice"
    ],
    [
      " sk",
      "ipped"
    ],
    [
      " for",
      "th"
    ],
    [
      " st",
      "ream"
    ],
    [
      " her",
      "b"
    ],
    [
      " c",
      "ase"
    ],
    [
      " fis",
      "her"
    ],
    [
      "arm",
      "ing"
    ],
    [
      "Bob",
      "o"
    ],
    [
      " Do",
      "lly"
    ],
    [
      " gra",
      "ndpa"
    ],
    [
      " fl",
      "ute"
    ],
    [
      " sh",
      "ield"
    ],
    [
      " for",
      "k"
    ],
    [
      "ke",
      "ep"
    ],
    [
      " st",
      "aff"
    ],
    [
      "ir",
      "it"
    ],
    [
      " ha",
      "lf"
    ],
    [
      " l",
      "ying"
    ],
    [
      " hipp",
      "o"
    ],
    [
      " hand",
      "le"
    ],
    [
      " gra",
      "pes"
    ],
    [
      " ch",
      "arming"
    ],
    [
      " when",
      "ever"
    ],
    [
      "ob",
      "y"
    ],
    [
      "ra",
      "ge"
    ],
    [
      "or",
      "y"
    ],
    [
      "is",
      "ted"
    ],
    [
      "r",
      "n"
    ],
    [
      "j",
      "ect"
    ],
    [
      " caulif",
      "lower"
    ],
    [
      " ang",
      "el"
    ],
    [
      " feather",
      "s"
    ],
    [
      " val",
      "u"
    ],
    [
      "ass",
      "ion"
    ],
    [
      " count",
      "ing"
    ],
    [
      " tri",
      "pped"
    ],
    [
      " sk",
      "in"
    ],
    [
      "es",
      "day"
    ],
    [
      " sle",
      "pt"
    ],
    [
      " avoc",
      "ado"
    ],
    [
      " tick",
      "et"
    ],
    [
      " straw",
      "berry"
    ],
    [
      "lev",
      "ator"
    ],
    [
      " thin",
      "king"
    ],
    [
      " des",
      "ign"
    ],
    [
      " mar",
      "ry"
    ],
    [
      " P",
      "eter"
    ],
    [
      " know",
      "s"
    ],
    [
      "ach",
      "t"
    ],
    [
      " them",
      "selves"
    ],
    [
      " e",
      "levator"
    ],
    [
      " l",
      "ed"
    ],
    [
      " h",
      "unt"
    ],
    [
      " t",
      "ap"
    ],
    [
      "z",
      "ed"
    ],
    [
      "p",
      "ed"
    ],
    [
      " competit",
      "ive"
    ],
    [
      " compl",
      "ain"
    ],
    [
      " dish",
      "w"
    ],
    [
      " dishw",
      "as"
    ],
    [
      " dishwas",
      "her"
    ],
    [
      " wra",
      "pped"
    ],
    [
      "leph",
      "one"
    ],
    [
      " gif",
      "ted"
    ],
    [
      " te",
      "lephone"
    ],
    [
      " sp",
      "un"
    ],
    [
      " e",
      "ventually"
    ],
    [
      " y",
      "acht"
    ],
    [
      "ed",
      "y"
    ],
    [
      " shr",
      "ink"
    ],
    [
      " sk",
      "ip"
    ],
    [
      " exc",
      "ite"
    ],
    [
      " int",
      "ell"
    ],
    [
      " intell",
      "ig"
    ],
    [
      " ",
      "iron"
    ],
    [
      " gather",
      "ed"
    ],
    [
      " fle",
      "a"
    ],
    [
      " disapp",
      "oin"
    ],
    [
      " ph",
      "oto"
    ],
    [
      " comp",
      "assion"
    ],
    [
      " hair",
      "cut"
    ],
    [
      " qu",
      "it"
    ],
    [
      " tow",
      "ers"
    ],
    [
      " tr",
      "ay"
    ],
    [
      " sa",
      "uce"
    ],
    [
      "M",
      "ummy"
    ],
    [
      " pir",
      "ate"
    ],
    [
      " gigg",
      "led"
    ],
    [
      " decor",
      "ate"
    ],
    [
      " R",
      "ose"
    ],
    [
      " po",
      "em"
    ],
    [
      " po",
      "le"
    ],
    [
      " an",
      "ch"
    ],
    [
      "ri",
      "ll"
    ],
    [
      "at",
      "es"
    ],
    [
      " n",
      "urse"
    ],
    [
      " d",
      "eter"
    ],
    [
      " T",
      "weet"
    ],
    [
      " w",
      "ire"
    ],
    [
      " anch",
      "or"
    ],
    [
      " valu",
      "able"
    ],
    [
      " cri",
      "cket"
    ],
    [
      " quest",
      "ion"
    ],
    [
      " ear",
      "s"
    ],
    [
      " rest",
      "less"
    ],
    [
      " am",
      "b"
    ],
    [
      " amb",
      "ul"
    ],
    [
      " ambul",
      "ance"
    ],
    [
      "op",
      "l"
    ],
    [
      "el",
      "ery"
    ],
    [
      " sh",
      "ape"
    ],
    [
      " ha",
      "m"
    ],
    [
      "er",
      "opl"
    ],
    [
      " wa",
      "ff"
    ],
    [
      " to",
      "rn"
    ],
    [
      " to",
      "e"
    ],
    [
      " a",
      "eropl"
    ],
    [
      "J",
      "im"
    ],
    [
      " deter",
      "m"
    ],
    [
      " slid",
      "es"
    ],
    [
      " button",
      "s"
    ],
    [
      " bar",
      "rel"
    ],
    [
      " hot",
      "el"
    ],
    [
      " v",
      "ide"
    ],
    [
      " y",
      "aw"
    ],
    [
      " n",
      "umb"
    ],
    [
      "F",
      "luffy"
    ],
    [
      " ed",
      "ge"
    ],
    [
      " set",
      "t"
    ],
    [
      "ac",
      "he"
    ],
    [
      " str",
      "anger"
    ],
    [
      "ag",
      "ed"
    ],
    [
      "at",
      "s"
    ],
    [
      "is",
      "ion"
    ],
    [
      "G",
      "ive"
    ],
    [
      " numb",
      "ers"
    ],
    [
      " unl",
      "ock"
    ],
    [
      " tear",
      "s"
    ],
    [
      " pat",
      "tern"
    ],
    [
      "bo",
      "dy"
    ],
    [
      " z",
      "ipper"
    ],
    [
      " tra",
      "il"
    ],
    [
      " me",
      "al"
    ],
    [
      " sh",
      "ut"
    ],
    [
      "at",
      "ing"
    ],
    [
      " c",
      "elery"
    ],
    [
      " b",
      "ull"
    ],
    [
      " w",
      "ife"
    ],
    [
      " s",
      "ight"
    ],
    [
      " compassion",
      "ate"
    ],
    [
      " disappoin",
      "ted"
    ],
    [
      " intellig",
      "ent"
    ],
    [
      " fisher",
      "man"
    ],
    [
      " Jim",
      "my"
    ],
    [
      " sal",
      "t"
    ],
    [
      " spin",
      "ning"
    ],
    [
      " laugh",
      "s"
    ],
    [
      " ri",
      "bb"
    ],
    [
      " bus",
      "hes"
    ],
    [
      " mean",
      "s"
    ],
    [
      " tra",
      "p"
    ],
    [
      " B",
      "oun"
    ],
    [
      " we",
      "igh"
    ],
    [
      " p",
      "it"
    ],
    [
      "o",
      "ld"
    ],
    [
      " banan",
      "as"
    ],
    [
      " card",
      "board"
    ],
    [
      " comp",
      "ut"
    ],
    [
      " mo",
      "d"
    ],
    [
      " mod",
      "el"
    ],
    [
      "?\"",
      "."
    ],
    [
      " p",
      "le"
    ],
    [
      "keep",
      "er"
    ],
    [
      " sold",
      "ier"
    ],
    [
      " sur",
      "f"
    ],
    [
      "sp",
      "it"
    ],
    [
      "spit",
      "al"
    ],
    [
      " ju",
      "icy"
    ],
    [
      " wall",
      "s"
    ],
    [
      " P",
      "ete"
    ],
    [
      " K",
      "im"
    ],
    [
      " pe",
      "ar"
    ],
    [
      " ho",
      "spital"
    ],
    [
      " v",
      "ie"
    ],
    [
      " vie",
      "w"
    ],
    [
      " new",
      "sp"
    ],
    [
      " e",
      "ither"
    ],
    [
      " in",
      "k"
    ],
    [
      " m",
      "ug"
    ],
    [
      " T",
      "oby"
    ],
    [
      "he",
      "ad"
    ],
    [
      "oph",
      "ie"
    ],
    [
      "de",
      "st"
    ],
    [
      "qu",
      "it"
    ],
    [
      "quit",
      "o"
    ],
    [
      " o",
      "il"
    ],
    [
      " bird",
      "c"
    ],
    [
      " sh",
      "ort"
    ],
    [
      " r",
      "id"
    ],
    [
      " m",
      "itten"
    ],
    [
      " c",
      "urt"
    ],
    [
      " a",
      "dded"
    ],
    [
      " curt",
      "ain"
    ],
    [
      " birdc",
      "age"
    ],
    [
      " sil",
      "ver"
    ],
    [
      " Pe",
      "ople"
    ],
    [
      " saf",
      "ely"
    ],
    [
      " suc",
      "ce"
    ],
    [
      " dist",
      "ant"
    ],
    [
      " pre",
      "p"
    ],
    [
      " pe",
      "e"
    ],
    [
      " sp",
      "ear"
    ],
    [
      "ent",
      "ion"
    ],
    [
      " n",
      "ail"
    ],
    [
      " p",
      "ap"
    ],
    [
      " p",
      "al"
    ],
    [
      "n",
      "am"
    ],
    [
      "M",
      "r"
    ],
    [
      "'",
      "d"
    ],
    [
      " spill",
      "ed"
    ],
    [
      " cri",
      "b"
    ],
    [
      " en",
      "c"
    ],
    [
      " mo",
      "s"
    ],
    [
      " mos",
      "quito"
    ],
    [
      "us",
      "hed"
    ],
    [
      "!\"",
      "."
    ],
    [
      " cost",
      "ume"
    ],
    [
      " lab",
      "el"
    ],
    [
      " yog",
      "urt"
    ],
    [
      " wip",
      "ed"
    ],
    [
      " quest",
      "ions"
    ],
    [
      " Bu",
      "zz"
    ],
    [
      " bike",
      "s"
    ],
    [
      "up",
      "er"
    ],
    [
      " dream",
      "ed"
    ],
    [
      " light",
      "s"
    ],
    [
      " pain",
      "ter"
    ],
    [
      " pa",
      "le"
    ],
    [
      " co",
      "ins"
    ],
    [
      " ro",
      "de"
    ],
    [
      "ur",
      "ing"
    ],
    [
      " play",
      "ground"
    ],
    [
      "ut",
      "es"
    ],
    [
      " p",
      "urse"
    ],
    [
      " c",
      "ob"
    ],
    [
      " b",
      "ump"
    ],
    [
      " t",
      "ask"
    ],
    [
      " t",
      "ummy"
    ],
    [
      "r",
      "on"
    ],
    [
      "a",
      "ving"
    ],
    [
      " succe",
      "ed"
    ],
    [
      " aeropl",
      "ane"
    ],
    [
      " grace",
      "ful"
    ],
    [
      " motor",
      "cy"
    ],
    [
      " rub",
      "ber"
    ],
    [
      " min",
      "utes"
    ],
    [
      " O",
      "K"
    ],
    [
      " pretend",
      "ing"
    ],
    [
      " sho",
      "cked"
    ],
    [
      " gl",
      "ove"
    ],
    [
      " sp",
      "irit"
    ],
    [
      "p",
      "ar"
    ],
    [
      " pal",
      "ace"
    ],
    [
      " comput",
      "er"
    ],
    [
      " saus",
      "age"
    ],
    [
      " pro",
      "v"
    ],
    [
      "oc",
      "er"
    ],
    [
      " coll",
      "ar"
    ],
    [
      " fall",
      "s"
    ],
    [
      " ch",
      "ain"
    ],
    [
      " co",
      "al"
    ],
    [
      "op",
      "ter"
    ],
    [
      "ic",
      "opter"
    ],
    [
      "ur",
      "ch"
    ],
    [
      " hel",
      "icopter"
    ],
    [
      " L",
      "ittle"
    ],
    [
      " st",
      "ack"
    ],
    [
      " it",
      "self"
    ],
    [
      "at",
      "ely"
    ],
    [
      " p",
      "or"
    ],
    [
      " d",
      "ust"
    ],
    [
      "in",
      "ocer"
    ],
    [
      "a",
      "it"
    ],
    [
      ",",
      "”"
    ],
    [
      "inocer",
      "os"
    ],
    [
      "nam",
      "ent"
    ],
    [
      " scoot",
      "er"
    ],
    [
      "iger",
      "ator"
    ],
    [
      " cry",
      "st"
    ],
    [
      " cryst",
      "al"
    ],
    [
      " kind",
      "ness"
    ],
    [
      " or",
      "nament"
    ],
    [
      " kn",
      "ob"
    ],
    [
      " p",
      "un"
    ],
    [
      "u",
      "el"
    ],
    [
      "r",
      "igerator"
    ],
    [
      " step",
      "s"
    ],
    [
      " pa",
      "cked"
    ],
    [
      " par",
      "ade"
    ],
    [
      "uc",
      "et"
    ],
    [
      " fa",
      "ucet"
    ],
    [
      " go",
      "lf"
    ],
    [
      " ro",
      "d"
    ],
    [
      " o",
      "ak"
    ],
    [
      " g",
      "ear"
    ],
    [
      " m",
      "elt"
    ],
    [
      " l",
      "ime"
    ],
    [
      " T",
      "eddy"
    ],
    [
      " a",
      "x"
    ],
    [
      " newsp",
      "aper"
    ],
    [
      " base",
      "ball"
    ],
    [
      " ref",
      "rigerator"
    ],
    [
      "umb",
      "led"
    ],
    [
      " ey",
      "e"
    ],
    [
      " Every",
      "where"
    ],
    [
      " mo",
      "dest"
    ],
    [
      " v",
      "end"
    ],
    [
      " le",
      "ash"
    ],
    [
      " li",
      "e"
    ],
    [
      " th",
      "ose"
    ],
    [
      " h",
      "our"
    ],
    [
      " rh",
      "inoceros"
    ],
    [
      "lev",
      "ision"
    ],
    [
      " av",
      "ail"
    ],
    [
      " disapp",
      "eared"
    ],
    [
      " comp",
      "let"
    ],
    [
      " brother",
      "s"
    ],
    [
      " mat",
      "t"
    ],
    [
      " dri",
      "ving"
    ],
    [
      " pick",
      "ing"
    ],
    [
      "rew",
      "ork"
    ],
    [
      " hat",
      "e"
    ],
    [
      " fi",
      "rework"
    ],
    [
      " make",
      "up"
    ],
    [
      " se",
      "par"
    ],
    [
      "ug",
      "ged"
    ],
    [
      " B",
      "ill"
    ],
    [
      " li",
      "c"
    ],
    [
      "il",
      "ot"
    ],
    [
      "of",
      "a"
    ],
    [
      " c",
      "able"
    ],
    [
      " f",
      "og"
    ],
    [
      " s",
      "uper"
    ],
    [
      "c",
      "ing"
    ],
    [
      "I",
      "s"
    ],
    [
      " lic",
      "ense"
    ],
    [
      " vide",
      "o"
    ],
    [
      " Sp",
      "ike"
    ],
    [
      " ser",
      "ve"
    ],
    [
      " res",
      "c"
    ],
    [
      "amp",
      "oo"
    ],
    [
      " swing",
      "ing"
    ],
    [
      " G",
      "ive"
    ],
    [
      " te",
      "levision"
    ],
    [
      " no",
      "vel"
    ],
    [
      "oft",
      "en"
    ],
    [
      " on",
      "ion"
    ],
    [
      "st",
      "ri"
    ],
    [
      " in",
      "se"
    ],
    [
      " p",
      "ine"
    ],
    [
      " s",
      "ofa"
    ],
    [
      " ",
      "often"
    ],
    [
      " avail",
      "able"
    ],
    [
      " ax",
      "e"
    ],
    [
      " determ",
      "ined"
    ],
    [
      " Bird",
      "y"
    ],
    [
      " med",
      "al"
    ],
    [
      " pol",
      "ish"
    ],
    [
      " cup",
      "s"
    ],
    [
      " ru",
      "bbed"
    ],
    [
      " C",
      "l"
    ],
    [
      " ch",
      "urch"
    ],
    [
      " sp",
      "ell"
    ],
    [
      " man",
      "aged"
    ],
    [
      " ha",
      "ll"
    ],
    [
      " m",
      "ath"
    ],
    [
      " h",
      "ook"
    ],
    [
      "t",
      "ime"
    ],
    [
      "r",
      "oph"
    ],
    [
      "a",
      "ked"
    ],
    [
      "W",
      "ell"
    ],
    [
      "roph",
      "one"
    ],
    [
      " por",
      "ch"
    ],
    [
      " cob",
      "we"
    ],
    [
      " cobwe",
      "b"
    ],
    [
      " disapp",
      "ear"
    ],
    [
      " spark",
      "ly"
    ],
    [
      " miss",
      "ile"
    ],
    [
      " cool",
      "er"
    ],
    [
      " bag",
      "s"
    ],
    [
      " tall",
      "er"
    ],
    [
      " draw",
      "ings"
    ],
    [
      " F",
      "o"
    ],
    [
      " al",
      "arm"
    ],
    [
      " me",
      "adow"
    ],
    [
      " sc",
      "rew"
    ],
    [
      " M",
      "um"
    ],
    [
      " B",
      "et"
    ],
    [
      " vend",
      "or"
    ],
    [
      " pengu",
      "in"
    ],
    [
      " di",
      "ary"
    ],
    [
      " band",
      "age"
    ],
    [
      " war",
      "d"
    ],
    [
      " ward",
      "robe"
    ],
    [
      " bat",
      "ht"
    ],
    [
      " batht",
      "ub"
    ],
    [
      " basket",
      "ball"
    ],
    [
      " books",
      "he"
    ],
    [
      " met",
      "al"
    ],
    [
      " climb",
      "ing"
    ],
    [
      " gr",
      "owl"
    ],
    [
      " ho",
      "c"
    ],
    [
      " hoc",
      "key"
    ],
    [
      " star",
      "ed"
    ],
    [
      "st",
      "airs"
    ],
    [
      "ar",
      "ry"
    ],
    [
      " ",
      "ig"
    ],
    [
      " ig",
      "l"
    ],
    [
      " igl",
      "oo"
    ],
    [
      " bookshe",
      "lf"
    ],
    [
      " batter",
      "y"
    ],
    [
      " hur",
      "ry"
    ],
    [
      " gas",
      "ped"
    ],
    [
      " cher",
      "ry"
    ],
    [
      " ent",
      "h"
    ],
    [
      " enth",
      "us"
    ],
    [
      " enthus",
      "ia"
    ],
    [
      " min",
      "er"
    ],
    [
      " ve",
      "il"
    ],
    [
      " John",
      "ny"
    ],
    [
      " roll",
      "ing"
    ],
    [
      " ri",
      "ce"
    ],
    [
      " al",
      "re"
    ],
    [
      " alre",
      "ady"
    ],
    [
      " me",
      "at"
    ],
    [
      " o",
      "stri"
    ],
    [
      " th",
      "read"
    ],
    [
      "er",
      "c"
    ],
    [
      " m",
      "ay"
    ],
    [
      "B",
      "ye"
    ],
    [
      " inse",
      "ct"
    ],
    [
      " pap",
      "ers"
    ],
    [
      " hunt",
      "er"
    ],
    [
      " Sn",
      "ow"
    ],
    [
      " stret",
      "ched"
    ],
    [
      " organ",
      "ize"
    ],
    [
      " stu",
      "d"
    ],
    [
      " expl",
      "ain"
    ],
    [
      " P",
      "ipp"
    ],
    [
      " mag",
      "az"
    ],
    [
      " gra",
      "pe"
    ],
    [
      " sw",
      "ung"
    ],
    [
      " kn",
      "ock"
    ],
    [
      " ro",
      "ot"
    ],
    [
      " r",
      "ise"
    ],
    [
      " it",
      "ch"
    ],
    [
      "om",
      "ed"
    ],
    [
      " c",
      "omet"
    ],
    [
      "W",
      "ait"
    ],
    [
      "R",
      "e"
    ],
    [
      " matt",
      "ress"
    ],
    [
      " motorcy",
      "cle"
    ],
    [
      " mic",
      "rophone"
    ],
    [
      " ob",
      "ject"
    ],
    [
      "af",
      "fe"
    ],
    [
      "ist",
      "ol"
    ],
    [
      " o",
      "k"
    ],
    [
      " not",
      "ice"
    ],
    [
      "ver",
      "se"
    ],
    [
      " m",
      "ummy"
    ],
    [
      " l",
      "umber"
    ],
    [
      " b",
      "icy"
    ],
    [
      "S",
      "ee"
    ],
    [
      "A",
      "l"
    ],
    [
      " enc",
      "ou"
    ],
    [
      "ric",
      "ane"
    ],
    [
      " ar",
      "g"
    ],
    [
      " dream",
      "ing"
    ],
    [
      " must",
      "ache"
    ],
    [
      " real",
      "ised"
    ],
    [
      " cook",
      "ing"
    ],
    [
      " imp",
      "ro"
    ],
    [
      " sn",
      "ap"
    ],
    [
      " fl",
      "ame"
    ],
    [
      " ex",
      "erc"
    ],
    [
      " re",
      "ward"
    ],
    [
      " p",
      "istol"
    ],
    [
      " p",
      "ilot"
    ],
    [
      " d",
      "ess"
    ],
    [
      "n",
      "ger"
    ],
    [
      " joke",
      "s"
    ],
    [
      " sug",
      "gest"
    ],
    [
      " Z",
      "oomy"
    ],
    [
      " black",
      "board"
    ],
    [
      "lc",
      "an"
    ],
    [
      " win",
      "ter"
    ],
    [
      " wall",
      "et"
    ],
    [
      " vo",
      "lcan"
    ],
    [
      " tr",
      "oph"
    ],
    [
      " un",
      "pack"
    ],
    [
      " fl",
      "our"
    ],
    [
      "omet",
      "er"
    ],
    [
      " she",
      "et"
    ],
    [
      " f",
      "ought"
    ],
    [
      "a",
      "ul"
    ],
    [
      "G",
      "ra"
    ],
    [
      " bicy",
      "cle"
    ],
    [
      "ian",
      "o"
    ],
    [
      " net",
      "work"
    ],
    [
      " past",
      "ry"
    ],
    [
      " buck",
      "le"
    ],
    [
      " fall",
      "ing"
    ],
    [
      "ac",
      "hes"
    ],
    [
      "ip",
      "e"
    ],
    [
      "rm",
      "ometer"
    ],
    [
      " pe",
      "anut"
    ],
    [
      " bl",
      "in"
    ],
    [
      " L",
      "ee"
    ],
    [
      "l",
      "ter"
    ],
    [
      " troph",
      "y"
    ],
    [
      " volcan",
      "o"
    ],
    [
      " truck",
      "s"
    ],
    [
      " call",
      "ing"
    ],
    [
      " v",
      "i"
    ],
    [
      " sun",
      "set"
    ],
    [
      " sh",
      "ampoo"
    ],
    [
      " r",
      "ake"
    ],
    [
      " c",
      "amp"
    ],
    [
      " b",
      "ent"
    ],
    [
      "a",
      "id"
    ],
    [
      "O",
      "uch"
    ],
    [
      " ostri",
      "ch"
    ],
    [
      " press",
      "ed"
    ],
    [
      " pract",
      "ice"
    ],
    [
      " att",
      "ach"
    ],
    [
      " bee",
      "f"
    ],
    [
      " dra",
      "in"
    ],
    [
      " P",
      "andy"
    ],
    [
      "ak",
      "y"
    ],
    [
      "as",
      "ing"
    ],
    [
      " ne",
      "at"
    ],
    [
      " we",
      "ep"
    ],
    [
      " st",
      "om"
    ],
    [
      " p",
      "iano"
    ],
    [
      " hour",
      "s"
    ],
    [
      " ham",
      "mer"
    ],
    [
      " teas",
      "p"
    ],
    [
      " teasp",
      "oon"
    ],
    [
      " hang",
      "ing"
    ],
    [
      " ap",
      "ron"
    ],
    [
      " pack",
      "age"
    ],
    [
      " hum",
      "an"
    ],
    [
      "ang",
      "u"
    ],
    [
      " train",
      "s"
    ],
    [
      " sweet",
      "ie"
    ],
    [
      " bu",
      "ry"
    ],
    [
      " po",
      "ke"
    ],
    [
      " me",
      "m"
    ],
    [
      "ur",
      "ed"
    ],
    [
      " she",
      "lter"
    ],
    [
      " st",
      "able"
    ],
    [
      "l",
      "ies"
    ],
    [
      " discover",
      "ed"
    ],
    [
      " cr",
      "ane"
    ],
    [
      "ang",
      "ar"
    ],
    [
      "angar",
      "oo"
    ],
    [
      " mar",
      "ched"
    ],
    [
      " pat",
      "ch"
    ],
    [
      "bo",
      "l"
    ],
    [
      " enjoy",
      "ing"
    ],
    [
      " mess",
      "age"
    ],
    [
      " squirrel",
      "s"
    ],
    [
      " tra",
      "ck"
    ],
    [
      " off",
      "ered"
    ],
    [
      " sn",
      "e"
    ],
    [
      " bl",
      "ouse"
    ],
    [
      " again",
      "st"
    ],
    [
      "um",
      "mer"
    ],
    [
      " k",
      "angaroo"
    ],
    [
      " r",
      "ag"
    ],
    [
      " in",
      "s"
    ],
    [
      " h",
      "ut"
    ],
    [
      " s",
      "ym"
    ],
    [
      " ",
      "ow"
    ],
    [
      " sym",
      "bol"
    ],
    [
      " magaz",
      "ine"
    ],
    [
      " prun",
      "es"
    ],
    [
      " pass",
      "port"
    ],
    [
      " ear",
      "ly"
    ],
    [
      "ctor",
      "y"
    ],
    [
      " dis",
      "pl"
    ],
    [
      " displ",
      "ay"
    ],
    [
      " sk",
      "irt"
    ],
    [
      " sk",
      "ull"
    ],
    [
      " fa",
      "ctory"
    ],
    [
      " u",
      "r"
    ],
    [
      "ig",
      "z"
    ],
    [
      "igz",
      "ag"
    ],
    [
      " l",
      "angu"
    ],
    [
      " l",
      "end"
    ],
    [
      " t",
      "u"
    ],
    [
      " tu",
      "be"
    ],
    [
      " pee",
      "ked"
    ],
    [
      " excite",
      "ment"
    ],
    [
      " fing",
      "ers"
    ],
    [
      " pre",
      "vent"
    ],
    [
      " hold",
      "s"
    ],
    [
      " sho",
      "vel"
    ],
    [
      " frog",
      "s"
    ],
    [
      " F",
      "ro"
    ],
    [
      " st",
      "airs"
    ],
    [
      "at",
      "ure"
    ],
    [
      " n",
      "ation"
    ],
    [
      " f",
      "uel"
    ],
    [
      " dess",
      "ert"
    ],
    [
      " enthusia",
      "st"
    ],
    [
      " enthusiast",
      "ic"
    ],
    [
      " accident",
      "ally"
    ],
    [
      " journ",
      "al"
    ],
    [
      " bat",
      "he"
    ],
    [
      " Z",
      "ip"
    ],
    [
      " cast",
      "les"
    ],
    [
      " per",
      "m"
    ],
    [
      " che",
      "ck"
    ],
    [
      " un",
      "iver"
    ],
    [
      " B",
      "essie"
    ],
    [
      " li",
      "p"
    ],
    [
      " L",
      "ook"
    ],
    [
      " on",
      "ce"
    ],
    [
      " r",
      "ot"
    ],
    [
      " c",
      "ell"
    ],
    [
      " s",
      "on"
    ],
    [
      " t",
      "en"
    ],
    [
      "L",
      "ittle"
    ],
    [
      " yog",
      "a"
    ],
    [
      " foot",
      "ball"
    ],
    [
      " free",
      "z"
    ],
    [
      " open",
      "s"
    ],
    [
      " cu",
      "be"
    ],
    [
      " po",
      "pped"
    ],
    [
      " D",
      "an"
    ],
    [
      " kn",
      "e"
    ],
    [
      " o",
      "y"
    ],
    [
      " j",
      "unk"
    ],
    [
      " happ",
      "ier"
    ],
    [
      "ke",
      "le"
    ],
    [
      "kele",
      "ton"
    ],
    [
      " the",
      "ater"
    ],
    [
      " Bu",
      "zzy"
    ],
    [
      " zoom",
      "ed"
    ],
    [
      " bath",
      "robe"
    ],
    [
      " grow",
      "ing"
    ],
    [
      " mat",
      "ches"
    ],
    [
      " read",
      "ing"
    ],
    [
      " tell",
      "ing"
    ],
    [
      "ff",
      "ic"
    ],
    [
      " loo",
      "p"
    ],
    [
      " all",
      "owed"
    ],
    [
      " sh",
      "aking"
    ],
    [
      " He",
      "re"
    ],
    [
      " he",
      "dge"
    ],
    [
      " p",
      "ipe"
    ],
    [
      " c",
      "ord"
    ],
    [
      " f",
      "ive"
    ],
    [
      " the",
      "rmometer"
    ],
    [
      " s",
      "keleton"
    ],
    [
      "i",
      "ence"
    ],
    [
      "i",
      "um"
    ],
    [
      "xy",
      "gen"
    ],
    [
      " dist",
      "ance"
    ],
    [
      " rest",
      "ore"
    ],
    [
      " dis",
      "ag"
    ],
    [
      "az",
      "or"
    ],
    [
      " sl",
      "ipp"
    ],
    [
      " fast",
      "est"
    ],
    [
      "in",
      "ation"
    ],
    [
      "c",
      "ome"
    ],
    [
      " ",
      "�"
    ],
    [
      "ict",
      "ion"
    ],
    [
      "iction",
      "ary"
    ],
    [
      " pin",
      "ch"
    ],
    [
      " listen",
      "ing"
    ],
    [
      " st",
      "umbled"
    ],
    [
      " ha",
      "nger"
    ],
    [
      "in",
      "es"
    ],
    [
      "n",
      "ey"
    ],
    [
      " vi",
      "ol"
    ],
    [
      " super",
      "her"
    ],
    [
      " superher",
      "o"
    ],
    [
      " ribb",
      "on"
    ],
    [
      " adm",
      "ire"
    ],
    [
      " fil",
      "m"
    ],
    [
      " stir",
      "red"
    ],
    [
      " plan",
      "et"
    ],
    [
      " pe",
      "ek"
    ],
    [
      " go",
      "al"
    ],
    [
      " d",
      "ictionary"
    ],
    [
      " a",
      "head"
    ],
    [
      "c",
      "ase"
    ],
    [
      " viol",
      "in"
    ],
    [
      " complet",
      "e"
    ],
    [
      " bri",
      "ck"
    ],
    [
      " tra",
      "sh"
    ],
    [
      " stick",
      "ers"
    ],
    [
      " surpr",
      "ises"
    ],
    [
      " ch",
      "ose"
    ],
    [
      " al",
      "ive"
    ],
    [
      " re",
      "verse"
    ],
    [
      " help",
      "er"
    ],
    [
      " M",
      "ummy"
    ],
    [
      " g",
      "az"
    ],
    [
      " T",
      "ina"
    ],
    [
      " to",
      "ile"
    ],
    [
      "f",
      "ast"
    ],
    [
      "S",
      "h"
    ],
    [
      "ast",
      "ic"
    ],
    [
      " stop",
      "s"
    ],
    [
      " str",
      "ugg"
    ],
    [
      " jump",
      "s"
    ],
    [
      " po",
      "ppy"
    ],
    [
      " ch",
      "asing"
    ],
    [
      "ar",
      "ian"
    ],
    [
      " p",
      "ony"
    ],
    [
      " s",
      "ub"
    ],
    [
      " freez",
      "er"
    ],
    [
      " blin",
      "ked"
    ],
    [
      " miner",
      "al"
    ],
    [
      " acce",
      "pt"
    ],
    [
      "und",
      "ry"
    ],
    [
      " respect",
      "ful"
    ],
    [
      " cir",
      "cles"
    ],
    [
      " ra",
      "il"
    ],
    [
      " break",
      "fast"
    ],
    [
      " does",
      "n"
    ],
    [
      "pl",
      "ace"
    ],
    [
      " E",
      "llie"
    ],
    [
      "ap",
      "on"
    ],
    [
      "ie",
      "st"
    ],
    [
      " la",
      "undry"
    ],
    [
      " c",
      "udd"
    ],
    [
      " b",
      "ill"
    ],
    [
      "c",
      "u"
    ],
    [
      "J",
      "ill"
    ],
    [
      " toile",
      "t"
    ],
    [
      " exerc",
      "ise"
    ],
    [
      "iv",
      "al"
    ],
    [
      " stri",
      "p"
    ],
    [
      " hur",
      "ricane"
    ],
    [
      " ve",
      "st"
    ],
    [
      " ho",
      "l"
    ],
    [
      " fe",
      "st"
    ],
    [
      " fest",
      "ival"
    ],
    [
      " sw",
      "itch"
    ],
    [
      " la",
      "ser"
    ],
    [
      " le",
      "aving"
    ],
    [
      " re",
      "fused"
    ],
    [
      "ch",
      "an"
    ],
    [
      " be",
      "et"
    ],
    [
      " play",
      "er"
    ],
    [
      " g",
      "rill"
    ],
    [
      "id",
      "ay"
    ],
    [
      "re",
      "nder"
    ],
    [
      " to",
      "oth"
    ],
    [
      " s",
      "ummer"
    ],
    [
      " hol",
      "iday"
    ],
    [
      " langu",
      "age"
    ],
    [
      " waff",
      "le"
    ],
    [
      " cabin",
      "et"
    ],
    [
      " fire",
      "place"
    ],
    [
      " lion",
      "s"
    ],
    [
      " Mr",
      "s"
    ],
    [
      " door",
      "s"
    ],
    [
      " le",
      "ak"
    ],
    [
      "ad",
      "ium"
    ],
    [
      " st",
      "adium"
    ],
    [
      " ple",
      "ased"
    ],
    [
      " sniff",
      "ed"
    ],
    [
      " snee",
      "ze"
    ],
    [
      " search",
      "ing"
    ],
    [
      " spo",
      "ke"
    ],
    [
      " min",
      "t"
    ],
    [
      " Z",
      "oom"
    ],
    [
      " monkey",
      "s"
    ],
    [
      " air",
      "port"
    ],
    [
      " ru",
      "les"
    ],
    [
      " tw",
      "ir"
    ],
    [
      " E",
      "lly"
    ],
    [
      " me",
      "owed"
    ],
    [
      "ht",
      "ray"
    ],
    [
      " m",
      "en"
    ],
    [
      " b",
      "erry"
    ],
    [
      "D",
      "id"
    ],
    [
      " Bet",
      "ty"
    ],
    [
      " law",
      "n"
    ],
    [
      " sandw",
      "ic"
    ],
    [
      " sandwic",
      "hes"
    ],
    [
      " lem",
      "ons"
    ],
    [
      " tight",
      "ly"
    ],
    [
      " forg",
      "ave"
    ],
    [
      " fav",
      "our"
    ],
    [
      " tra",
      "ffic"
    ],
    [
      " com",
      "fort"
    ],
    [
      " sl",
      "ap"
    ],
    [
      " ro",
      "ared"
    ],
    [
      " o",
      "ats"
    ],
    [
      " r",
      "azor"
    ],
    [
      " t",
      "ip"
    ],
    [
      "w",
      "ards"
    ],
    [
      "m",
      "ed"
    ],
    [
      "O",
      "w"
    ],
    [
      "E",
      "m"
    ],
    [
      " favour",
      "ite"
    ],
    [
      "chan",
      "ic"
    ],
    [
      " stom",
      "ach"
    ],
    [
      " separ",
      "ate"
    ],
    [
      " boot",
      "s"
    ],
    [
      " meet",
      "ing"
    ],
    [
      " ob",
      "ser"
    ],
    [
      " window",
      "s"
    ],
    [
      " O",
      "r"
    ],
    [
      " stick",
      "er"
    ],
    [
      " pa",
      "ir"
    ],
    [
      " sl",
      "ip"
    ],
    [
      " any",
      "way"
    ],
    [
      " ch",
      "im"
    ],
    [
      " chim",
      "ney"
    ],
    [
      " find",
      "s"
    ],
    [
      " ag",
      "ree"
    ],
    [
      " car",
      "ing"
    ],
    [
      " me",
      "chanic"
    ],
    [
      " as",
      "htray"
    ],
    [
      " M",
      "ar"
    ],
    [
      " pl",
      "astic"
    ],
    [
      "ig",
      "gly"
    ],
    [
      " n",
      "ature"
    ],
    [
      " c",
      "ur"
    ],
    [
      "in",
      "ce"
    ],
    [
      " s",
      "ent"
    ],
    [
      "k",
      "i"
    ],
    [
      " beet",
      "le"
    ],
    [
      " tomato",
      "es"
    ],
    [
      " bark",
      "ing"
    ],
    [
      " grab",
      "s"
    ],
    [
      " res",
      "ist"
    ],
    [
      " cow",
      "s"
    ],
    [
      " mix",
      "er"
    ],
    [
      " light",
      "ning"
    ],
    [
      " bre",
      "at"
    ],
    [
      "em",
      "ent"
    ],
    [
      " blue",
      "berry"
    ],
    [
      " en",
      "er"
    ],
    [
      " un",
      "ite"
    ],
    [
      " J",
      "azz"
    ],
    [
      "re",
      "s"
    ],
    [
      " sub",
      "way"
    ],
    [
      " imag",
      "ine"
    ],
    [
      " class",
      "room"
    ],
    [
      " belong",
      "s"
    ],
    [
      " min",
      "ute"
    ],
    [
      " ve",
      "h"
    ],
    [
      " veh",
      "ic"
    ],
    [
      " letter",
      "s"
    ],
    [
      " poin",
      "t"
    ],
    [
      " ho",
      "les"
    ],
    [
      " po",
      "ked"
    ],
    [
      " sp",
      "ort"
    ],
    [
      " gir",
      "affe"
    ],
    [
      " A",
      "re"
    ],
    [
      " c",
      "ards"
    ],
    [
      "y",
      "ear"
    ],
    [
      " ",
      "Y"
    ],
    [
      " bill",
      "board"
    ],
    [
      " oy",
      "ster"
    ],
    [
      " Pipp",
      "in"
    ],
    [
      " Boun",
      "ce"
    ],
    [
      " mistake",
      "s"
    ],
    [
      " inv",
      "ite"
    ],
    [
      " note",
      "b"
    ],
    [
      " noteb",
      "ook"
    ],
    [
      " rem",
      "ove"
    ],
    [
      " fl",
      "ood"
    ],
    [
      " laug",
      "ht"
    ],
    [
      " laught",
      "er"
    ],
    [
      " k",
      "ay"
    ],
    [
      " kay",
      "ak"
    ],
    [
      " B",
      "ig"
    ],
    [
      "am",
      "ber"
    ],
    [
      " S",
      "ophie"
    ],
    [
      "n",
      "ight"
    ],
    [
      "l",
      "a"
    ],
    [
      " impro",
      "ve"
    ],
    [
      " lean",
      "ed"
    ],
    [
      " Al",
      "ice"
    ],
    [
      " cart",
      "oon"
    ],
    [
      " music",
      "ian"
    ],
    [
      " pudd",
      "les"
    ],
    [
      " count",
      "ry"
    ],
    [
      " rem",
      "ain"
    ],
    [
      " hand",
      "ed"
    ],
    [
      "ap",
      "a"
    ],
    [
      " o",
      "xygen"
    ],
    [
      " nam",
      "es"
    ],
    [
      " r",
      "ac"
    ],
    [
      " y",
      "ield"
    ],
    [
      "t",
      "e"
    ],
    [
      "Jim",
      "my"
    ],
    [
      " glow",
      "ing"
    ],
    [
      " cou",
      "rage"
    ],
    [
      " problem",
      "s"
    ],
    [
      " spo",
      "il"
    ],
    [
      " war",
      "ned"
    ],
    [
      " war",
      "n"
    ],
    [
      " swam",
      "p"
    ],
    [
      " sand",
      "c"
    ],
    [
      " sandc",
      "ast"
    ],
    [
      " book",
      "case"
    ],
    [
      " proud",
      "ly"
    ],
    [
      " ch",
      "amber"
    ],
    [
      " wh",
      "ip"
    ],
    [
      "ch",
      "air"
    ],
    [
      " S",
      "andy"
    ],
    [
      " s",
      "ize"
    ],
    [
      " s",
      "udden"
    ],
    [
      " straw",
      "berries"
    ],
    [
      " wip",
      "e"
    ],
    [
      " law",
      "y"
    ],
    [
      "eter",
      "in"
    ],
    [
      "eterin",
      "arian"
    ],
    [
      "ol",
      "a"
    ],
    [
      " danc",
      "er"
    ],
    [
      " pull",
      "s"
    ],
    [
      " R",
      "u"
    ],
    [
      " pus",
      "hes"
    ],
    [
      " ab",
      "ove"
    ],
    [
      " sad",
      "ly"
    ],
    [
      " be",
      "ep"
    ],
    [
      "ig",
      "i"
    ],
    [
      "le",
      "nd"
    ],
    [
      " w",
      "ine"
    ],
    [
      "v",
      "ice"
    ],
    [
      "e",
      "b"
    ],
    [
      " slipp",
      "ery"
    ],
    [
      " resc",
      "ue"
    ],
    [
      " frown",
      "ed"
    ],
    [
      " sur",
      "render"
    ],
    [
      " pan",
      "ic"
    ],
    [
      " ce",
      "iling"
    ],
    [
      "Jo",
      "e"
    ],
    [
      " butterf",
      "lies"
    ],
    [
      " sand",
      "box"
    ],
    [
      " app",
      "l"
    ],
    [
      " tr",
      "ade"
    ],
    [
      " co",
      "pper"
    ],
    [
      " cl",
      "iff"
    ],
    [
      " so",
      "il"
    ],
    [
      " n",
      "avy"
    ],
    [
      "is",
      "on"
    ],
    [
      " p",
      "ages"
    ],
    [
      " f",
      "re"
    ],
    [
      " kne",
      "el"
    ],
    [
      "col",
      "i"
    ],
    [
      " carry",
      "ing"
    ],
    [
      " inc",
      "re"
    ],
    [
      " arm",
      "chair"
    ],
    [
      " ar",
      "t"
    ],
    [
      " plan",
      "es"
    ],
    [
      " O",
      "w"
    ],
    [
      "em",
      "ember"
    ],
    [
      " P",
      "olly"
    ],
    [
      " kind",
      "s"
    ],
    [
      " te",
      "ase"
    ],
    [
      "ro",
      "d"
    ],
    [
      " feel",
      "ings"
    ],
    [
      " v",
      "eterinarian"
    ],
    [
      "us",
      "ie"
    ],
    [
      " re",
      "ce"
    ],
    [
      " for",
      "t"
    ],
    [
      " p",
      "age"
    ],
    [
      "c",
      "coli"
    ],
    [
      " ",
      "x"
    ],
    [
      "eb",
      "ra"
    ],
    [
      " ener",
      "gy"
    ],
    [
      " prov",
      "ide"
    ],
    [
      " repe",
      "at"
    ],
    [
      " ign",
      "ore"
    ],
    [
      " belie",
      "ved"
    ],
    [
      " del",
      "ay"
    ],
    [
      " bright",
      "ly"
    ],
    [
      "au",
      "d"
    ],
    [
      " int",
      "rod"
    ],
    [
      "ec",
      "ause"
    ],
    [
      " we",
      "apon"
    ],
    [
      " st",
      "air"
    ],
    [
      "g",
      "ie"
    ],
    [
      " ",
      "ext"
    ],
    [
      "lend",
      "ar"
    ],
    [
      " tool",
      "s"
    ],
    [
      " reg",
      "ret"
    ],
    [
      " pray",
      "ed"
    ],
    [
      " shake",
      "s"
    ],
    [
      "sc",
      "ope"
    ],
    [
      " mail",
      "man"
    ],
    [
      " ca",
      "lendar"
    ],
    [
      " P",
      "aul"
    ],
    [
      "and",
      "a"
    ],
    [
      " C",
      "o"
    ],
    [
      "ro",
      "scope"
    ],
    [
      " some",
      "where"
    ],
    [
      " he",
      "at"
    ],
    [
      " was",
      "te"
    ],
    [
      " p",
      "ed"
    ],
    [
      " l",
      "id"
    ],
    [
      "ed",
      "n"
    ],
    [
      "edn",
      "esday"
    ],
    [
      "l",
      "u"
    ],
    [
      "c",
      "er"
    ],
    [
      " sandcast",
      "le"
    ],
    [
      " remind",
      "ed"
    ],
    [
      " ap",
      "ol"
    ],
    [
      " apol",
      "og"
    ],
    [
      " Go",
      "d"
    ],
    [
      " z",
      "ebra"
    ],
    [
      " sound",
      "ed"
    ],
    [
      " keep",
      "ing"
    ],
    [
      " ad",
      "vice"
    ],
    [
      " old",
      "er"
    ],
    [
      " no",
      "body"
    ],
    [
      " W",
      "here"
    ],
    [
      " me",
      "as"
    ],
    [
      " li",
      "ves"
    ],
    [
      " sa",
      "ving"
    ],
    [
      "im",
      "ed"
    ],
    [
      " a",
      "w"
    ],
    [
      "l",
      "ow"
    ],
    [
      " lawy",
      "er"
    ],
    [
      " vehic",
      "le"
    ],
    [
      " myster",
      "y"
    ],
    [
      " pri",
      "ce"
    ],
    [
      " cho",
      "ice"
    ],
    [
      " inv",
      "it"
    ],
    [
      " free",
      "ze"
    ],
    [
      " ra",
      "ise"
    ],
    [
      " any",
      "where"
    ],
    [
      " fl",
      "ies"
    ],
    [
      "You",
      "r"
    ],
    [
      " can",
      "e"
    ],
    [
      "el",
      "come"
    ],
    [
      "o",
      "e"
    ],
    [
      " suggest",
      "ed"
    ],
    [
      " colour",
      "ful"
    ],
    [
      " imag",
      "ined"
    ],
    [
      " cross",
      "ed"
    ],
    [
      " inc",
      "lu"
    ],
    [
      " Gra",
      "ndpa"
    ],
    [
      " happen",
      "s"
    ],
    [
      " break",
      "s"
    ],
    [
      "ation",
      "s"
    ],
    [
      " chair",
      "s"
    ],
    [
      " shout",
      "s"
    ],
    [
      " de",
      "ar"
    ],
    [
      " soft",
      "ly"
    ],
    [
      " let",
      "ting"
    ],
    [
      " room",
      "s"
    ],
    [
      " star",
      "ts"
    ],
    [
      " sh",
      "one"
    ],
    [
      " r",
      "ushed"
    ],
    [
      " S",
      "u"
    ],
    [
      "he",
      "st"
    ],
    [
      " t",
      "ax"
    ],
    [
      "e",
      "er"
    ],
    [
      " tax",
      "i"
    ],
    [
      " appl",
      "aud"
    ],
    [
      " squee",
      "ze"
    ],
    [
      " chick",
      "ens"
    ],
    [
      "aur",
      "ant"
    ],
    [
      " N",
      "ext"
    ],
    [
      " rec",
      "og"
    ],
    [
      " recog",
      "n"
    ],
    [
      " repl",
      "ace"
    ],
    [
      " smell",
      "s"
    ],
    [
      " rest",
      "aurant"
    ],
    [
      " G",
      "igi"
    ],
    [
      " P",
      "apa"
    ],
    [
      " excited",
      "ly"
    ],
    [
      " eat",
      "en"
    ],
    [
      "ag",
      "gie"
    ],
    [
      " W",
      "iggly"
    ],
    [
      "ore",
      "s"
    ],
    [
      "all",
      "ey"
    ],
    [
      "le",
      "x"
    ],
    [
      " p",
      "itch"
    ],
    [
      " blow",
      "ing"
    ],
    [
      "app",
      "ing"
    ],
    [
      " cont",
      "ent"
    ],
    [
      " ste",
      "am"
    ],
    [
      " rain",
      "ed"
    ],
    [
      " bro",
      "ccoli"
    ],
    [
      " C",
      "arl"
    ],
    [
      " v",
      "alley"
    ],
    [
      " ran",
      "ch"
    ],
    [
      " tre",
      "m"
    ],
    [
      " re",
      "ind"
    ],
    [
      " reind",
      "eer"
    ],
    [
      " o",
      "live"
    ],
    [
      "or",
      "ge"
    ],
    [
      " g",
      "ain"
    ],
    [
      " f",
      "ile"
    ],
    [
      " t",
      "ub"
    ],
    [
      "e",
      "orge"
    ],
    [
      "N",
      "ext"
    ],
    [
      "M",
      "ary"
    ],
    [
      "M",
      "ark"
    ],
    [
      " ext",
      "ra"
    ],
    [
      " mic",
      "roscope"
    ],
    [
      "arl",
      "ie"
    ],
    [
      " St",
      "e"
    ],
    [
      " dis",
      "hes"
    ],
    [
      " end",
      "ed"
    ],
    [
      " W",
      "ednesday"
    ],
    [
      " W",
      "ould"
    ],
    [
      " e",
      "qu"
    ],
    [
      " ",
      "V"
    ],
    [
      " fre",
      "sh"
    ],
    [
      " prep",
      "are"
    ],
    [
      " torn",
      "ado"
    ],
    [
      " delight",
      "ed"
    ],
    [
      " snee",
      "zed"
    ],
    [
      " bark",
      "s"
    ],
    [
      " chew",
      "ed"
    ],
    [
      " boun",
      "cing"
    ],
    [
      " hun",
      "g"
    ],
    [
      " ma",
      "ss"
    ],
    [
      " blue",
      "berries"
    ],
    [
      " sp",
      "ade"
    ],
    [
      "ec",
      "ted"
    ],
    [
      " re",
      "ve"
    ],
    [
      " e",
      "vent"
    ],
    [
      "ut",
      "or"
    ],
    [
      "er",
      "o"
    ],
    [
      " d",
      "are"
    ],
    [
      "n",
      "a"
    ],
    [
      "Y",
      "uck"
    ],
    [
      "Y",
      "ay"
    ],
    [
      " arg",
      "ue"
    ],
    [
      " rid",
      "ing"
    ],
    [
      " sett",
      "le"
    ],
    [
      " sco",
      "ld"
    ],
    [
      "gg",
      "y"
    ],
    [
      " hop",
      "ing"
    ],
    [
      " head",
      "s"
    ],
    [
      " po",
      "ison"
    ],
    [
      " ch",
      "ance"
    ],
    [
      " my",
      "self"
    ],
    [
      " F",
      "l"
    ],
    [
      " g",
      "ro"
    ],
    [
      " t",
      "utor"
    ],
    [
      "v",
      "et"
    ],
    [
      "t",
      "ain"
    ],
    [
      "W",
      "ill"
    ],
    [
      "D",
      "aisy"
    ],
    [
      "Re",
      "ady"
    ],
    [
      " Fred",
      "dy"
    ],
    [
      " shr",
      "ugged"
    ],
    [
      " qu",
      "iz"
    ],
    [
      " v",
      "ac"
    ],
    [
      " op",
      "era"
    ],
    [
      "ill",
      "ie"
    ],
    [
      " B",
      "inky"
    ],
    [
      " vac",
      "ation"
    ],
    [
      " equ",
      "ip"
    ],
    [
      " equip",
      "ment"
    ],
    [
      "cu",
      "ss"
    ],
    [
      " shiver",
      "ing"
    ],
    [
      " burn",
      "ed"
    ],
    [
      " gigg",
      "le"
    ],
    [
      " ent",
      "er"
    ],
    [
      " Sp",
      "ark"
    ],
    [
      " ba",
      "king"
    ],
    [
      " miss",
      "ing"
    ],
    [
      " prin",
      "ts"
    ],
    [
      " dis",
      "cuss"
    ],
    [
      " flo",
      "at"
    ],
    [
      " even",
      "ing"
    ],
    [
      " sk",
      "ill"
    ],
    [
      " E",
      "nd"
    ],
    [
      " ch",
      "ores"
    ],
    [
      "as",
      "is"
    ],
    [
      " se",
      "as"
    ],
    [
      " we",
      "ather"
    ],
    [
      " b",
      "end"
    ],
    [
      " s",
      "uff"
    ],
    [
      "Q",
      "u"
    ],
    [
      " reve",
      "al"
    ],
    [
      " prun",
      "e"
    ],
    [
      " thank",
      "s"
    ],
    [
      "ac",
      "ked"
    ],
    [
      " fix",
      "ing"
    ],
    [
      " pus",
      "hing"
    ],
    [
      " after",
      "n"
    ],
    [
      " aftern",
      "oon"
    ],
    [
      " str",
      "uc"
    ],
    [
      " struc",
      "ture"
    ],
    [
      " o",
      "asis"
    ],
    [
      " st",
      "y"
    ],
    [
      " m",
      "ention"
    ],
    [
      " bump",
      "ed"
    ],
    [
      " yaw",
      "ned"
    ],
    [
      " U",
      "nder"
    ],
    [
      " trust",
      "ed"
    ],
    [
      " puzz",
      "les"
    ],
    [
      " throw",
      "ing"
    ],
    [
      " throw",
      "s"
    ],
    [
      " spot",
      "s"
    ],
    [
      " perf",
      "ume"
    ],
    [
      " hill",
      "s"
    ],
    [
      " wr",
      "iting"
    ],
    [
      " gra",
      "nd"
    ],
    [
      " so",
      "cks"
    ],
    [
      " L",
      "illy"
    ],
    [
      " pl",
      "aced"
    ],
    [
      " d",
      "em"
    ],
    [
      "in",
      "king"
    ],
    [
      "he",
      "art"
    ],
    [
      "k",
      "y"
    ],
    [
      " ins",
      "isted"
    ],
    [
      " bean",
      "s"
    ],
    [
      " cap",
      "tain"
    ],
    [
      " coat",
      "s"
    ],
    [
      "ott",
      "en"
    ],
    [
      " bel",
      "ow"
    ],
    [
      " tra",
      "cks"
    ],
    [
      " par",
      "ts"
    ],
    [
      " M",
      "ike"
    ],
    [
      "an",
      "a"
    ],
    [
      " m",
      "all"
    ],
    [
      " l",
      "uck"
    ],
    [
      "s",
      "ity"
    ],
    [
      "A",
      "nn"
    ],
    [
      " past",
      "el"
    ],
    [
      "que",
      "aky"
    ],
    [
      " prin",
      "ted"
    ],
    [
      " cla",
      "w"
    ],
    [
      " sweet",
      "heart"
    ],
    [
      " bright",
      "er"
    ],
    [
      " follow",
      "ing"
    ],
    [
      " stick",
      "y"
    ],
    [
      " should",
      "er"
    ],
    [
      " show",
      "er"
    ],
    [
      " un",
      "h"
    ],
    [
      " car",
      "ed"
    ],
    [
      " se",
      "w"
    ],
    [
      " M",
      "e"
    ],
    [
      " s",
      "igh"
    ],
    [
      "e",
      "f"
    ],
    [
      "C",
      "h"
    ],
    [
      "B",
      "uddy"
    ],
    [
      "\"",
      ","
    ],
    [
      " unh",
      "appy"
    ],
    [
      " pun",
      "ish"
    ],
    [
      " U",
      "n"
    ],
    [
      " impress",
      "ed"
    ],
    [
      " rec",
      "om"
    ],
    [
      " recom",
      "m"
    ],
    [
      " recomm",
      "end"
    ],
    [
      " teach",
      "ing"
    ],
    [
      "pe",
      "edy"
    ],
    [
      " Wh",
      "o"
    ],
    [
      " gre",
      "edy"
    ],
    [
      " ex",
      "pect"
    ],
    [
      " B",
      "ow"
    ],
    [
      " p",
      "anda"
    ],
    [
      "v",
      "a"
    ],
    [
      "N",
      "ot"
    ],
    [
      "A",
      "ll"
    ],
    [
      " cand",
      "les"
    ],
    [
      "ugg",
      "age"
    ],
    [
      " exp",
      "er"
    ],
    [
      " deep",
      "er"
    ],
    [
      " R",
      "o"
    ],
    [
      " un",
      "if"
    ],
    [
      " unif",
      "orm"
    ],
    [
      " be",
      "g"
    ],
    [
      " H",
      "oppy"
    ],
    [
      " H",
      "ave"
    ],
    [
      "l",
      "ook"
    ],
    [
      "Dad",
      "dy"
    ],
    [
      " spray",
      "ed"
    ],
    [
      " splas",
      "hing"
    ],
    [
      "Be",
      "fore"
    ],
    [
      " spark",
      "led"
    ],
    [
      " eas",
      "ily"
    ],
    [
      " cla",
      "pping"
    ],
    [
      " P",
      "enny"
    ],
    [
      " cu",
      "b"
    ],
    [
      " C",
      "he"
    ],
    [
      " E",
      "ventually"
    ],
    [
      " sc",
      "ore"
    ],
    [
      " we",
      "ight"
    ],
    [
      " y",
      "ucky"
    ],
    [
      "en",
      "ry"
    ],
    [
      " he",
      "n"
    ],
    [
      " l",
      "uggage"
    ],
    [
      " to",
      "ur"
    ],
    [
      "o",
      "of"
    ],
    [
      "n",
      "ce"
    ],
    [
      "l",
      "p"
    ],
    [
      "J",
      "enny"
    ],
    [
      "look",
      "ing"
    ],
    [
      " rac",
      "ing"
    ],
    [
      " destroy",
      "ed"
    ],
    [
      " whisp",
      "er"
    ],
    [
      " ignor",
      "ed"
    ],
    [
      " lemon",
      "ade"
    ],
    [
      "itten",
      "s"
    ],
    [
      " ste",
      "el"
    ],
    [
      " follow",
      "s"
    ],
    [
      " che",
      "cked"
    ],
    [
      " le",
      "ar"
    ],
    [
      " lear",
      "nt"
    ],
    [
      " He",
      "lp"
    ],
    [
      " s",
      "ir"
    ],
    [
      "S",
      "urpr"
    ],
    [
      " trem",
      "ble"
    ],
    [
      " perm",
      "it"
    ],
    [
      " scatter",
      "ed"
    ],
    [
      " sell",
      "ing"
    ],
    [
      " van",
      "ished"
    ],
    [
      " worm",
      "s"
    ],
    [
      " chee",
      "k"
    ],
    [
      "ang",
      "es"
    ],
    [
      " O",
      "live"
    ],
    [
      "co",
      "nd"
    ],
    [
      " When",
      "ever"
    ],
    [
      " bu",
      "ried"
    ],
    [
      "urn",
      "it"
    ],
    [
      "urnit",
      "ure"
    ],
    [
      " ch",
      "irp"
    ],
    [
      "uc",
      "ked"
    ],
    [
      " sp",
      "r"
    ],
    [
      " fr",
      "o"
    ],
    [
      "ec",
      "ting"
    ],
    [
      " se",
      "cond"
    ],
    [
      " up",
      "stairs"
    ],
    [
      "ri",
      "age"
    ],
    [
      " S",
      "usie"
    ],
    [
      "ar",
      "i"
    ],
    [
      " f",
      "urniture"
    ],
    [
      " w",
      "igg"
    ],
    [
      "h",
      "ood"
    ],
    [
      "M",
      "imi"
    ],
    [
      " dem",
      "and"
    ],
    [
      " Snow",
      "y"
    ],
    [
      "we",
      "en"
    ],
    [
      " ent",
      "ered"
    ],
    [
      " jog",
      "ged"
    ],
    [
      " stre",
      "ng"
    ],
    [
      " whist",
      "led"
    ],
    [
      "ree",
      "k"
    ],
    [
      " bad",
      "ly"
    ],
    [
      " bet",
      "ween"
    ],
    [
      " sor",
      "ting"
    ],
    [
      " v",
      "room"
    ],
    [
      "uc",
      "t"
    ],
    [
      " re",
      "ef"
    ],
    [
      " j",
      "ail"
    ],
    [
      "ent",
      "s"
    ],
    [
      " I",
      "s"
    ],
    [
      " c",
      "reek"
    ],
    [
      "i",
      "ki"
    ],
    [
      "W",
      "elcome"
    ],
    [
      " claw",
      "s"
    ],
    [
      " sty",
      "le"
    ],
    [
      " mass",
      "age"
    ],
    [
      "la",
      "imed"
    ],
    [
      " Fro",
      "ggy"
    ],
    [
      " supp",
      "ly"
    ],
    [
      " bri",
      "cks"
    ],
    [
      " poin",
      "ts"
    ],
    [
      " mar",
      "ble"
    ],
    [
      " count",
      "er"
    ],
    [
      "red",
      "ient"
    ],
    [
      " hop",
      "es"
    ],
    [
      " qu",
      "ite"
    ],
    [
      " pa",
      "id"
    ],
    [
      " exc",
      "laimed"
    ],
    [
      "ec",
      "ture"
    ],
    [
      " r",
      "ush"
    ],
    [
      " th",
      "umb"
    ],
    [
      "ing",
      "redient"
    ],
    [
      "id",
      "es"
    ],
    [
      " l",
      "ecture"
    ],
    [
      " w",
      "re"
    ],
    [
      " ",
      "ingredient"
    ],
    [
      " streng",
      "th"
    ],
    [
      "Surpr",
      "ise"
    ],
    [
      " breat",
      "he"
    ],
    [
      " scr",
      "atch"
    ],
    [
      " neighb",
      "our"
    ],
    [
      " seat",
      "s"
    ],
    [
      " pet",
      "als"
    ],
    [
      " cut",
      "ting"
    ],
    [
      "iz",
      "es"
    ],
    [
      " P",
      "r"
    ],
    [
      " hurt",
      "ing"
    ],
    [
      " climb",
      "s"
    ],
    [
      " gr",
      "ant"
    ],
    [
      " r",
      "ow"
    ],
    [
      " S",
      "queaky"
    ],
    [
      " p",
      "ort"
    ],
    [
      " b",
      "other"
    ],
    [
      " invit",
      "ation"
    ],
    [
      " men",
      "u"
    ],
    [
      " �",
      "�"
    ],
    [
      "Al",
      "ice"
    ],
    [
      " shop",
      "keeper"
    ],
    [
      " mar",
      "riage"
    ],
    [
      " rain",
      "ing"
    ],
    [
      " bear",
      "s"
    ],
    [
      " cake",
      "s"
    ],
    [
      " put",
      "ting"
    ],
    [
      " all",
      "ow"
    ],
    [
      "The",
      "se"
    ],
    [
      " M",
      "ittens"
    ],
    [
      " S",
      "peedy"
    ],
    [
      " S",
      "m"
    ],
    [
      " t",
      "ug"
    ],
    [
      "g",
      "es"
    ],
    [
      " ingredient",
      "s"
    ],
    [
      "res",
      "ses"
    ],
    [
      " adm",
      "ired"
    ],
    [
      " explor",
      "ed"
    ],
    [
      " Gra",
      "ce"
    ],
    [
      " pig",
      "s"
    ],
    [
      " wag",
      "s"
    ],
    [
      " prin",
      "ter"
    ],
    [
      " forg",
      "otten"
    ],
    [
      " work",
      "s"
    ],
    [
      " sn",
      "ail"
    ],
    [
      "urt",
      "her"
    ],
    [
      " ag",
      "re"
    ],
    [
      " star",
      "ting"
    ],
    [
      " A",
      "lex"
    ],
    [
      " L",
      "ola"
    ],
    [
      " he",
      "el"
    ],
    [
      " wa",
      "ving"
    ],
    [
      " wre",
      "ck"
    ],
    [
      " introd",
      "uce"
    ],
    [
      " obser",
      "ve"
    ],
    [
      "Gra",
      "ndma"
    ],
    [
      " drop",
      "s"
    ],
    [
      " eager",
      "ly"
    ],
    [
      " bal",
      "an"
    ],
    [
      " ap",
      "art"
    ],
    [
      " jog",
      "ging"
    ],
    [
      " sail",
      "ing"
    ],
    [
      " shin",
      "ed"
    ],
    [
      " fall",
      "en"
    ],
    [
      " Fin",
      "n"
    ],
    [
      " differe",
      "nce"
    ],
    [
      "eci",
      "ally"
    ],
    [
      " sc",
      "oop"
    ],
    [
      " so",
      "c"
    ],
    [
      " pl",
      "ates"
    ],
    [
      " was",
      "hing"
    ],
    [
      " d",
      "aisy"
    ],
    [
      " f",
      "urther"
    ],
    [
      " h",
      "on"
    ],
    [
      "r",
      "ight"
    ],
    [
      "B",
      "ecause"
    ],
    [
      " soc",
      "cer"
    ],
    [
      " Sh",
      "aring"
    ],
    [
      " stri",
      "ke"
    ],
    [
      "sp",
      "ecially"
    ],
    [
      " ac",
      "ted"
    ],
    [
      " flo",
      "ated"
    ],
    [
      "th",
      "ank"
    ],
    [
      " bl",
      "ood"
    ],
    [
      " M",
      "aggie"
    ],
    [
      "at",
      "ched"
    ],
    [
      " p",
      "up"
    ],
    [
      " d",
      "uring"
    ],
    [
      " t",
      "una"
    ],
    [
      " incre",
      "ase"
    ],
    [
      " stud",
      "ied"
    ],
    [
      " yaw",
      "n"
    ],
    [
      " wander",
      "ed"
    ],
    [
      " fold",
      "ed"
    ],
    [
      " N",
      "ana"
    ],
    [
      " hor",
      "ses"
    ],
    [
      " war",
      "ning"
    ],
    [
      " plan",
      "ted"
    ],
    [
      " move",
      "s"
    ],
    [
      " R",
      "emember"
    ],
    [
      " beaut",
      "y"
    ],
    [
      " bu",
      "zz"
    ],
    [
      " hig",
      "hest"
    ],
    [
      " fl",
      "apped"
    ],
    [
      " wor",
      "th"
    ],
    [
      "ic",
      "er"
    ],
    [
      " e",
      "specially"
    ],
    [
      " r",
      "ul"
    ],
    [
      " play",
      "s"
    ],
    [
      "er",
      "ation"
    ],
    [
      "re",
      "at"
    ],
    [
      " T",
      "illy"
    ],
    [
      " to",
      "ng"
    ],
    [
      " Ow",
      "l"
    ],
    [
      " ur",
      "ge"
    ],
    [
      " exam",
      "ine"
    ],
    [
      " present",
      "s"
    ],
    [
      " gi",
      "ven"
    ],
    [
      " king",
      "dom"
    ],
    [
      "que",
      "st"
    ],
    [
      " shout",
      "ing"
    ],
    [
      " con",
      "f"
    ],
    [
      "ree",
      "ze"
    ],
    [
      " K",
      "iki"
    ],
    [
      " fam",
      "il"
    ],
    [
      " Every",
      "thing"
    ],
    [
      " water",
      "ed"
    ],
    [
      "qu",
      "ake"
    ],
    [
      " re",
      "aches"
    ],
    [
      " o",
      "h"
    ],
    [
      " L",
      "izzy"
    ],
    [
      " T",
      "u"
    ],
    [
      " Tu",
      "esday"
    ],
    [
      "B",
      "ella"
    ],
    [
      "B",
      "l"
    ],
    [
      ".",
      "."
    ],
    [
      " scold",
      "ed"
    ],
    [
      " Co",
      "co"
    ],
    [
      "med",
      "i"
    ],
    [
      "medi",
      "ately"
    ],
    [
      " univer",
      "sity"
    ],
    [
      " earth",
      "quake"
    ],
    [
      " har",
      "b"
    ],
    [
      " harb",
      "or"
    ],
    [
      " sol",
      "ved"
    ],
    [
      " elephant",
      "s"
    ],
    [
      " Ch",
      "arlie"
    ],
    [
      " gift",
      "s"
    ],
    [
      " quiet",
      "ly"
    ],
    [
      " land",
      "s"
    ],
    [
      " dress",
      "ed"
    ],
    [
      " tw",
      "isted"
    ],
    [
      " sn",
      "apped"
    ],
    [
      " sor",
      "ts"
    ],
    [
      " sl",
      "apped"
    ],
    [
      " br",
      "ings"
    ],
    [
      "ra",
      "ged"
    ],
    [
      " so",
      "ak"
    ],
    [
      "un",
      "ately"
    ],
    [
      " S",
      "ee"
    ],
    [
      " b",
      "ak"
    ],
    [
      "m",
      "en"
    ],
    [
      "F",
      "red"
    ],
    [
      "E",
      "lla"
    ],
    [
      " tong",
      "ue"
    ],
    [
      " exper",
      "ience"
    ],
    [
      " cur",
      "led"
    ],
    [
      "omed",
      "ay"
    ],
    [
      " sit",
      "s"
    ],
    [
      " z",
      "ero"
    ],
    [
      " z",
      "igzag"
    ],
    [
      " cra",
      "sh"
    ],
    [
      " hear",
      "ts"
    ],
    [
      " sn",
      "ugg"
    ],
    [
      " D",
      "ave"
    ],
    [
      " re",
      "quest"
    ],
    [
      " M",
      "illy"
    ],
    [
      " had",
      "n"
    ],
    [
      " in",
      "st"
    ],
    [
      " p",
      "ur"
    ],
    [
      "L",
      "eo"
    ],
    [
      "Em",
      "ma"
    ],
    [
      " mem",
      "ory"
    ],
    [
      "Every",
      "one"
    ],
    [
      " wis",
      "dom"
    ],
    [
      " Bu",
      "bbles"
    ],
    [
      " slid",
      "ing"
    ],
    [
      " plan",
      "ned"
    ],
    [
      "ster",
      "day"
    ],
    [
      " tra",
      "ve"
    ],
    [
      " im",
      "age"
    ],
    [
      " K",
      "ate"
    ],
    [
      " com",
      "f"
    ],
    [
      " or",
      "anges"
    ],
    [
      " op",
      "eration"
    ],
    [
      " k",
      "is"
    ],
    [
      " kis",
      "ses"
    ],
    [
      " we",
      "st"
    ],
    [
      " L",
      "e"
    ],
    [
      " m",
      "ister"
    ],
    [
      "s",
      "ed"
    ],
    [
      "p",
      "ted"
    ],
    [
      "e",
      "sterday"
    ],
    [
      " rul",
      "er"
    ],
    [
      " skill",
      "s"
    ],
    [
      " Ru",
      "by"
    ],
    [
      " squee",
      "zed"
    ],
    [
      " stuff",
      "ed"
    ],
    [
      " boun",
      "cy"
    ],
    [
      " att",
      "ached"
    ],
    [
      "ipp",
      "ing"
    ],
    [
      " field",
      "s"
    ],
    [
      " Fin",
      "ny"
    ],
    [
      " G",
      "ood"
    ],
    [
      " pa",
      "used"
    ],
    [
      " pret",
      "t"
    ],
    [
      " wor",
      "se"
    ],
    [
      " li",
      "cks"
    ],
    [
      " s",
      "omeday"
    ],
    [
      " s",
      "izes"
    ],
    [
      " t",
      "ide"
    ],
    [
      "r",
      "ise"
    ],
    [
      "e",
      "ath"
    ],
    [
      "d",
      "o"
    ],
    [
      " suff",
      "er"
    ],
    [
      " encou",
      "rage"
    ],
    [
      " acce",
      "pted"
    ],
    [
      " colour",
      "s"
    ],
    [
      " imag",
      "ination"
    ],
    [
      " pull",
      "ing"
    ],
    [
      " catch",
      "ing"
    ],
    [
      " app",
      "ear"
    ],
    [
      " ide",
      "as"
    ],
    [
      " sor",
      "ted"
    ],
    [
      " man",
      "age"
    ],
    [
      " re",
      "lease"
    ],
    [
      " A",
      "bby"
    ],
    [
      " sh",
      "ot"
    ],
    [
      "ad",
      "ed"
    ],
    [
      "or",
      "ies"
    ],
    [
      "at",
      "ie"
    ],
    [
      " m",
      "ama"
    ],
    [
      " c",
      "ape"
    ],
    [
      " s",
      "ince"
    ],
    [
      "m",
      "m"
    ],
    [
      "W",
      "oof"
    ],
    [
      "'",
      "ve"
    ],
    [
      " meas",
      "ured"
    ],
    [
      " twir",
      "led"
    ],
    [
      " zoo",
      "keeper"
    ],
    [
      "To",
      "day"
    ],
    [
      " blanket",
      "s"
    ],
    [
      " welc",
      "omed"
    ],
    [
      " att",
      "ention"
    ],
    [
      " R",
      "ock"
    ],
    [
      " im",
      "mediately"
    ],
    [
      " pe",
      "aches"
    ],
    [
      " pe",
      "arl"
    ],
    [
      " new",
      "s"
    ],
    [
      " B",
      "op"
    ],
    [
      " m",
      "ice"
    ],
    [
      " d",
      "ried"
    ],
    [
      " T",
      "oto"
    ],
    [
      " to",
      "night"
    ],
    [
      " b",
      "ones"
    ],
    [
      "H",
      "a"
    ],
    [
      " seas",
      "on"
    ],
    [
      " peanut",
      "s"
    ],
    [
      " growl",
      "ed"
    ],
    [
      " sett",
      "led"
    ],
    [
      " Be",
      "fore"
    ],
    [
      " mel",
      "ted"
    ],
    [
      " celebr",
      "ated"
    ],
    [
      " whist",
      "ling"
    ],
    [
      " wag",
      "ging"
    ],
    [
      " close",
      "ly"
    ],
    [
      " G",
      "eorge"
    ],
    [
      " R",
      "os"
    ],
    [
      " rabbit",
      "s"
    ],
    [
      "ct",
      "ion"
    ],
    [
      " P",
      "ip"
    ],
    [
      " call",
      "s"
    ],
    [
      " sun",
      "rise"
    ],
    [
      " sp",
      "ike"
    ],
    [
      " le",
      "ather"
    ],
    [
      "ind",
      "y"
    ],
    [
      " M",
      "illie"
    ],
    [
      " B",
      "ee"
    ],
    [
      "st",
      "ers"
    ],
    [
      " S",
      "ky"
    ],
    [
      " t",
      "ucked"
    ],
    [
      "y",
      "th"
    ],
    [
      "i",
      "ppy"
    ],
    [
      "h",
      "ouse"
    ],
    [
      "W",
      "ith"
    ],
    [
      " gro",
      "c"
    ],
    [
      " groc",
      "ery"
    ],
    [
      " recogn",
      "ize"
    ],
    [
      " rece",
      "ive"
    ],
    [
      " disag",
      "reed"
    ],
    [
      " steal",
      "ing"
    ],
    [
      " Z",
      "ara"
    ],
    [
      " mar",
      "ried"
    ],
    [
      "up",
      "s"
    ],
    [
      " win",
      "ning"
    ],
    [
      " fire",
      "man"
    ],
    [
      " tast",
      "es"
    ],
    [
      " our",
      "s"
    ],
    [
      " rem",
      "ained"
    ],
    [
      "ip",
      "s"
    ],
    [
      " qu",
      "ack"
    ],
    [
      " gl",
      "o"
    ],
    [
      " down",
      "stairs"
    ],
    [
      " M",
      "o"
    ],
    [
      " H",
      "o"
    ],
    [
      "et",
      "ch"
    ],
    [
      " d",
      "resses"
    ],
    [
      " b",
      "le"
    ],
    [
      " s",
      "i"
    ],
    [
      "R",
      "emy"
    ],
    [
      " glo",
      "ves"
    ],
    [
      " snugg",
      "led"
    ],
    [
      "Bl",
      "ue"
    ],
    [
      " Ste",
      "ve"
    ],
    [
      " lip",
      "s"
    ],
    [
      " mem",
      "ories"
    ],
    [
      " Cl",
      "ara"
    ],
    [
      " pun",
      "ished"
    ],
    [
      "und",
      "ay"
    ],
    [
      " saf",
      "ari"
    ],
    [
      " sur",
      "round"
    ],
    [
      " stir",
      "ring"
    ],
    [
      " eas",
      "ier"
    ],
    [
      "fort",
      "unately"
    ],
    [
      " side",
      "w"
    ],
    [
      " sidew",
      "alk"
    ],
    [
      " understand",
      "ing"
    ],
    [
      " em",
      "er"
    ],
    [
      " wood",
      "en"
    ],
    [
      " z",
      "ipped"
    ],
    [
      " cra",
      "s"
    ],
    [
      " P",
      "at"
    ],
    [
      " str",
      "o"
    ],
    [
      " W",
      "ally"
    ],
    [
      " tre",
      "mb"
    ],
    [
      " so",
      "aked"
    ],
    [
      " she",
      "d"
    ],
    [
      " in",
      "f"
    ],
    [
      " H",
      "ope"
    ],
    [
      "or",
      "ed"
    ],
    [
      " S",
      "unday"
    ],
    [
      "is",
      "ing"
    ],
    [
      " p",
      "alm"
    ],
    [
      " to",
      "es"
    ],
    [
      " to",
      "re"
    ],
    [
      " b",
      "ang"
    ],
    [
      "r",
      "ank"
    ],
    [
      "yth",
      "m"
    ],
    [
      " Dan",
      "ny"
    ],
    [
      " univer",
      "se"
    ],
    [
      " encou",
      "raged"
    ],
    [
      " Fo",
      "x"
    ],
    [
      " creature",
      "s"
    ],
    [
      " collect",
      "ion"
    ],
    [
      " potato",
      "es"
    ],
    [
      " stra",
      "ight"
    ],
    [
      " ba",
      "ked"
    ],
    [
      " hit",
      "s"
    ],
    [
      " snow",
      "ball"
    ],
    [
      " bre",
      "aking"
    ],
    [
      " R",
      "ed"
    ],
    [
      "ick",
      "y"
    ],
    [
      "dd",
      "y"
    ],
    [
      " ran",
      "g"
    ],
    [
      " see",
      "ing"
    ],
    [
      " back",
      "pack"
    ],
    [
      "ic",
      "ing"
    ],
    [
      " is",
      "n"
    ],
    [
      "d",
      "ing"
    ],
    [
      "B",
      "ird"
    ],
    [
      " tremb",
      "ling"
    ],
    [
      " Sm",
      "ith"
    ],
    [
      " Su",
      "zy"
    ],
    [
      " ped",
      "al"
    ],
    [
      " gaz",
      "ed"
    ],
    [
      " pir",
      "ates"
    ],
    [
      " acorn",
      "s"
    ],
    [
      " ring",
      "ing"
    ],
    [
      " ra",
      "ised"
    ],
    [
      " flo",
      "ating"
    ],
    [
      " R",
      "ay"
    ],
    [
      " off",
      "er"
    ],
    [
      " gr",
      "in"
    ],
    [
      " fl",
      "ap"
    ],
    [
      " J",
      "ess"
    ],
    [
      "op",
      "s"
    ],
    [
      " A",
      "va"
    ],
    [
      " H",
      "enry"
    ],
    [
      " l",
      "ung"
    ],
    [
      "r",
      "r"
    ],
    [
      "i",
      "en"
    ],
    [
      "P",
      "eter"
    ],
    [
      "O",
      "k"
    ],
    [
      " inclu",
      "de"
    ],
    [
      " firework",
      "s"
    ],
    [
      " unl",
      "ocked"
    ],
    [
      " relax",
      "ed"
    ],
    [
      " kick",
      "ing"
    ],
    [
      " craw",
      "ling"
    ],
    [
      " mus",
      "cles"
    ],
    [
      " land",
      "sc"
    ],
    [
      " bit",
      "es"
    ],
    [
      " fire",
      "f"
    ],
    [
      " sho",
      "pping"
    ],
    [
      " kit",
      "es"
    ],
    [
      " wait",
      "s"
    ],
    [
      " should",
      "n"
    ],
    [
      " E",
      "ach"
    ],
    [
      " pe",
      "bbles"
    ],
    [
      "ap",
      "ed"
    ],
    [
      "ab",
      "ies"
    ],
    [
      " fl",
      "at"
    ],
    [
      " br",
      "us"
    ],
    [
      " al",
      "right"
    ],
    [
      " sp",
      "it"
    ],
    [
      " B",
      "aby"
    ],
    [
      " her",
      "s"
    ],
    [
      "is",
      "dom"
    ],
    [
      " p",
      "ad"
    ],
    [
      " b",
      "abies"
    ],
    [
      " w",
      "ob"
    ],
    [
      "s",
      "ing"
    ],
    [
      "e",
      "ep"
    ],
    [
      "b",
      "les"
    ],
    [
      "L",
      "isa"
    ],
    [
      " ble",
      "ed"
    ],
    [
      " famil",
      "ies"
    ],
    [
      " Fo",
      "llow"
    ],
    [
      " Rob",
      "by"
    ],
    [
      "igg",
      "ing"
    ],
    [
      " Z",
      "igzag"
    ],
    [
      " bra",
      "in"
    ],
    [
      " app",
      "ro"
    ],
    [
      " wat",
      "ches"
    ],
    [
      " un",
      "ic"
    ],
    [
      " unic",
      "orn"
    ],
    [
      " M",
      "andy"
    ],
    [
      " we",
      "b"
    ],
    [
      "or",
      "ted"
    ],
    [
      " d",
      "ared"
    ],
    [
      " s",
      "imp"
    ],
    [
      "W",
      "ould"
    ],
    [
      " Ros",
      "ie"
    ],
    [
      " inst",
      "r"
    ],
    [
      " kneel",
      "ed"
    ],
    [
      " sne",
      "ak"
    ],
    [
      " shadow",
      "s"
    ],
    [
      " saf",
      "et"
    ],
    [
      " safet",
      "y"
    ],
    [
      " chew",
      "ing"
    ],
    [
      " pet",
      "ted"
    ],
    [
      " vis",
      "ited"
    ],
    [
      " mouth",
      "s"
    ],
    [
      " mat",
      "ched"
    ],
    [
      " tall",
      "est"
    ],
    [
      " rest",
      "ing"
    ],
    [
      " dr",
      "inking"
    ],
    [
      " bed",
      "s"
    ],
    [
      " keep",
      "s"
    ],
    [
      "Mom",
      "o"
    ],
    [
      " op",
      "in"
    ],
    [
      " ch",
      "all"
    ],
    [
      " chall",
      "en"
    ],
    [
      " J",
      "ames"
    ],
    [
      " ex",
      "it"
    ],
    [
      " girl",
      "s"
    ],
    [
      " k",
      "itty"
    ],
    [
      " S",
      "un"
    ],
    [
      "id",
      "s"
    ],
    [
      " d",
      "igging"
    ],
    [
      " b",
      "reeze"
    ],
    [
      "t",
      "her"
    ],
    [
      "k",
      "ins"
    ],
    [
      " cartoon",
      "s"
    ],
    [
      " Mar",
      "ia"
    ],
    [
      " disag",
      "ree"
    ],
    [
      " weep",
      "ing"
    ],
    [
      " sil",
      "ence"
    ],
    [
      " ord",
      "ered"
    ],
    [
      " study",
      "ing"
    ],
    [
      " ser",
      "ved"
    ],
    [
      " pile",
      "s"
    ],
    [
      "vel",
      "vet"
    ],
    [
      " amaz",
      "ement"
    ],
    [
      " K",
      "ing"
    ],
    [
      " under",
      "ground"
    ],
    [
      " v",
      "et"
    ],
    [
      "ish",
      "y"
    ],
    [
      " mu",
      "ddy"
    ],
    [
      " la",
      "id"
    ],
    [
      "ell",
      "e"
    ],
    [
      "um",
      "es"
    ],
    [
      " M",
      "el"
    ],
    [
      " we",
      "ighed"
    ],
    [
      " st",
      "itch"
    ],
    [
      " play",
      "time"
    ],
    [
      " S",
      "low"
    ],
    [
      " n",
      "one"
    ],
    [
      "is",
      "hing"
    ],
    [
      " The",
      "se"
    ],
    [
      " l",
      "ined"
    ],
    [
      "re",
      "c"
    ],
    [
      "u",
      "zz"
    ],
    [
      "s",
      "it"
    ],
    [
      "l",
      "er"
    ],
    [
      " ",
      "velvet"
    ],
    [
      "rec",
      "i"
    ],
    [
      " landsc",
      "ape"
    ],
    [
      " root",
      "s"
    ],
    [
      " repe",
      "ated"
    ],
    [
      " cost",
      "umes"
    ],
    [
      " Somet",
      "hing"
    ],
    [
      " van",
      "ish"
    ],
    [
      " N",
      "ot"
    ],
    [
      " spoon",
      "s"
    ],
    [
      " cr",
      "unch"
    ],
    [
      " treasure",
      "s"
    ],
    [
      " road",
      "s"
    ],
    [
      " sign",
      "s"
    ],
    [
      " mix",
      "ing"
    ],
    [
      " set",
      "ting"
    ],
    [
      " win",
      "ner"
    ],
    [
      "av",
      "id"
    ],
    [
      " wr",
      "it"
    ],
    [
      " app",
      "reci"
    ],
    [
      " now",
      "here"
    ],
    [
      " by",
      "e"
    ],
    [
      " tw",
      "ink"
    ],
    [
      "!\"",
      ","
    ],
    [
      "ch",
      "ie"
    ],
    [
      " li",
      "ck"
    ],
    [
      " L",
      "ucky"
    ],
    [
      "or",
      "al"
    ],
    [
      " g",
      "ust"
    ],
    [
      " n",
      "apping"
    ],
    [
      "T",
      "r"
    ],
    [
      "!",
      "'"
    ],
    [
      " emer",
      "gen"
    ],
    [
      " ur",
      "ged"
    ],
    [
      " Boun",
      "cy"
    ],
    [
      " rh",
      "ythm"
    ],
    [
      " saus",
      "ages"
    ],
    [
      " decor",
      "ations"
    ],
    [
      " decor",
      "ated"
    ],
    [
      " pin",
      "ched"
    ],
    [
      " perfect",
      "ly"
    ],
    [
      " pet",
      "s"
    ],
    [
      "John",
      "ny"
    ],
    [
      " sister",
      "s"
    ],
    [
      "Bob",
      "by"
    ],
    [
      " voice",
      "s"
    ],
    [
      " import",
      "ance"
    ],
    [
      "iz",
      "ing"
    ],
    [
      "Thank",
      "s"
    ],
    [
      " str",
      "ang"
    ],
    [
      " W",
      "isdom"
    ],
    [
      " j",
      "azz"
    ],
    [
      " B",
      "ree"
    ],
    [
      " L",
      "ater"
    ],
    [
      " happ",
      "iest"
    ],
    [
      " T",
      "ony"
    ],
    [
      " s",
      "ix"
    ],
    [
      " s",
      "ip"
    ],
    [
      "r",
      "s"
    ],
    [
      "o",
      "ved"
    ],
    [
      "c",
      "oon"
    ],
    [
      "a",
      "ved"
    ],
    [
      "Y",
      "um"
    ],
    [
      ".",
      "'"
    ],
    [
      " ",
      "Qu"
    ],
    [
      " inf",
      "ant"
    ],
    [
      " agre",
      "ement"
    ],
    [
      " mention",
      "ed"
    ],
    [
      " prep",
      "ared"
    ],
    [
      " pattern",
      "s"
    ],
    [
      " knight",
      "s"
    ],
    [
      " guess",
      "ed"
    ],
    [
      " Pe",
      "anut"
    ],
    [
      " res",
      "ult"
    ],
    [
      " O",
      "ut"
    ],
    [
      "sh",
      "ion"
    ],
    [
      " draw",
      "s"
    ],
    [
      "oy",
      "s"
    ],
    [
      " cle",
      "aring"
    ],
    [
      " let",
      "s"
    ],
    [
      " fa",
      "shion"
    ],
    [
      "um",
      "ble"
    ],
    [
      " H",
      "arry"
    ],
    [
      " p",
      "ra"
    ],
    [
      " d",
      "ire"
    ],
    [
      " l",
      "ily"
    ],
    [
      " wa",
      "ist"
    ],
    [
      " T",
      "ed"
    ],
    [
      " w",
      "ink"
    ],
    [
      "S",
      "p"
    ],
    [
      " strang",
      "ers"
    ],
    [
      " crunch",
      "y"
    ],
    [
      " spr",
      "ink"
    ],
    [
      " waff",
      "les"
    ],
    [
      " poem",
      "s"
    ],
    [
      " scr",
      "u"
    ],
    [
      " adm",
      "ir"
    ],
    [
      " esc",
      "aped"
    ],
    [
      " hur",
      "ried"
    ],
    [
      " eag",
      "le"
    ],
    [
      " mark",
      "s"
    ],
    [
      " ph",
      "ot"
    ],
    [
      " moment",
      "s"
    ],
    [
      "Sam",
      "my"
    ],
    [
      " our",
      "selves"
    ],
    [
      " turn",
      "ing"
    ],
    [
      "pl",
      "ash"
    ],
    [
      "ist",
      "en"
    ],
    [
      " F",
      "rank"
    ],
    [
      "ss",
      "ible"
    ],
    [
      " no",
      "on"
    ],
    [
      " kn",
      "own"
    ],
    [
      " B",
      "oth"
    ],
    [
      " L",
      "iz"
    ],
    [
      " be",
      "ard"
    ],
    [
      " th",
      "rill"
    ],
    [
      "ir",
      "ts"
    ],
    [
      "en",
      "a"
    ],
    [
      "om",
      "ing"
    ],
    [
      "he",
      "llo"
    ],
    [
      "i",
      "ers"
    ],
    [
      "H",
      "appy"
    ],
    [
      "D",
      "og"
    ],
    [
      " grin",
      "ned"
    ],
    [
      " cras",
      "hed"
    ],
    [
      " Pr",
      "in"
    ],
    [
      " fro",
      "z"
    ],
    [
      " froz",
      "en"
    ],
    [
      " apolog",
      "ized"
    ],
    [
      "Em",
      "ily"
    ],
    [
      " cudd",
      "led"
    ],
    [
      " spend",
      "ing"
    ],
    [
      " disturb",
      "ed"
    ],
    [
      " log",
      "s"
    ],
    [
      " sold",
      "iers"
    ],
    [
      " pillow",
      "s"
    ],
    [
      " bow",
      "ed"
    ],
    [
      "sh",
      "ip"
    ],
    [
      " ru",
      "in"
    ],
    [
      " forg",
      "i"
    ],
    [
      " ri",
      "pped"
    ],
    [
      " beh",
      "aved"
    ],
    [
      " brave",
      "ly"
    ],
    [
      " gr",
      "an"
    ],
    [
      " C",
      "ar"
    ],
    [
      " pe",
      "el"
    ],
    [
      "ant",
      "ly"
    ],
    [
      " ex",
      "pected"
    ],
    [
      " br",
      "id"
    ],
    [
      " W",
      "atch"
    ],
    [
      " go",
      "als"
    ],
    [
      " l",
      "imes"
    ],
    [
      "it",
      "ies"
    ],
    [
      " f",
      "etch"
    ],
    [
      "p",
      "lease"
    ],
    [
      "S",
      "ophie"
    ],
    [
      "M",
      "oral"
    ],
    [
      "J",
      "en"
    ],
    [
      " phot",
      "os"
    ],
    [
      " emergen",
      "cy"
    ],
    [
[...]
