{
  "\u0000": 0,
  "\u0001": 1,
  "\u0002": 2,
  "\u0003": 3,
  "\u0004": 4,
  "\u0005": 5,
  "\u0006": 6,
  "\u0007": 7,
  "\b": 8,
  "\t": 9,
  "\n": 10,
  "\u000b": 11,
  "\f": 12,
  "\r": 13,
  "\u000e": 14,
  "\u000f": 15,
  "\u0010": 16,
  "\u0011": 17,
  "\u0012": 18,
  "\u0013": 19,
  "\u0014": 20,
  "\u0015": 21,
  "\u0016": 22,
  "\u0017": 23,
  "\u0018": 24,
  "\u0019": 25,
  "\u001a": 26,
  "\u001b": 27,
  "\u001c": 28,
  "\u001d": 29,
  "\u001e": 30,
  "\u001f": 31,
  " ": 32,
  "!": 33,
  "\"": 34,
  "#": 35,
  "$": 36,
  "%": 37,
  "&": 38,
  "'": 39,
  "(": 40,
  ")": 41,
  "*": 42,
  "+": 43,
  ",": 44,
  "-": 45,
  ".": 46,
  "/": 47,
  "0": 48,
  "1": 49,
  "2": 50,
  "3": 51,
  "4": 52,
  "5": 53,
  "6": 54,
  "7": 55,
  "8": 56,
  "9": 57,
  ":": 58,
  ";": 59,
  "<": 60,
  "=": 61,
  ">": 62,
  "?": 63,
  "@": 64,
  "A": 65,
  "B": 66,
  "C": 67,
  "D": 68,
  "E": 69,
  "F": 70,
  "G": 71,
  "H": 72,
  "I": 73,
  "J": 74,
  "K": 75,
  "L": 76,
  "M": 77,
  "N": 78,
  "O": 79,
  "P": 80,
  "Q": 81,
  "R": 82,
  "S": 83,
  "T": 84,
  "U": 85,
  "V": 86,
  "W": 87,
  "X": 88,
  "Y": 89,
  "Z": 90,
  "[": 91,
  "\\": 92,
  "]": 93,
  "^": 94,
  "_": 95,
  "`": 96,
  "a": 97,
  "b": 98,
  "c": 99,
  "d": 100,
  "e": 101,
  "f": 102,
  "g": 103,
  "h": 104,
  "i": 105,
  "j": 106,
  "k": 107,
  "l": 108,
  "m": 109,
  "n": 110,
  "o": 111,
  "p": 112,
  "q": 113,
  "r": 114,
  "s": 115,
  "t": 116,
  "u": 117,
  "v": 118,
  "w": 119,
  "x": 120,
  "y": 121,
  "z": 122,
  "{": 123,
  "|": 124,
  "}": 125,
  "~": 126,
  "": 127,
  "<bytes:128>": 128,
  "<bytes:129>": 129,
  "<bytes:130>": 130,
  "<bytes:131>": 131,
  "<bytes:132>": 132,
  "<bytes:133>": 133,
  "<bytes:134>": 134,
  "<bytes:135>": 135,
  "<bytes:136>": 136,
  "<bytes:137>": 137,
  "<bytes:138>": 138,
  "<bytes:139>": 139,
  "<bytes:140>": 140,
  "<bytes:141>": 141,
  "<bytes:142>": 142,
  "<bytes:143>": 143,
  "<bytes:144>": 144,
  "<bytes:145>": 145,
  "<bytes:146>": 146,
  "<bytes:147>": 147,
  "<bytes:148>": 148,
  "<bytes:149>": 149,
  "<bytes:150>": 150,
  "<bytes:151>": 151,
  "<bytes:152>": 152,
  "<bytes:153>": 153,
  "<bytes:154>": 154,
  "<bytes:155>": 155,
  "<bytes:156>": 156,
  "<bytes:157>": 157,
  "<bytes:158>": 158,
  "<bytes:159>": 159,
  "<bytes:160>": 160,
  "<bytes:161>": 161,
  "<bytes:162>": 162,
  "<bytes:163>": 163,
  "<bytes:164>": 164,
  "<bytes:165>": 165,
  "<bytes:166>": 166,
  "<bytes:167>": 167,
  "<bytes:168>": 168,
  "<bytes:169>": 169,
  "<bytes:170>": 170,
  "<bytes:171>": 171,
  "<bytes:172>": 172,
  "<bytes:173>": 173,
  "<bytes:174>": 174,
  "<bytes:175>": 175,
  "<bytes:176>": 176,
  "<bytes:177>": 177,
  "<bytes:178>": 178,
  "<bytes:179>": 179,
  "<bytes:180>": 180,
  "<bytes:181>": 181,
  "<bytes:182>": 182,
  "<bytes:183>": 183,
  "<bytes:184>": 184,
  "<bytes:185>": 185,
  "<bytes:186>": 186,
  "<bytes:187>": 187,
  "<bytes:188>": 188,
  "<bytes:189>": 189,
  "<bytes:190>": 190,
  "<bytes:191>": 191,
  "<bytes:192>": 192,
  "<bytes:193>": 193,
  "<bytes:194>": 194,
  "<bytes:195>": 195,
  "<bytes:196>": 196,
  "<bytes:197>": 197,
  "<bytes:198>": 198,
  "<bytes:199>": 199,
  "<bytes:200>": 200,
  "<bytes:201>": 201,
  "<bytes:202>": 202,
  "<bytes:203>": 203,
  "<bytes:204>": 204,
  "<bytes:205>": 205,
  "<bytes:206>": 206,
  "<bytes:207>": 207,
  "<bytes:208>": 208,
  "<bytes:209>": 209,
  "<bytes:210>": 210,
  "<bytes:211>": 211,
  "<bytes:212>": 212,
  "<bytes:213>": 213,
  "<bytes:214>": 214,
  "<bytes:215>": 215,
  "<bytes:216>": 216,
  "<bytes:217>": 217,
  "<bytes:218>": 218,
  "<bytes:219>": 219,
  "<bytes:220>": 220,
  "<bytes:221>": 221,
  "<bytes:222>": 222,
  "<bytes:223>": 223,
  "<bytes:224>": 224,
  "<bytes:225>": 225,
  "<bytes:226>": 226,
  "<bytes:227>": 227,
  "<bytes:228>": 228,
  "<bytes:229>": 229,
  "<bytes:230>": 230,
  "<bytes:231>": 231,
  "<bytes:232>": 232,
  "<bytes:233>": 233,
  "<bytes:234>": 234,
  "<bytes:235>": 235,
  "<bytes:236>": 236,
  "<bytes:237>": 237,
  "<bytes:238>": 238,
  "<bytes:239>": 239,
  "<bytes:240>": 240,
  "<bytes:241>": 241,
  "<bytes:242>": 242,
  "<bytes:243>": 243,
  "<bytes:244>": 244,
  "<bytes:245>": 245,
  "<bytes:246>": 246,
  "<bytes:247>": 247,
  "<bytes:248>": 248,
  "<bytes:249>": 249,
  "<bytes:250>": 250,
  "<bytes:251>": 251,
  "<bytes:252>": 252,
  "<bytes:253>": 253,
  "<bytes:254>": 254,
  "<bytes:255>": 255,
  "<|endoftext|>": 256,
  " t": 257,
  "he": 258,
  " a": 259,
  " s": 260,
  " w": 261,
  "nd": 262,
  " the": 263,
  "ed": 264,
  " b": 265,
  " to": 266,
  " and": 267,
  " h": 268,
  " f": 269,
  " T": 270,
  "in": 271,
  " wa": 272,
  "re": 273,
  "it": 274,
  "ou": 275,
  " l": 276,
  " d": 277,
  " c": 278,
  " p": 279,
  "ay": 280,
  " m": 281,
  "er": 282,
  " was": 283,
  " The": 284,
  "om": 285,
  " he": 286,
  "is": 287,
  " n": 288,
  "im": 289,
  "ar": 290,
  "on": 291,
  " sa": 292,
  "ll": 293,
  "id": 294,
  " ha": 295,
  " g": 296,
  "at": 297,
  " S": 298,
  "ing": 299,
  "ot": 300,
  "en": 301,
  "an": 302,
  "le": 303,
  "or": 304,
  "end": 305,
  "ir": 306,
  "of": 307,
  "am": 308,
  "et": 309,
  " H": 310,
  " it": 311,
  " th": 312,
  "ig": 313,
  " They": 314,
  " pl": 315,
  " in": 316,
  "il": 317,
  " He": 318,
  " \"": 319,
  "ow": 320,
  "ver": 321,
  "ri": 322,
  " u": 323,
  "ut": 324,
  " play": 325,
  "ith": 326,
  " said": 327,
  " be": 328,
  " day": 329,
  " with": 330,
  "pp": 331,
  "On": 332,
  " y": 333,
  "ked": 334,
  "oo": 335,
  " r": 336,
  " her": 337,
  "ex": 338,
  "ce": 339,
  "ld": 340,
  " his": 341,
  " Tim": 342,
  " I": 343,
  " She": 344,
  " st": 345,
  "ke": 346,
  " big": 347,
  "nt": 348,
  "ck": 349,
  "very": 350,
  " you": 351,
  "st": 352,
  "ve": 353,
  "un": 354,
  " happ": 355,
  " on": 356,
  "all": 357,
  "riend": 358,
  " friend": 359,
  "ext": 360,
  " they": 361,
  "oft": 362,
  " L": 363,
  "ily": 364,
  " we": 365,
  " had": 366,
  " up": 367,
  " li": 368,
  " not": 369,
  "her": 370,
  " want": 371,
  "itt": 372,
  " of": 373,
  "oftext": 374,
  "endoftext": 375,
  "|>": 376,
  "<|": 377,
  "ad": 378,
  " do": 379,
  " B": 380,
  " e": 381,
  "se": 382,
  " happy": 383,
  "ent": 384,
  " very": 385,
  " M": 386,
  "es": 387,
  " saw": 388,
  "One": 389,
  " that": 390,
  "ould": 391,
  "'s": 392,
  " for": 393,
  "ittle": 394,
  " mom": 395,
  " little": 396,
  " sh": 397,
  " she": 398,
  "ime": 399,
  "ch": 400,
  " nam": 401,
  " time": 402,
  " k": 403,
  " so": 404,
  "ound": 405,
  ".\"": 406,
  " there": 407,
  " named": 408,
  " bo": 409,
  " sm": 410,
  " were": 411,
  " wanted": 412,
  " Lily": 413,
  " ne": 414,
  " friends": 415,
  "out": 416,
  "ird": 417,
  " but": 418,
  "ved": 419,
  "ht": 420,
  "!\"": 421,
  "The": 422,
  " Tom": 423,
  " bird": 424,
  "el": 425,
  "ake": 426,
  " an": 427,
  "al": 428,
  " too": 429,
  "ome": 430,
  " went": 431,
  " wh": 432,
  "ide": 433,
  "Once": 434,
  " all": 435,
  " It": 436,
  " hel": 437,
  "ug": 438,
  "ue": 439,
  " help": 440,
  " is": 441,
  " loo": 442,
  " A": 443,
  " upon": 444,
  " lo": 445,
  "ter": 446,
  "ry": 447,
  " toy": 448,
  "ore": 449,
  " fun": 450,
  "ind": 451,
  "get": 452,
  "ill": 453,
  "ame": 454,
  " as": 455,
  " j": 456,
  "ra": 457,
  " at": 458,
  "gether": 459,
  " o": 460,
  " cat": 461,
  " did": 462,
  " re": 463,
  "ur": 464,
  " together": 465,
  "ack": 466,
  " se": 467,
  "ly": 468,
  " tre": 469,
  "ood": 470,
  " dog": 471,
  "ic": 472,
  " could": 473,
  "ted": 474,
  " can": 475,
  " ball": 476,
  "ard": 477,
  " gir": 478,
  " their": 479,
  "ark": 480,
  " girl": 481,
  " played": 482,
  "ec": 483,
  "my": 484,
  " him": 485,
  " ro": 486,
  " go": 487,
  "way": 488,
  "?\"": 489,
  "hed": 490,
  "ain": 491,
  " kn": 492,
  " le": 493,
  " out": 494,
  "hen": 495,
  " are": 496,
  " fr": 497,
  "um": 498,
  "'t": 499,
  " them": 500,
  " boy": 501,
  " sad": 502,
  "ul": 503,
  "ax": 504,
  " tree": 505,
  "other": 506,
  "oug": 507,
  " man": 508,
  " loved": 509,
  " have": 510,
  " cl": 511,
  " found": 512,
  " looked": 513,
  " sp": 514,
  " Sue": 515,
  " star": 516,
  " sc": 517,
  "one": 518,
  " back": 519,
  "own": 520,
  "hing": 521,
  "are": 522,
  " Max": 523,
  " like": 524,
  " bec": 525,
  "side": 526,
  "ful": 527,
  " me": 528,
  "op": 529,
  "ong": 530,
  " park": 531,
  " would": 532,
  "ight": 533,
  " liked": 534,
  "round": 535,
  " One": 536,
  "elt": 537,
  " fa": 538,
  " make": 539,
  " car": 540,
  "ell": 541,
  " But": 542,
  " felt": 543,
  " la": 544,
  " W": 545,
  " asked": 546,
  " Sam": 547,
  "You": 548,
  "ared": 549,
  "omet": 550,
  "ice": 551,
  " came": 552,
  " started": 553,
  " new": 554,
  "ag": 555,
  " see": 556,
  " no": 557,
  "ought": 558,
  "ouse": 559,
  " Ben": 560,
  " al": 561,
  "iled": 562,
  " ag": 563,
  " other": 564,
  " good": 565,
  "pot": 566,
  " \n": 567,
  " somet": 568,
  " small": 569,
  " br": 570,
  "ob": 571,
  "ss": 572,
  " smiled": 573,
  "ade": 574,
  "ried": 575,
  "ings": 576,
  " say": 577,
  " find": 578,
  " wor": 579,
  " away": 580,
  " from": 581,
  " thought": 582,
  " made": 583,
  " Spot": 584,
  " what": 585,
  " ex": 586,
  " home": 587,
  " playing": 588,
  "ened": 589,
  " something": 590,
  "ty": 591,
  " put": 592,
  " every": 593,
  " co": 594,
  " wal": 595,
  "ach": 596,
  " mu": 597,
  "ia": 598,
  "uc": 599,
  "ook": 600,
  "ie": 601,
  "ny": 602,
  " F": 603,
  " again": 604,
  " ran": 605,
  " down": 606,
  "ile": 607,
  "dd": 608,
  "arn": 609,
  " toys": 610,
  "ave": 611,
  " pr": 612,
  "king": 613,
  " scared": 614,
  " some": 615,
  " took": 616,
  " laug": 617,
  " J": 618,
  " house": 619,
  " fl": 620,
  "if": 621,
  "ab": 622,
  " around": 623,
  " box": 624,
  " sw": 625,
  "ure": 626,
  "ick": 627,
  " learn": 628,
  "ep": 629,
  "ret": 630,
  "ish": 631,
  "oud": 632,
  "uck": 633,
  " your": 634,
  " lived": 635,
  " You": 636,
  " things": 637,
  " sun": 638,
  " then": 639,
  " will": 640,
  "ew": 641,
  " bl": 642,
  " my": 643,
  "as": 644,
  " when": 645,
  " ab": 646,
  "pped": 647,
  ",\"": 648,
  "us": 649,
  " get": 650,
  "ank": 651,
  "Tim": 652,
  "Th": 653,
  " ch": 654,
  " lot": 655,
  "ucy": 656,
  "oth": 657,
  "ap": 658,
  "ump": 659,
  " Mia": 660,
  " who": 661,
  " tried": 662,
  "ist": 663,
  " fe": 664,
  " know": 665,
  " got": 666,
  "ited": 667,
  "ust": 668,
  " many": 669,
  " about": 670,
  " says": 671,
  " int": 672,
  "ally": 673,
  "nder": 674,
  " red": 675,
  " knew": 676,
  " pret": 677,
  "ive": 678,
  " dec": 679,
  "Lily": 680,
  "ise": 681,
  "ous": 682,
  " any": 683,
  "au": 684,
  " D": 685,
  "ace": 686,
  " care": 687,
  " more": 688,
  " pic": 689,
  "qu": 690,
  " best": 691,
  "ause": 692,
  " op": 693,
  "fter": 694,
  " became": 695,
  " Lucy": 696,
  " po": 697,
  " water": 698,
  "ways": 699,
  "<bytes:226,128>": 700,
  "fe": 701,
  " hug": 702,
  " learned": 703,
  " Bob": 704,
  " exc": 705,
  " because": 706,
  "ite": 707,
  " always": 708,
  " look": 709,
  " v": 710,
  " outside": 711,
  " into": 712,
  " room": 713,
  " both": 714,
  " un": 715,
  "ided": 716,
  " show": 717,
  " laughed": 718,
  " So": 719,
  " eat": 720,
  " decided": 721,
  " And": 722,
  " ho": 723,
  " gre": 724,
  "urp": 725,
  "udd": 726,
  "ant": 727,
  " pe": 728,
  "ers": 729,
  " E": 730,
  " Mom": 731,
  " jump": 732,
  "nn": 733,
  " long": 734,
  " one": 735,
  " ke": 736,
  " this": 737,
  " run": 738,
  " nice": 739,
  "Yes": 740,
  " excited": 741,
  " fast": 742,
  "They": 743,
  "Tom": 744,
  " feel": 745,
  " dad": 746,
  " told": 747,
  " mo": 748,
  " sk": 749,
  " inside": 750,
  "our": 751,
  " am": 752,
  " tr": 753,
  " sl": 754,
  "ull": 755,
  "lew": 756,
  " sor": 757,
  " take": 758,
  "urpr": 759,
  " rock": 760,
  "iny": 761,
  " pretty": 762,
  "nna": 763,
  " surpr": 764,
  " gave": 765,
  " each": 766,
  " gra": 767,
  "imal": 768,
  " animal": 769,
  "ink": 770,
  " much": 771,
  " how": 772,
  "Wh": 773,
  " str": 774,
  " old": 775,
  " need": 776,
  "But": 777,
  " than": 778,
  " let": 779,
  "ven": 780,
  "ara": 781,
  "ro": 782,
  "ged": 783,
  " tow": 784,
  "ess": 785,
  " under": 786,
  " C": 787,
  " sorry": 788,
  " or": 789,
  " walked": 790,
  " cle": 791,
  "and": 792,
  " ta": 793,
  " hand": 794,
  "ge": 795,
  "ised": 796,
  "og": 797,
  " fish": 798,
  "urn": 799,
  " te": 800,
  "urt": 801,
  " kind": 802,
  "ff": 803,
  " clo": 804,
  " His": 805,
  " wat": 806,
  "ving": 807,
  " hig": 808,
  " animals": 809,
  "ase": 810,
  " Amy": 811,
  " just": 812,
  " happened": 813,
  " us": 814,
  "ched": 815,
  " food": 816,
  "pl": 817,
  " sky": 818,
  " flow": 819,
  "here": 820,
  " sn": 821,
  "rom": 822,
  " list": 823,
  " try": 824,
  " ide": 825,
  " We": 826,
  " near": 827,
  "gry": 828,
  " didn": 829,
  " idea": 830,
  " bet": 831,
  " en": 832,
  "able": 833,
  "ate": 834,
  "ine": 835,
  " fi": 836,
  " flew": 837,
  "eci": 838,
  " its": 839,
  "ream": 840,
  " careful": 841,
  "Thank": 842,
  " share": 843,
  " cake": 844,
  " heard": 845,
  " better": 846,
  " tw": 847,
  " stor": 848,
  " if": 849,
  "ecial": 850,
  " special": 851,
  " dan": 852,
  "pec": 853,
  "ber": 854,
  "ion": 855,
  " Th": 856,
  " bear": 857,
  " lots": 858,
  " wind": 859,
  "lf": 860,
  "more": 861,
  " anymore": 862,
  " clean": 863,
  "udden": 864,
  " never": 865,
  " fo": 866,
  " don": 867,
  "Mom": 868,
  " gr": 869,
  " bug": 870,
  " tal": 871,
  "ople": 872,
  " com": 873,
  " hard": 874,
  " bu": 875,
  " end": 876,
  " Then": 877,
  " by": 878,
  " fly": 879,
  "uddenly": 880,
  " mag": 881,
  "ort": 882,
  " fore": 883,
  " turn": 884,
  " over": 885,
  " Anna": 886,
  " Every": 887,
  " even": 888,
  "rm": 889,
  " love": 890,
  " col": 891,
  " people": 892,
  " safe": 893,
  " after": 894,
  " bad": 895,
  "ady": 896,
  " high": 897,
  " fam": 898,
  " ground": 899,
  "ak": 900,
  " door": 901,
  "imb": 902,
  " come": 903,
  " shiny": 904,
  "bb": 905,
  " proud": 906,
  " opened": 907,
  " climb": 908,
  "As": 909,
  "uff": 910,
  " hurt": 911,
  " picked": 912,
  " blue": 913,
  " loud": 914,
  "pected": 915,
  "Let": 916,
  " che": 917,
  " give": 918,
  " way": 919,
  " surprised": 920,
  " gl": 921,
  "'m": 922,
  " unex": 923,
  " unexpected": 924,
  "ild": 925,
  " thanked": 926,
  " cu": 927,
  " book": 928,
  "ummy": 929,
  " From": 930,
  " When": 931,
  " call": 932,
  " color": 933,
  " Her": 934,
  " far": 935,
  "arden": 936,
  " garden": 937,
  " magic": 938,
  " ever": 939,
  " K": 940,
  " par": 941,
  "ough": 942,
  "kay": 943,
  " im": 944,
  " hugged": 945,
  " still": 946,
  " place": 947,
  "No": 948,
  " unt": 949,
  "ool": 950,
  " off": 951,
  " Sara": 952,
  "age": 953,
  " ma": 954,
  " smile": 955,
  " walk": 956,
  " P": 957,
  " jumped": 958,
  " family": 959,
  " In": 960,
  " until": 961,
  "unny": 962,
  "iz": 963,
  "ture": 964,
  "hes": 965,
  " pa": 966,
  "em": 967,
  " should": 968,
  " qu": 969,
  " now": 970,
  "ip": 971,
  " kid": 972,
  "ct": 973,
  " stick": 974,
  "itty": 975,
  " stay": 976,
  " strong": 977,
  " forest": 978,
  " sto": 979,
  "ane": 980,
  " dra": 981,
  "aut": 982,
  " app": 983,
  "uffy": 984,
  "dy": 985,
  " bro": 986,
  " boat": 987,
  " great": 988,
  " bra": 989,
  " squ": 990,
  " beaut": 991,
  " tra": 992,
  " next": 993,
  " jo": 994,
  " helped": 995,
  " Sally": 996,
  "lease": 997,
  " hat": 998,
  " happily": 999,
  "les": 1000,
  " picture": 1001,
  " story": 1002,
  "iful": 1003,
  " beautiful": 1004,
  "ies": 1005,
  " listen": 1006,
  "ning": 1007,
  "th": 1008,
  " showed": 1009,
  " called": 1010,
  " while": 1011,
  "oon": 1012,
  " clos": 1013,
  " met": 1014,
  " kids": 1015,
  "Now": 1016,
  " open": 1017,
  "pt": 1018,
  " frog": 1019,
  " soft": 1020,
  " mor": 1021,
  " rem": 1022,
  "luffy": 1023,
  " town": 1024,
  " everyone": 1025,
  "Can": 1026,
  "It": 1027,
  "ger": 1028,
  " imp": 1029,
  " being": 1030,
  "He": 1031,
  "When": 1032,
  " stopped": 1033,
  " ad": 1034,
  "rel": 1035,
  " rain": 1036,
  " angry": 1037,
  " yummy": 1038,
  "by": 1039,
  " watch": 1040,
  "bit": 1041,
  " doll": 1042,
  " couldn": 1043,
  " ca": 1044,
  "abbit": 1045,
  "ary": 1046,
  "vent": 1047,
  " Let": 1048,
  "ree": 1049,
  " truck": 1050,
  " de": 1051,
  " wo": 1052,
  "ished": 1053,
  " Kitty": 1054,
  " mouse": 1055,
  " rabbit": 1056,
  "be": 1057,
  "dded": 1058,
  " ate": 1059,
  "ress": 1060,
  "iss": 1061,
  " Fluffy": 1062,
  " lost": 1063,
  " warm": 1064,
  " slide": 1065,
  " face": 1066,
  " brave": 1067,
  " game": 1068,
  " Wh": 1069,
  " keep": 1070,
  " fell": 1071,
  " leave": 1072,
  "fore": 1073,
  " flowers": 1074,
  " two": 1075,
  " cook": 1076,
  "owl": 1077,
  " bed": 1078,
  " cry": 1079,
  " pus": 1080,
  "illy": 1081,
  "so": 1082,
  "ock": 1083,
  " soon": 1084,
  " noise": 1085,
  " green": 1086,
  " also": 1087,
  " R": 1088,
  "That": 1089,
  " bunny": 1090,
  "ear": 1091,
  " nodded": 1092,
  " where": 1093,
  "gan": 1094,
  "self": 1095,
  " fix": 1096,
  " sat": 1097,
  " having": 1098,
  "ired": 1099,
  "Hi": 1100,
  " yell": 1101,
  " before": 1102,
  " kept": 1103,
  "”": 1104,
  " hole": 1105,
  " pain": 1106,
  "“": 1107,
  " hear": 1108,
  "ble": 1109,
  "day": 1110,
  " store": 1111,
  "What": 1112,
  " hands": 1113,
  " catch": 1114,
  "Look": 1115,
  " use": 1116,
  "irrel": 1117,
  "Then": 1118,
  " fin": 1119,
  " sing": 1120,
  "az": 1121,
  "irst": 1122,
  " used": 1123,
  " mommy": 1124,
  " expl": 1125,
  " thr": 1126,
  " funny": 1127,
  " squirrel": 1128,
  " birds": 1129,
  "Ben": 1130,
  " Now": 1131,
  " cra": 1132,
  " looking": 1133,
  "uch": 1134,
  " ey": 1135,
  " tired": 1136,
  " going": 1137,
  " wait": 1138,
  " bre": 1139,
  " kit": 1140,
  "oy": 1141,
  "eet": 1142,
  "aybe": 1143,
  "leep": 1144,
  " mean": 1145,
  "ange": 1146,
  "thing": 1147,
  "ught": 1148,
  " our": 1149,
  "led": 1150,
  " pull": 1151,
  "air": 1152,
  " dif": 1153,
  " fav": 1154,
  " sunny": 1155,
  " tri": 1156,
  " pond": 1157,
  "ember": 1158,
  " Can": 1159,
  " has": 1160,
  " kitc": 1161,
  " kitchen": 1162,
  " wr": 1163,
  " party": 1164,
  " think": 1165,
  "ting": 1166,
  " ice": 1167,
  " flo": 1168,
  " Jo": 1169,
  "orn": 1170,
  " work": 1171,
  " head": 1172,
  "ac": 1173,
  "We": 1174,
  "uit": 1175,
  " bus": 1176,
  " worked": 1177,
  " mess": 1178,
  " dr": 1179,
  "ng": 1180,
  " real": 1181,
  " Do": 1182,
  "zy": 1183,
  "ious": 1184,
  "hn": 1185,
  " okay": 1186,
  " others": 1187,
  " sound": 1188,
  "llow": 1189,
  "ft": 1190,
  " moral": 1191,
  " beh": 1192,
  " eyes": 1193,
  "ath": 1194,
  " sand": 1195,
  " advent": 1196,
  " talk": 1197,
  " shared": 1198,
  "rew": 1199,
  " z": 1200,
  " remember": 1201,
  " “": 1202,
  " favor": 1203,
  "joy": 1204,
  "ma": 1205,
  " favorite": 1206,
  "ello": 1207,
  " ask": 1208,
  " right": 1209,
  "Hello": 1210,
  " curi": 1211,
  " cut": 1212,
  " cold": 1213,
  " ri": 1214,
  " hop": 1215,
  " con": 1216,
  " import": 1217,
  " hill": 1218,
  " mon": 1219,
  "lly": 1220,
  " dir": 1221,
  "imes": 1222,
  " making": 1223,
  " enjoy": 1224,
  " curious": 1225,
  " follow": 1226,
  " vo": 1227,
  " pie": 1228,
  " bright": 1229,
  " yard": 1230,
  " G": 1231,
  " flower": 1232,
  "At": 1233,
  "ken": 1234,
  " sweet": 1235,
  "Don": 1236,
  " move": 1237,
  "reed": 1238,
  " duck": 1239,
  " dis": 1240,
  " rest": 1241,
  " own": 1242,
  " draw": 1243,
  " first": 1244,
  " important": 1245,
  " top": 1246,
  " Jack": 1247,
  " cla": 1248,
  " sho": 1249,
  " began": 1250,
  " tall": 1251,
  " pick": 1252,
  " block": 1253,
  " watched": 1254,
  "ount": 1255,
  " sleep": 1256,
  " bel": 1257,
  " lady": 1258,
  "After": 1259,
  " night": 1260,
  " thing": 1261,
  "Wow": 1262,
  "ied": 1263,
  " race": 1264,
  "ster": 1265,
  " tail": 1266,
  " hot": 1267,
  "fere": 1268,
  " hid": 1269,
  " hun": 1270,
  " differe": 1271,
  " agreed": 1272,
  " floor": 1273,
  " shout": 1274,
  " here": 1275,
  " stop": 1276,
  "ect": 1277,
  " forg": 1278,
  " This": 1279,
  " dark": 1280,
  " bag": 1281,
  " grass": 1282,
  " worry": 1283,
  "ign": 1284,
  " song": 1285,
  " table": 1286,
  " tast": 1287,
  " tell": 1288,
  " needed": 1289,
  " prin": 1290,
  "que": 1291,
  " leaves": 1292,
  " voice": 1293,
  "aring": 1294,
  " yellow": 1295,
  " read": 1296,
  " farm": 1297,
  "aper": 1298,
  " Fin": 1299,
  " ru": 1300,
  " trees": 1301,
  " dress": 1302,
  " hair": 1303,
  " swing": 1304,
  "Why": 1305,
  " different": 1306,
  " del": 1307,
  " adventure": 1308,
  " walking": 1309,
  " turned": 1310,
  " surprise": 1311,
  " please": 1312,
  "’": 1313,
  " Mr": 1314,
  " hungry": 1315,
  "Max": 1316,
  " cars": 1317,
  " does": 1318,
  " Suddenly": 1319,
  " colors": 1320,
  " Dad": 1321,
  "oom": 1322,
  "Suddenly": 1323,
  " laugh": 1324,
  "bo": 1325,
  "Sue": 1326,
  " closer": 1327,
  "ached": 1328,
  " pretend": 1329,
  "Sam": 1330,
  " lion": 1331,
  "co": 1332,
  "ient": 1333,
  "ered": 1334,
  "ila": 1335,
  " broken": 1336,
  " prom": 1337,
  " cried": 1338,
  " wood": 1339,
  "bye": 1340,
  " wet": 1341,
  " piece": 1342,
  " friendly": 1343,
  " Timmy": 1344,
  " full": 1345,
  " behind": 1346,
  " train": 1347,
  "isy": 1348,
  " dance": 1349,
  "Anna": 1350,
  "ppy": 1351,
  " climbed": 1352,
  " touch": 1353,
  " another": 1354,
  " danc": 1355,
  " gone": 1356,
  "af": 1357,
  "where": 1358,
  " apple": 1359,
  " smell": 1360,
  "bbed": 1361,
  " swim": 1362,
  " ste": 1363,
  " blocks": 1364,
  "cked": 1365,
  "So": 1366,
  " feeling": 1367,
  "ater": 1368,
  "sh": 1369,
  " That": 1370,
  " paper": 1371,
  " amaz": 1372,
  "She": 1373,
  " As": 1374,
  " ant": 1375,
  " butter": 1376,
  " per": 1377,
  " running": 1378,
  " Jane": 1379,
  " reached": 1380,
  " helping": 1381,
  " listened": 1382,
  " fair": 1383,
  " goodbye": 1384,
  "iced": 1385,
  " ready": 1386,
  " hold": 1387,
  " only": 1388,
  "av": 1389,
  " light": 1390,
  " ac": 1391,
  "ray": 1392,
  "aby": 1393,
  "ike": 1394,
  " O": 1395,
  " roll": 1396,
  "Sara": 1397,
  " cream": 1398,
  " Bobo": 1399,
  " repl": 1400,
  " dri": 1401,
  " pushed": 1402,
  "key": 1403,
  " sit": 1404,
  " fight": 1405,
  " slow": 1406,
  " plan": 1407,
  " close": 1408,
  "red": 1409,
  " All": 1410,
  " less": 1411,
  " done": 1412,
  "pe": 1413,
  " wag": 1414,
  " wall": 1415,
  " owl": 1416,
  " cool": 1417,
  " must": 1418,
  " sees": 1419,
  " glad": 1420,
  " fruit": 1421,
  " wise": 1422,
  "ield": 1423,
  " tiny": 1424,
  " wonder": 1425,
  " moment": 1426,
  " trying": 1427,
  " stuck": 1428,
  "ather": 1429,
  " dream": 1430,
  " through": 1431,
  " din": 1432,
  "In": 1433,
  "ash": 1434,
  " pen": 1435,
  " wished": 1436,
  " fire": 1437,
  "ames": 1438,
  " reach": 1439,
  " thank": 1440,
  " bar": 1441,
  " been": 1442,
  " baby": 1443,
  " explore": 1444,
  " join": 1445,
  " window": 1446,
  "ott": 1447,
  " looks": 1448,
  " doing": 1449,
  " Everyone": 1450,
  " ar": 1451,
  " buy": 1452,
  " bit": 1453,
  " shouted": 1454,
  " air": 1455,
  " build": 1456,
  " hide": 1457,
  "Mia": 1458,
  " Mommy": 1459,
  " nest": 1460,
  " swam": 1461,
  " scary": 1462,
  " fall": 1463,
  " coming": 1464,
  " cloud": 1465,
  " bran": 1466,
  " land": 1467,
  "oney": 1468,
  " blew": 1469,
  " win": 1470,
  " seen": 1471,
  " perf": 1472,
  "andy": 1473,
  "ask": 1474,
  " dirty": 1475,
  " child": 1476,
  " books": 1477,
  " held": 1478,
  "avy": 1479,
  "ph": 1480,
  " bigger": 1481,
  " replied": 1482,
  " quick": 1483,
  " left": 1484,
  " mat": 1485,
  " underst": 1486,
  "ely": 1487,
  " might": 1488,
  " treat": 1489,
  " colorful": 1490,
  "ndma": 1491,
  " pulled": 1492,
  " grabbed": 1493,
  " turns": 1494,
  " why": 1495,
  "Okay": 1496,
  " butterf": 1497,
  " dro": 1498,
  "ized": 1499,
  " remembered": 1500,
  "icy": 1501,
  " fill": 1502,
  " name": 1503,
  " cup": 1504,
  " chair": 1505,
  "ucky": 1506,
  " cast": 1507,
  " broke": 1508,
  "orm": 1509,
  " sometimes": 1510,
  " count": 1511,
  " three": 1512,
  " sure": 1513,
  "aisy": 1514,
  " spl": 1515,
  "ation": 1516,
  "oup": 1517,
  " hopped": 1518,
  " pink": 1519,
  " stayed": 1520,
  "ton": 1521,
  " snow": 1522,
  " job": 1523,
  " clapped": 1524,
  "up": 1525,
  "Oh": 1526,
  " games": 1527,
  " bott": 1528,
  "der": 1529,
  " gif": 1530,
  "ee": 1531,
  " waited": 1532,
  " There": 1533,
  "'re": 1534,
  " plant": 1535,
  " grow": 1536,
  " noticed": 1537,
  " lesson": 1538,
  " balloon": 1539,
  " anything": 1540,
  "ix": 1541,
  " pictures": 1542,
  " woods": 1543,
  "outh": 1544,
  " mouth": 1545,
  " paint": 1546,
  " After": 1547,
  "uddy": 1548,
  " waved": 1549,
  " set": 1550,
  " enjoyed": 1551,
  "ower": 1552,
  "room": 1553,
  " alone": 1554,
  " spot": 1555,
  " pot": 1556,
  " cont": 1557,
  "Jo": 1558,
  "This": 1559,
  " sea": 1560,
  " brother": 1561,
  " likes": 1562,
  "ds": 1563,
  "art": 1564,
  "oun": 1565,
  "amp": 1566,
  "Her": 1567,
  " tight": 1568,
  " year": 1569,
  " threw": 1570,
  "\".": 1571,
  " heavy": 1572,
  " white": 1573,
  " followed": 1574,
  " quickly": 1575,
  " gent": 1576,
  " butterfly": 1577,
  "ins": 1578,
  " cookies": 1579,
  " miss": 1580,
  "Spot": 1581,
  " deep": 1582,
  "ape": 1583,
  " ju": 1584,
  "asure": 1585,
  " everywhere": 1586,
  "de": 1587,
  "Lucy": 1588,
  " bee": 1589,
  "ze": 1590,
  " pat": 1591,
  " John": 1592,
  "ries": 1593,
  "aught": 1594,
  " mar": 1595,
  "Bob": 1596,
  " world": 1597,
  "ister": 1598,
  "cle": 1599,
  " clot": 1600,
  " wrong": 1601,
  " clothes": 1602,
  " castle": 1603,
  " cre": 1604,
  " wear": 1605,
  "less": 1606,
  " pu": 1607,
  "lc": 1608,
  "ross": 1609,
  " button": 1610,
  " mum": 1611,
  " leaf": 1612,
  "olly": 1613,
  "iet": 1614,
  " Buddy": 1615,
  " nap": 1616,
  "ner": 1617,
  " quiet": 1618,
  " key": 1619,
  " mix": 1620,
  "arent": 1621,
  " makes": 1622,
  "ang": 1623,
  " brought": 1624,
  " round": 1625,
  " parent": 1626,
  "row": 1627,
  "ully": 1628,
  " wants": 1629,
  "ued": 1630,
  "rot": 1631,
  " Daisy": 1632,
  " himself": 1633,
  " well": 1634,
  "os": 1635,
  " won": 1636,
  " delic": 1637,
  " ride": 1638,
  " field": 1639,
  "man": 1640,
  " danced": 1641,
  " break": 1642,
  " arm": 1643,
  " tower": 1644,
  " Lila": 1645,
  " sign": 1646,
  "Do": 1647,
  " What": 1648,
  "fully": 1649,
  " snack": 1650,
  " hit": 1651,
  "thy": 1652,
  " drag": 1653,
  " faster": 1654,
  " gift": 1655,
  " king": 1656,
  " talked": 1657,
  " forgot": 1658,
  " wish": 1659,
  " leg": 1660,
  " beach": 1661,
  "gg": 1662,
  " river": 1663,
  " sister": 1664,
  " mus": 1665,
  "cess": 1666,
  " finished": 1667,
  "ence": 1668,
  " branch": 1669,
  " comp": 1670,
  " dry": 1671,
  "leph": 1672,
  "ves": 1673,
  " sharing": 1674,
  "itten": 1675,
  "cy": 1676,
  "From": 1677,
  " Inside": 1678,
  " pol": 1679,
  " bike": 1680,
  "vel": 1681,
  " dinner": 1682,
  " dragon": 1683,
  " fur": 1684,
  "ards": 1685,
  " danger": 1686,
  " ra": 1687,
  " rel": 1688,
  " em": 1689,
  " really": 1690,
  " bor": 1691,
  " understand": 1692,
  " vis": 1693,
  "ipp": 1694,
  " shin": 1695,
  "ance": 1696,
  " To": 1697,
  " black": 1698,
  "John": 1699,
  " bottle": 1700,
  "ren": 1701,
  " monkey": 1702,
  " fox": 1703,
  "His": 1704,
  " monster": 1705,
  "eddy": 1706,
  " pig": 1707,
  " At": 1708,
  " smart": 1709,
  " poin": 1710,
  " contin": 1711,
  " rocks": 1712,
  " worried": 1713,
  " carefully": 1714,
  " gu": 1715,
  "Amy": 1716,
  " bowl": 1717,
  " someone": 1718,
  "ctor": 1719,
  "imi": 1720,
  " fairy": 1721,
  " att": 1722,
  " today": 1723,
  "ast": 1724,
  " filled": 1725,
  " eating": 1726,
  " pudd": 1727,
  " side": 1728,
  "ush": 1729,
  " el": 1730,
  " welc": 1731,
  "ses": 1732,
  " gi": 1733,
  " cow": 1734,
  " boun": 1735,
  " snake": 1736,
  " brown": 1737,
  "itting": 1738,
  "ead": 1739,
  " whe": 1740,
  " promised": 1741,
  " fan": 1742,
  "While": 1743,
  " happen": 1744,
  " pet": 1745,
  " silly": 1746,
  " everything": 1747,
  "Just": 1748,
  " yes": 1749,
  " res": 1750,
  "ts": 1751,
  " parents": 1752,
  " Soon": 1753,
  " Maybe": 1754,
  " soup": 1755,
  " visit": 1756,
  " music": 1757,
  " letter": 1758,
  " mud": 1759,
  " else": 1760,
  "ated": 1761,
  " free": 1762,
  " pieces": 1763,
  " children": 1764,
  " road": 1765,
  "stead": 1766,
  " bite": 1767,
  " continued": 1768,
  " shop": 1769,
  " sang": 1770,
  " talking": 1771,
  "Fin": 1772,
  " perfect": 1773,
  " kite": 1774,
  " flying": 1775,
  " egg": 1776,
  "zz": 1777,
  " smiles": 1778,
  " realized": 1779,
  " throw": 1780,
  " Billy": 1781,
  " mail": 1782,
  " ear": 1783,
  " Sarah": 1784,
  " words": 1785,
  "ord": 1786,
  " Em": 1787,
  ".”": 1788,
  " amazing": 1789,
  " laughing": 1790,
  " jar": 1791,
  "cket": 1792,
  " wagged": 1793,
  " orange": 1794,
  " que": 1795,
  " moved": 1796,
  " sec": 1797,
  " sitting": 1798,
  " enough": 1799,
  " closed": 1800,
  " Z": 1801,
  " pass": 1802,
  "ey": 1803,
  " shining": 1804,
  " without": 1805,
  " mother": 1806,
  " smo": 1807,
  "gly": 1808,
  " crab": 1809,
  " stand": 1810,
  " buck": 1811,
  " dangerous": 1812,
  " rope": 1813,
  " sail": 1814,
  "fort": 1815,
  " secret": 1816,
  " barked": 1817,
  " strange": 1818,
  " bath": 1819,
  " stu": 1820,
  " tasty": 1821,
  " drink": 1822,
  " Mimi": 1823,
  "unch": 1824,
  " ve": 1825,
  " welcome": 1826,
  "ella": 1827,
  "fish": 1828,
  " paw": 1829,
  "used": 1830,
  "board": 1831,
  "iver": 1832,
  " crying": 1833,
  " past": 1834,
  " whist": 1835,
  " heal": 1836,
  " ce": 1837,
  "ises": 1838,
  " lon": 1839,
  " candy": 1840,
  " living": 1841,
  " -": 1842,
  " higher": 1843,
  " lonely": 1844,
  "ches": 1845,
  "Maybe": 1846,
  " owner": 1847,
  " Ch": 1848,
  " pre": 1849,
  " shoes": 1850,
  " belie": 1851,
  " farmer": 1852,
  " sack": 1853,
  " morning": 1854,
  "Please": 1855,
  "chool": 1856,
  "ato": 1857,
  "arm": 1858,
  " tom": 1859,
  " Jen": 1860,
  " delicious": 1861,
  " swings": 1862,
  "gy": 1863,
  " purp": 1864,
  "ract": 1865,
  " school": 1866,
  " scream": 1867,
  "llie": 1868,
  "isk": 1869,
  " teac": 1870,
  " finally": 1871,
  " push": 1872,
  "ible": 1873,
  " rolled": 1874,
  " grandma": 1875,
  " stone": 1876,
  " ph": 1877,
  "!”": 1878,
  " puddle": 1879,
  "lephant": 1880,
  "Mommy": 1881,
  "lder": 1882,
  " dolls": 1883,
  " stre": 1884,
  "ich": 1885,
  " Bl": 1886,
  "me": 1887,
  " getting": 1888,
  " blank": 1889,
  " purple": 1890,
  " asks": 1891,
  "ama": 1892,
  " lake": 1893,
  "ire": 1894,
  "asket": 1895,
  "lla": 1896,
  " years": 1897,
  " trou": 1898,
  " shell": 1899,
  " mad": 1900,
  " blanket": 1901,
  " caught": 1902,
  "ased": 1903,
  " corn": 1904,
  " treasure": 1905,
  "set": 1906,
  " runs": 1907,
  " money": 1908,
  " wore": 1909,
  " basket": 1910,
  "ub": 1911,
  " hoped": 1912,
  "ons": 1913,
  " pile": 1914,
  "iskers": 1915,
  " same": 1916,
  " Joe": 1917,
  " singing": 1918,
  "eo": 1919,
  " herself": 1920,
  "app": 1921,
  " wings": 1922,
  " pers": 1923,
  " apples": 1924,
  "cks": 1925,
  " cute": 1926,
  " ben": 1927,
  "br": 1928,
  " je": 1929,
  " Tommy": 1930,
  " mine": 1931,
  " bat": 1932,
  " plane": 1933,
  "igh": 1934,
  " gentle": 1935,
  " carrot": 1936,
  " cray": 1937,
  " teacher": 1938,
  " elephant": 1939,
  " coat": 1940,
  " dropped": 1941,
  " balls": 1942,
  " sear": 1943,
  " pill": 1944,
  " start": 1945,
  " fit": 1946,
  " days": 1947,
  " teddy": 1948,
  "thday": 1949,
  "irthday": 1950,
  " cour": 1951,
  " doctor": 1952,
  "Finally": 1953,
  " course": 1954,
  " war": 1955,
  "ined": 1956,
  " forever": 1957,
  "aughty": 1958,
  " woke": 1959,
  " joy": 1960,
  " hiding": 1961,
  " naughty": 1962,
  " seed": 1963,
  " card": 1964,
  " promise": 1965,
  " bring": 1966,
  " min": 1967,
  " Whiskers": 1968,
  "ilk": 1969,
  " arri": 1970,
  " most": 1971,
  " teach": 1972,
  " cookie": 1973,
  " spin": 1974,
  " cr": 1975,
  " band": 1976,
  "umpy": 1977,
  " chee": 1978,
  " shap": 1979,
  "ator": 1980,
  " fence": 1981,
  "ol": 1982,
  " Blue": 1983,
  " Gra": 1984,
  " bush": 1985,
  " rob": 1986,
  " thinks": 1987,
  " shr": 1988,
  " milk": 1989,
  " lunch": 1990,
  " eas": 1991,
  " ugly": 1992,
  " birthday": 1993,
  " nose": 1994,
  "arp": 1995,
  " touc": 1996,
  " juice": 1997,
  " Thank": 1998,
  "ose": 1999,
  " vill": 2000,
  " ob": 2001,
  " grew": 2002,
  " bow": 2003,
  " belong": 2004,
  " pop": 2005,
  " shapes": 2006,
  " ans": 2007,
  " answ": 2008,
  "fused": 2009,
  " Fred": 2010,
  " sharp": 2011,
  "itch": 2012,
  "ipped": 2013,
  " creat": 2014,
  "ass": 2015,
  "ail": 2016,
  " heart": 2017,
  " young": 2018,
  " bench": 2019,
  "umber": 2020,
  "irt": 2021,
  "sy": 2022,
  " street": 2023,
  " Bella": 2024,
  "ier": 2025,
  " Leo": 2026,
  "bow": 2027,
  "'ll": 2028,
  " seem": 2029,
  " bone": 2030,
  "Jack": 2031,
  " able": 2032,
  "erry": 2033,
  " mark": 2034,
  " late": 2035,
  " wra": 2036,
  "eter": 2037,
  "sc": 2038,
  "ball": 2039,
  "ale": 2040,
  " believe": 2041,
  " rocket": 2042,
  " bucket": 2043,
  " zoom": 2044,
  " bread": 2045,
  " coin": 2046,
  " robot": 2047,
  " dirt": 2048,
  " magical": 2049,
  " pocket": 2050,
  " power": 2051,
  " touched": 2052,
  " spoon": 2053,
  " kiss": 2054,
  " shy": 2055,
  " inc": 2056,
  " slowly": 2057,
  " busy": 2058,
  " shook": 2059,
  " twins": 2060,
  " kitten": 2061,
  " arrived": 2062,
  " cheered": 2063,
  " prob": 2064,
  " feels": 2065,
  " shake": 2066,
  " craw": 2067,
  " lem": 2068,
  " carry": 2069,
  " seat": 2070,
  " neck": 2071,
  " trip": 2072,
  " storm": 2073,
  " amazed": 2074,
  "ling": 2075,
  " spo": 2076,
  "ung": 2077,
  " few": 2078,
  " village": 2079,
  "eared": 2080,
  " bell": 2081,
  "igg": 2082,
  "OK": 2083,
  "lem": 2084,
  "idge": 2085,
  " taking": 2086,
  " patient": 2087,
  " fixed": 2088,
  " grumpy": 2089,
  " stories": 2090,
  " coll": 2091,
  " problem": 2092,
  "oose": 2093,
  " nut": 2094,
  " wheel": 2095,
  "urtle": 2096,
  "ost": 2097,
  " sounds": 2098,
  "Good": 2099,
  " wonderful": 2100,
  " gray": 2101,
  " live": 2102,
  " dist": 2103,
  "irp": 2104,
  " rainbow": 2105,
  "una": 2106,
  " towards": 2107,
  " wave": 2108,
  " huge": 2109,
  " sug": 2110,
  " driver": 2111,
  " rude": 2112,
  " spark": 2113,
  " hor": 2114,
  " cover": 2115,
  " whistle": 2116,
  "fortable": 2117,
  " songs": 2118,
  "ors": 2119,
  " cart": 2120,
  " Mark": 2121,
  " cir": 2122,
  " Momo": 2123,
  " wide": 2124,
  "emy": 2125,
  " sal": 2126,
  "epend": 2127,
  " rec": 2128,
  " des": 2129,
  "Lila": 2130,
  " string": 2131,
  "ens": 2132,
  "unt": 2133,
  " disapp": 2134,
  " treats": 2135,
  "bble": 2136,
  "elly": 2137,
  " suc": 2138,
  "kin": 2139,
  " meet": 2140,
  "pping": 2141,
  " path": 2142,
  " cheese": 2143,
  " holding": 2144,
  " upset": 2145,
  "iling": 2146,
  "alm": 2147,
  " moon": 2148,
  "oph": 2149,
  " turtle": 2150,
  "Be": 2151,
  " worm": 2152,
  " wild": 2153,
  "Of": 2154,
  "ourn": 2155,
  " hugs": 2156,
  " lay": 2157,
  "Sure": 2158,
  " N": 2159,
  " fighting": 2160,
  " grab": 2161,
  " giant": 2162,
  " life": 2163,
  " di": 2164,
  " puppy": 2165,
  " bugs": 2166,
  " peace": 2167,
  " journ": 2168,
  " smooth": 2169,
  "umb": 2170,
  " jew": 2171,
  "ring": 2172,
  " joke": 2173,
  "adow": 2174,
  " note": 2175,
  " ban": 2176,
  " jewel": 2177,
  " Emma": 2178,
  " Just": 2179,
  " noises": 2180,
  " cloth": 2181,
  " smelly": 2182,
  " mist": 2183,
  " honey": 2184,
  " sour": 2185,
  "ountain": 2186,
  " inv": 2187,
  " lucky": 2188,
  " landed": 2189,
  " cou": 2190,
  " ser": 2191,
  "izzy": 2192,
  "ular": 2193,
  "onest": 2194,
  " On": 2195,
  "pper": 2196,
  " net": 2197,
  " rad": 2198,
  " thin": 2199,
  " cave": 2200,
  "St": 2201,
  " princess": 2202,
  " Ann": 2203,
  " beak": 2204,
  " honest": 2205,
  "aur": 2206,
  " drive": 2207,
  "ife": 2208,
  " jelly": 2209,
  " boss": 2210,
  "not": 2211,
  " banan": 2212,
  " part": 2213,
  " chew": 2214,
  "isa": 2215,
  " seek": 2216,
  " cannot": 2217,
  "ery": 2218,
  " missed": 2219,
  " Molly": 2220,
  " act": 2221,
  " stars": 2222,
  " med": 2223,
  " ba": 2224,
  " dogs": 2225,
  "ove": 2226,
  "read": 2227,
  " suddenly": 2228,
  " sick": 2229,
  " ign": 2230,
  " drove": 2231,
  " oven": 2232,
  "sp": 2233,
  " bri": 2234,
  "lower": 2235,
  " splas": 2236,
  " Finally": 2237,
  " tea": 2238,
  " step": 2239,
  " shelf": 2240,
  " exp": 2241,
  "iger": 2242,
  " snowman": 2243,
  " instead": 2244,
  " wasn": 2245,
  " taste": 2246,
  "Hey": 2247,
  " foot": 2248,
  " Dog": 2249,
  " fle": 2250,
  " ducks": 2251,
  " maybe": 2252,
  " across": 2253,
  "ope": 2254,
  "ert": 2255,
  " sel": 2256,
  "Later": 2257,
  " fancy": 2258,
  " sandw": 2259,
  "ateful": 2260,
  " helpful": 2261,
  " adventures": 2262,
  " bought": 2263,
  "est": 2264,
  " organ": 2265,
  " wash": 2266,
  " cross": 2267,
  "ian": 2268,
  "ere": 2269,
  " Remy": 2270,
  " glow": 2271,
  " line": 2272,
  "To": 2273,
  " comes": 2274,
  " grateful": 2275,
  " slid": 2276,
  " forget": 2277,
  " confused": 2278,
  " ash": 2279,
  " pillow": 2280,
  " healthy": 2281,
  " puzz": 2282,
  " change": 2283,
  " spe": 2284,
  "let": 2285,
  "idy": 2286,
  " pract": 2287,
  " dish": 2288,
  " Ollie": 2289,
  " zoo": 2290,
  " stepped": 2291,
  "oomy": 2292,
  " val": 2293,
  "oppy": 2294,
  "erest": 2295,
  " last": 2296,
  " interest": 2297,
  " cap": 2298,
  " lad": 2299,
  " selfish": 2300,
  " cho": 2301,
  " elder": 2302,
  " elderly": 2303,
  " easy": 2304,
  " whole": 2305,
  " working": 2306,
  "ity": 2307,
  " hope": 2308,
  " watching": 2309,
  " sticks": 2310,
  " anyone": 2311,
  "ward": 2312,
  "col": 2313,
  " messy": 2314,
  " calm": 2315,
  " forgive": 2316,
  " team": 2317,
  " takes": 2318,
  " daddy": 2319,
  " chased": 2320,
  " save": 2321,
  " pri": 2322,
  "irpy": 2323,
  "ize": 2324,
  " myster": 2325,
  " weak": 2326,
  "amed": 2327,
  " av": 2328,
  " write": 2329,
  "ever": 2330,
  " ladder": 2331,
  " shirt": 2332,
  "to": 2333,
  " wolf": 2334,
  " tape": 2335,
  "oc": 2336,
  " lemon": 2337,
  " legs": 2338,
  " splash": 2339,
  "pect": 2340,
  " clever": 2341,
  " Sp": 2342,
  " horse": 2343,
  " phone": 2344,
  " feather": 2345,
  " mind": 2346,
  " person": 2347,
  " plants": 2348,
  " longer": 2349,
  " prot": 2350,
  " jog": 2351,
  " stret": 2352,
  "ider": 2353,
  " pour": 2354,
  " tidy": 2355,
  " emp": 2356,
  "ork": 2357,
  " empty": 2358,
  "izz": 2359,
  " Cat": 2360,
  " along": 2361,
  " pan": 2362,
  " later": 2363,
  " bark": 2364,
  "Soon": 2365,
  " seemed": 2366,
  " faces": 2367,
  " boot": 2368,
  " Bu": 2369,
  "Sally": 2370,
  " pretended": 2371,
  " cozy": 2372,
  " lock": 2373,
  "bbles": 2374,
  " sleepy": 2375,
  "ions": 2376,
  " hum": 2377,
  " waiting": 2378,
  " finish": 2379,
  " stir": 2380,
  " saved": 2381,
  "iting": 2382,
  " su": 2383,
  " swimm": 2384,
  "llo": 2385,
  " mach": 2386,
  " ret": 2387,
  "illar": 2388,
  "pillar": 2389,
  "Come": 2390,
  " bounce": 2391,
  " cheer": 2392,
  " Come": 2393,
  " chick": 2394,
  " spicy": 2395,
  "ained": 2396,
  "ually": 2397,
  "?”": 2398,
  " return": 2399,
  " screamed": 2400,
  " goat": 2401,
  " Lisa": 2402,
  " ring": 2403,
  " ent": 2404,
  " Chirpy": 2405,
  "ult": 2406,
  " pool": 2407,
  " fake": 2408,
  " Daddy": 2409,
  " jumping": 2410,
  "den": 2411,
  " supp": 2412,
  " interesting": 2413,
  " such": 2414,
  " clouds": 2415,
  " wondered": 2416,
  " tie": 2417,
  " print": 2418,
  " mistake": 2419,
  " fruits": 2420,
  " Ducky": 2421,
  " pin": 2422,
  "ek": 2423,
  " drank": 2424,
  "unk": 2425,
  " spray": 2426,
  " lift": 2427,
  "ocked": 2428,
  " cater": 2429,
  " caterpillar": 2430,
  " eag": 2431,
  " plate": 2432,
  " though": 2433,
  " bossy": 2434,
  " Together": 2435,
  " stra": 2436,
  "box": 2437,
  "issors": 2438,
  "dge": 2439,
  " onto": 2440,
  " gather": 2441,
  " building": 2442,
  " Benny": 2443,
  " kick": 2444,
  "eth": 2445,
  " drew": 2446,
  " machine": 2447,
  " swimming": 2448,
  " scissors": 2449,
  " rich": 2450,
  " With": 2451,
  "lebr": 2452,
  " TV": 2453,
  " celebr": 2454,
  "ormal": 2455,
  " hidden": 2456,
  " gives": 2457,
  " Ella": 2458,
  " sheep": 2459,
  " St": 2460,
  " number": 2461,
  "ont": 2462,
  " normal": 2463,
  " brush": 2464,
  " wing": 2465,
  " crayons": 2466,
  " furry": 2467,
  " arms": 2468,
  " explor": 2469,
  " lovely": 2470,
  " cleaned": 2471,
  "Kitty": 2472,
  " trouble": 2473,
  " glue": 2474,
  " front": 2475,
  "izza": 2476,
  " penc": 2477,
  "aced": 2478,
  " spider": 2479,
  " My": 2480,
  " pack": 2481,
  " cher": 2482,
  " fing": 2483,
  "ment": 2484,
  " pencil": 2485,
  " Doggy": 2486,
  " sugar": 2487,
  " pointed": 2488,
  " match": 2489,
  " cage": 2490,
  " lar": 2491,
  " appeared": 2492,
  "elp": 2493,
  " Bunny": 2494,
  " Their": 2495,
  " mel": 2496,
  " puts": 2497,
  "urse": 2498,
  " smelled": 2499,
  " prince": 2500,
  " Grandma": 2501,
  "osaur": 2502,
  " gently": 2503,
  " pray": 2504,
  " Luna": 2505,
  "oop": 2506,
  " gate": 2507,
  " sur": 2508,
  "ned": 2509,
  " search": 2510,
  " matter": 2511,
  " dinosaur": 2512,
  " backy": 2513,
  " backyard": 2514,
  " drum": 2515,
  " fear": 2516,
  " fil": 2517,
  "And": 2518,
  " class": 2519,
  " ship": 2520,
  "pa": 2521,
  " circle": 2522,
  " queen": 2523,
  " towel": 2524,
  " gun": 2525,
  " couch": 2526,
  " Go": 2527,
  " van": 2528,
  " smiling": 2529,
  "aughter": 2530,
  " imag": 2531,
  " nearby": 2532,
  " tear": 2533,
  " icy": 2534,
  " ashamed": 2535,
  " yelled": 2536,
  " powerful": 2537,
  " large": 2538,
  " quest": 2539,
  " places": 2540,
  " flag": 2541,
  " Jerry": 2542,
  " Somet": 2543,
  " cri": 2544,
  " wand": 2545,
  " law": 2546,
  "Help": 2547,
  " Why": 2548,
  "lev": 2549,
  " lamp": 2550,
  " wom": 2551,
  " af": 2552,
  " woman": 2553,
  "gest": 2554,
  " carried": 2555,
  "icked": 2556,
  " Mama": 2557,
  "orrow": 2558,
  " mir": 2559,
  " pizza": 2560,
  " daughter": 2561,
  " journey": 2562,
  " wrap": 2563,
  " glass": 2564,
  " trust": 2565,
  " ap": 2566,
  "My": 2567,
  "Stop": 2568,
  " rub": 2569,
  " true": 2570,
  " Jim": 2571,
  " neigh": 2572,
  " gas": 2573,
  "ym": 2574,
  " neighb": 2575,
  " tries": 2576,
  "ones": 2577,
  " bal": 2578,
  "vous": 2579,
  "ror": 2580,
  " ignor": 2581,
  " jeep": 2582,
  " emb": 2583,
  " uni": 2584,
  " unique": 2585,
  " Jill": 2586,
  " expens": 2587,
  " expensive": 2588,
  " fright": 2589,
  " wearing": 2590,
  "isp": 2591,
  " tomorrow": 2592,
  " goes": 2593,
  " If": 2594,
  " hur": 2595,
  " loves": 2596,
  " Be": 2597,
  "itter": 2598,
  " dizzy": 2599,
  " ants": 2600,
  " weird": 2601,
  " saf": 2602,
  " dig": 2603,
  "ced": 2604,
  " mirror": 2605,
  " dancing": 2606,
  " Bobby": 2607,
  " chase": 2608,
  "raid": 2609,
  "ugg": 2610,
  " hello": 2611,
  " these": 2612,
  " afraid": 2613,
  " spring": 2614,
  " reg": 2615,
  " scar": 2616,
  " Br": 2617,
  " nothing": 2618,
  " frightened": 2619,
  " poor": 2620,
  "rass": 2621,
  "arrass": 2622,
  " Tiny": 2623,
  " embarrass": 2624,
  " eager": 2625,
  " test": 2626,
  " unk": 2627,
  " lazy": 2628,
  " whisp": 2629,
  " ner": 2630,
  " cand": 2631,
  "ndpa": 2632,
  "mer": 2633,
  " protect": 2634,
  "iff": 2635,
  " tomato": 2636,
  " dest": 2637,
  " stood": 2638,
  "aw": 2639,
  " nervous": 2640,
  " success": 2641,
  "ness": 2642,
  "nown": 2643,
  " puzzle": 2644,
  " splashed": 2645,
  "bby": 2646,
  " bridge": 2647,
  " unknown": 2648,
  " clay": 2649,
  " pay": 2650,
  " bake": 2651,
  " wip": 2652,
  " wis": 2653,
  " incred": 2654,
  " creative": 2655,
  " impress": 2656,
  " decor": 2657,
  " gold": 2658,
  " gigg": 2659,
  " gen": 2660,
  "ventually": 2661,
  " feet": 2662,
  "ina": 2663,
  " incredible": 2664,
  " Rex": 2665,
  "era": 2666,
  " sandwich": 2667,
  " lead": 2668,
  " sock": 2669,
  " sol": 2670,
  " tent": 2671,
  " teeth": 2672,
  " swan": 2673,
  " useful": 2674,
  "any": 2675,
  " clock": 2676,
  " Mary": 2677,
  " How": 2678,
  " respect": 2679,
  " boring": 2680,
  " steak": 2681,
  " Bear": 2682,
  " Bird": 2683,
  "ute": 2684,
  "ual": 2685,
  " straw": 2686,
  " disco": 2687,
  " square": 2688,
  "berry": 2689,
  " soap": 2690,
  " pres": 2691,
  " mixed": 2692,
  " closet": 2693,
  " fool": 2694,
  "lves": 2695,
  " peaceful": 2696,
  " potato": 2697,
  " knocked": 2698,
  "owed": 2699,
  " mask": 2700,
  " pump": 2701,
  " mysterious": 2702,
  "airs": 2703,
  " famous": 2704,
  " sword": 2705,
  " whale": 2706,
  " burn": 2707,
  "cream": 2708,
  " gener": 2709,
  "upid": 2710,
  "Tommy": 2711,
  " Andy": 2712,
  " bean": 2713,
  " har": 2714,
  " answer": 2715,
  " sold": 2716,
  " shark": 2717,
  " yog": 2718,
  "we": 2719,
  "rated": 2720,
  " 3": 2721,
  " sco": 2722,
  " polite": 2723,
  " Please": 2724,
  " feed": 2725,
  " wouldn": 2726,
  " kicked": 2727,
  " rug": 2728,
  "arl": 2729,
  "cient": 2730,
  "bled": 2731,
  " snacks": 2732,
  " disg": 2733,
  " measure": 2734,
  " jam": 2735,
  " ancient": 2736,
  "erri": 2737,
  "com": 2738,
  " corner": 2739,
  " relie": 2740,
  " blow": 2741,
  " noisy": 2742,
  " space": 2743,
  " esc": 2744,
  "ond": 2745,
  " scarf": 2746,
  " branches": 2747,
  " spread": 2748,
  "ote": 2749,
  "imp": 2750,
  "reen": 2751,
  " chocol": 2752,
  "ormous": 2753,
  " painted": 2754,
  " Don": 2755,
  " stupid": 2756,
  " eggs": 2757,
  " march": 2758,
  " shoe": 2759,
  " rough": 2760,
  "rob": 2761,
  " paws": 2762,
  " wagon": 2763,
  " disgust": 2764,
  " crown": 2765,
  " study": 2766,
  " dead": 2767,
  " frust": 2768,
  " moms": 2769,
  " dug": 2770,
  "uce": 2771,
  "robe": 2772,
  " foolish": 2773,
  " Sometimes": 2774,
  " barn": 2775,
  " terri": 2776,
  " present": 2777,
  " steal": 2778,
  " enormous": 2779,
  " sell": 2780,
  " rare": 2781,
  "enny": 2782,
  " mis": 2783,
  "Dad": 2784,
  " disgusting": 2785,
  " chocolate": 2786,
  " bald": 2787,
  " medic": 2788,
  " banana": 2789,
  " salad": 2790,
  " veget": 2791,
  " vegetable": 2792,
  " understood": 2793,
  " scare": 2794,
  " medicine": 2795,
  " generous": 2796,
  " clap": 2797,
  "ado": 2798,
  " stuff": 2799,
  " hero": 2800,
  "ighed": 2801,
  "edient": 2802,
  "corn": 2803,
  " diff": 2804,
  " diffic": 2805,
  " group": 2806,
  " goose": 2807,
  " bitter": 2808,
  " difficult": 2809,
  " frustrated": 2810,
  " perform": 2811,
  " breath": 2812,
  " Instead": 2813,
  " mush": 2814,
  " Sammy": 2815,
  " roar": 2816,
  " thick": 2817,
  "pes": 2818,
  " melon": 2819,
  " covered": 2820,
  " market": 2821,
  " Pe": 2822,
  " smaller": 2823,
  " shadow": 2824,
  " tick": 2825,
  " obedient": 2826,
  " tasted": 2827,
  "uitar": 2828,
  " ord": 2829,
  " guitar": 2830,
  "roy": 2831,
  "orry": 2832,
  " wake": 2833,
  "port": 2834,
  "mb": 2835,
  " destroy": 2836,
  " lab": 2837,
  "alk": 2838,
  " Some": 2839,
  " hang": 2840,
  " horn": 2841,
  " bored": 2842,
  "asses": 2843,
  " ref": 2844,
  " asleep": 2845,
  " mountain": 2846,
  " mot": 2847,
  "inal": 2848,
  " toug": 2849,
  " standing": 2850,
  " taught": 2851,
  "Timmy": 2852,
  " which": 2853,
  "aking": 2854,
  " relieved": 2855,
  " Brown": 2856,
  "usual": 2857,
  " become": 2858,
  " harm": 2859,
  "land": 2860,
  " tough": 2861,
  " terrible": 2862,
  " joined": 2863,
  " lif": 2864,
  " suit": 2865,
  " mushroom": 2866,
  " exploring": 2867,
  "ungle": 2868,
  " jeal": 2869,
  " jealous": 2870,
  " squash": 2871,
  " moving": 2872,
  " pebble": 2873,
  "atter": 2874,
  " adm": 2875,
  " parrot": 2876,
  " yourself": 2877,
  " knife": 2878,
  " jungle": 2879,
  "als": 2880,
  "iginal": 2881,
  " pumpkin": 2882,
  " discover": 2883,
  "Together": 2884,
  "Here": 2885,
  " clear": 2886,
  " unusual": 2887,
  " asking": 2888,
  " tun": 2889,
  " prize": 2890,
  " spoiled": 2891,
  " dull": 2892,
  " chicken": 2893,
  " sunf": 2894,
  "ulb": 2895,
  "atch": 2896,
  " fat": 2897,
  " nuts": 2898,
  " popcorn": 2899,
  " mighty": 2900,
  " tiger": 2901,
  " hears": 2902,
  " comb": 2903,
  " thoughtful": 2904,
  " fine": 2905,
  " bulb": 2906,
  " seeds": 2907,
  " Poppy": 2908,
  " twist": 2909,
  " vase": 2910,
  "ume": 2911,
  " tool": 2912,
  " stri": 2913,
  "ident": 2914,
  " hay": 2915,
  " sque": 2916,
  "mp": 2917,
  " drop": 2918,
  " fier": 2919,
  " fierce": 2920,
  " original": 2921,
  "rag": 2922,
  " ind": 2923,
  " drawing": 2924,
  " ending": 2925,
  " snee": 2926,
  " Will": 2927,
  " cop": 2928,
  " carrots": 2929,
  " thankful": 2930,
  " island": 2931,
  " embarrassed": 2932,
  " relax": 2933,
  "Inside": 2934,
  " cheap": 2935,
  " muff": 2936,
  " spent": 2937,
  "umsy": 2938,
  " cro": 2939,
  " troubled": 2940,
  " fold": 2941,
  " eng": 2942,
  " knowing": 2943,
  " bloom": 2944,
  " clown": 2945,
  "selves": 2946,
  " mic": 2947,
  " aunt": 2948,
  " sunflower": 2949,
  "comfortable": 2950,
  " balance": 2951,
  " record": 2952,
  " temp": 2953,
  " finding": 2954,
  " frown": 2955,
  "oto": 2956,
  " Tr": 2957,
  "Are": 2958,
  " hats": 2959,
  " chest": 2960,
  " uncomfortable": 2961,
  " lose": 2962,
  " Many": 2963,
  " '": 2964,
  " guess": 2965,
  " shoot": 2966,
  " adventur": 2967,
  "irsty": 2968,
  " exciting": 2969,
  " oce": 2970,
  " ocean": 2971,
  " Al": 2972,
  " Sunny": 2973,
  " cone": 2974,
  " add": 2975,
  "ser": 2976,
  " lifted": 2977,
  " acorn": 2978,
  " stamp": 2979,
  "ilt": 2980,
  "iness": 2981,
  "xible": 2982,
  " Jenny": 2983,
  " trick": 2984,
  "opard": 2985,
  " scatter": 2986,
  " clumsy": 2987,
  " seal": 2988,
  "yal": 2989,
  "dle": 2990,
  " adventurous": 2991,
  " pasta": 2992,
  "angle": 2993,
  " hairy": 2994,
  " wrote": 2995,
  "ages": 2996,
  " cush": 2997,
  "Sorry": 2998,
  " neckl": 2999,
  " necklace": 3000,
  " arrow": 3001,
  " picks": 3002,
  " crazy": 3003,
  " unl": 3004,
  " cats": 3005,
  " loyal": 3006,
  " body": 3007,
  "Where": 3008,
  " harmless": 3009,
  " stubb": 3010,
  " tells": 3011,
  " brace": 3012,
  " comfortable": 3013,
  " hose": 3014,
  " cost": 3015,
  " exam": 3016,
  "erries": 3017,
  " depend": 3018,
  " berries": 3019,
  "ti": 3020,
  " searched": 3021,
  " deliver": 3022,
  " behave": 3023,
  "urkey": 3024,
  "amond": 3025,
  "xious": 3026,
  "iant": 3027,
  "apped": 3028,
  " engine": 3029,
  " organized": 3030,
  " diamond": 3031,
  "aghe": 3032,
  "aghet": 3033,
  "aghetti": 3034,
  " anxious": 3035,
  " stubborn": 3036,
  "ependent": 3037,
  " collect": 3038,
  " crayon": 3039,
  " remind": 3040,
  " mov": 3041,
  " fis": 3042,
  "gu": 3043,
  "Molly": 3044,
  " stretch": 3045,
  " practiced": 3046,
  " Emily": 3047,
  " swe": 3048,
  " scr": 3049,
  " playful": 3050,
  " thirsty": 3051,
  " turkey": 3052,
  "light": 3053,
  " mailbox": 3054,
  " gloomy": 3055,
  " bubbles": 3056,
  " envel": 3057,
  " env": 3058,
  " word": 3059,
  " jug": 3060,
  "anged": 3061,
  " pir": 3062,
  " frag": 3063,
  " tied": 3064,
  "host": 3065,
  " independent": 3066,
  " flexible": 3067,
  " crawl": 3068,
  " bathroom": 3069,
  " police": 3070,
  " barber": 3071,
  "cod": 3072,
  "codile": 3073,
  "ants": 3074,
  " yours": 3075,
  " prun": 3076,
  " spaghetti": 3077,
  " rep": 3078,
  "illa": 3079,
  " raced": 3080,
  "lph": 3081,
  " escape": 3082,
  " crack": 3083,
  " deer": 3084,
  " Even": 3085,
  " pro": 3086,
  " sil": 3087,
  "How": 3088,
  " fragile": 3089,
  " motor": 3090,
  " passed": 3091,
  " pige": 3092,
  " liz": 3093,
  " ghost": 3094,
  " U": 3095,
  " dependable": 3096,
  " celebrate": 3097,
  " deaf": 3098,
  " jolly": 3099,
  " needs": 3100,
  "aff": 3101,
  " wheat": 3102,
  "shine": 3103,
  " While": 3104,
  " stove": 3105,
  " chess": 3106,
  " roof": 3107,
  " dolph": 3108,
  " dove": 3109,
  " rat": 3110,
  " bees": 3111,
  " fig": 3112,
  "io": 3113,
  " crocodile": 3114,
  " brill": 3115,
  " attic": 3116,
  " raven": 3117,
  " flash": 3118,
  " leopard": 3119,
  " stat": 3120,
  "cident": 3121,
  " brilliant": 3122,
  " explained": 3123,
  " painting": 3124,
  " shows": 3125,
  " changed": 3126,
  " sung": 3127,
  " boys": 3128,
  " log": 3129,
  " yarn": 3130,
  " map": 3131,
  " press": 3132,
  "nic": 3133,
  " humble": 3134,
  " colour": 3135,
  " picnic": 3136,
  "Their": 3137,
  " weal": 3138,
  " thu": 3139,
  "ground": 3140,
  "If": 3141,
  " crawled": 3142,
  " zip": 3143,
  " tricks": 3144,
  " board": 3145,
  " shiver": 3146,
  " mill": 3147,
  " er": 3148,
  " envelope": 3149,
  " temple": 3150,
  " ignorant": 3151,
  " using": 3152,
  " choose": 3153,
  "nel": 3154,
  "hip": 3155,
  " sungl": 3156,
  " sunglasses": 3157,
  " cheerful": 3158,
  " avoc": 3159,
  " balloons": 3160,
  " ruined": 3161,
  " frame": 3162,
  " friendship": 3163,
  " hoop": 3164,
  " send": 3165,
  "weet": 3166,
  "iv": 3167,
  "Mama": 3168,
  "Me": 3169,
  " popular": 3170,
  " batter": 3171,
  " raft": 3172,
  " bottom": 3173,
  " counted": 3174,
  " accident": 3175,
  " built": 3176,
  " folder": 3177,
  " pepper": 3178,
  " knee": 3179,
  "inary": 3180,
  "net": 3181,
  "met": 3182,
  " compet": 3183,
  " delicate": 3184,
  " spotted": 3185,
  " rose": 3186,
  " helmet": 3187,
  " stones": 3188,
  "iddle": 3189,
  " pants": 3190,
  " waves": 3191,
  "most": 3192,
  " envious": 3193,
  " kissed": 3194,
  " triangle": 3195,
  " sunshine": 3196,
  " screen": 3197,
  " spill": 3198,
  "ulu": 3199,
  " jack": 3200,
  "igator": 3201,
  " toast": 3202,
  "work": 3203,
  "Every": 3204,
  " lizard": 3205,
  " miser": 3206,
  " miserable": 3207,
  " louder": 3208,
  " cleaning": 3209,
  " trump": 3210,
  " trumpet": 3211,
  "fee": 3212,
  " careless": 3213,
  " Your": 3214,
  " stage": 3215,
  " middle": 3216,
  " sighed": 3217,
  " statue": 3218,
  " pigeon": 3219,
  " tunnel": 3220,
  " vegetables": 3221,
  " harsh": 3222,
  " impressive": 3223,
  " finger": 3224,
  " serious": 3225,
  " almost": 3226,
  " scale": 3227,
  " pow": 3228,
  "ither": 3229,
  " wander": 3230,
  "ying": 3231,
  "Jane": 3232,
  " No": 3233,
  " bracelet": 3234,
  " borrow": 3235,
  " belt": 3236,
  " maze": 3237,
  " hopping": 3238,
  "iable": 3239,
  " alligator": 3240,
  "seum": 3241,
  "offee": 3242,
  " Sh": 3243,
  " sailed": 3244,
  " figure": 3245,
  " earth": 3246,
  " guard": 3247,
  " napkin": 3248,
  " slipped": 3249,
  " museum": 3250,
  " nosy": 3251,
  " meant": 3252,
  " attract": 3253,
  " penny": 3254,
  " compl": 3255,
  " taken": 3256,
  " post": 3257,
  "There": 3258,
  " saus": 3259,
  " washed": 3260,
  " bin": 3261,
  " jacket": 3262,
  " movie": 3263,
  " neighbor": 3264,
  " jellyfish": 3265,
  " reliable": 3266,
  " hurts": 3267,
  " happiness": 3268,
  " rh": 3269,
  " gar": 3270,
  " coffee": 3271,
  " cries": 3272,
  " coo": 3273,
  "Mum": 3274,
  " attractive": 3275,
  " ordinary": 3276,
  " filthy": 3277,
  "ctop": 3278,
  "berries": 3279,
  " knight": 3280,
  " gor": 3281,
  " wealthy": 3282,
  " cushion": 3283,
  " radio": 3284,
  "aser": 3285,
  " shore": 3286,
  " ones": 3287,
  " gem": 3288,
  " cam": 3289,
  " muffin": 3290,
  " belonged": 3291,
  "ipper": 3292,
  " walks": 3293,
  " magnet": 3294,
  " peach": 3295,
  " boxes": 3296,
  "obile": 3297,
  " forward": 3298,
  "utom": 3299,
  "utomobile": 3300,
  " cab": 3301,
  " camera": 3302,
  " gorilla": 3303,
  " poured": 3304,
  " shells": 3305,
  " nod": 3306,
  " locked": 3307,
  " shade": 3308,
  " tag": 3309,
  "live": 3310,
  " cabin": 3311,
  " dolphin": 3312,
  " whispered": 3313,
  " regular": 3314,
  " answered": 3315,
  " persist": 3316,
  " boats": 3317,
  "ipop": 3318,
  " fluffy": 3319,
  " loll": 3320,
  " lollipop": 3321,
  " automobile": 3322,
  "zzy": 3323,
  "pack": 3324,
  " desk": 3325,
  " giving": 3326,
  " drawer": 3327,
  " nods": 3328,
  "ony": 3329,
  " times": 3330,
  "appy": 3331,
  " competit": 3332,
  " sailor": 3333,
  " smoke": 3334,
  " create": 3335,
  " mule": 3336,
  " load": 3337,
  " Miss": 3338,
  " week": 3339,
  " four": 3340,
  "dom": 3341,
  "ctopus": 3342,
  " judge": 3343,
  "coa": 3344,
  " travel": 3345,
  " lotion": 3346,
  " chu": 3347,
  " saying": 3348,
  "uth": 3349,
  " gum": 3350,
  "omes": 3351,
  "cles": 3352,
  " chubby": 3353,
  " shrimp": 3354,
  " Today": 3355,
  " cupboard": 3356,
  " delight": 3357,
  " stronger": 3358,
  " twig": 3359,
  " sniff": 3360,
  "inky": 3361,
  " Jake": 3362,
  " ang": 3363,
  "ete": 3364,
  " witch": 3365,
  " garage": 3366,
  " successful": 3367,
  " returned": 3368,
  " invited": 3369,
  " bubble": 3370,
  " houses": 3371,
  "ict": 3372,
  " libr": 3373,
  " wool": 3374,
  "und": 3375,
  "ging": 3376,
  "Go": 3377,
  " support": 3378,
  " lively": 3379,
  "essie": 3380,
  " needle": 3381,
  " mole": 3382,
  " nicely": 3383,
  " showing": 3384,
  " lean": 3385,
  "urb": 3386,
  " helpless": 3387,
  " persistent": 3388,
  "mbre": 3389,
  " fearful": 3390,
  " grown": 3391,
  "Who": 3392,
  " moder": 3393,
  " alert": 3394,
  " helps": 3395,
  " yet": 3396,
  " umbre": 3397,
  " dough": 3398,
  " squee": 3399,
  " scoot": 3400,
  " solve": 3401,
  " radish": 3402,
  " disturb": 3403,
  " dreams": 3404,
  " trunk": 3405,
  " gets": 3406,
  "ief": 3407,
  " club": 3408,
  " fridge": 3409,
  " shine": 3410,
  "anut": 3411,
  " modern": 3412,
  " cooked": 3413,
  " value": 3414,
  " sleeping": 3415,
  " bedroom": 3416,
  " decide": 3417,
  " octopus": 3418,
  " licked": 3419,
  " Lulu": 3420,
  "anger": 3421,
  " low": 3422,
  " creature": 3423,
  " cere": 3424,
  " bounced": 3425,
  " loudly": 3426,
  " carp": 3427,
  " repe": 3428,
  " wishes": 3429,
  " speak": 3430,
  " speed": 3431,
  " acce": 3432,
  " quar": 3433,
  " ways": 3434,
  " sort": 3435,
  " uncle": 3436,
  "otter": 3437,
  " Sn": 3438,
  " city": 3439,
  " dive": 3440,
  " hive": 3441,
  " base": 3442,
  " sle": 3443,
  " tire": 3444,
  " tank": 3445,
  " otter": 3446,
  " umbrella": 3447,
  " eraser": 3448,
  " thunder": 3449,
  " candle": 3450,
  " split": 3451,
  "azz": 3452,
  " harder": 3453,
  " truth": 3454,
  " learning": 3455,
  "ense": 3456,
  " gym": 3457,
  " hipp": 3458,
  " repair": 3459,
  "Sarah": 3460,
  " ador": 3461,
  " spend": 3462,
  " station": 3463,
  " lit": 3464,
  " cereal": 3465,
  " cherries": 3466,
  " guil": 3467,
  " guilty": 3468,
  " order": 3469,
  " chalk": 3470,
  "ric": 3471,
  " mild": 3472,
  " mop": 3473,
  " father": 3474,
  "xy": 3475,
  "cut": 3476,
  " quarrel": 3477,
  " flashlight": 3478,
  " jewelry": 3479,
  " wheels": 3480,
  " pointing": 3481,
  " vine": 3482,
  " cocoa": 3483,
  "ulif": 3484,
  " jet": 3485,
  " biggest": 3486,
  " thief": 3487,
  "iron": 3488,
  "ye": 3489,
  "oin": 3490,
  "Billy": 3491,
  " adorable": 3492,
  " True": 3493,
  " Rob": 3494,
  " caulif": 3495,
  " cact": 3496,
  " impat": 3497,
  " impatient": 3498,
  " grace": 3499,
  " knot": 3500,
  "tern": 3501,
  " soar": 3502,
  " fountain": 3503,
  " homes": 3504,
  " sink": 3505,
  " ed": 3506,
  " cactus": 3507,
  " carpet": 3508,
  " library": 3509,
  " powder": 3510,
  " happening": 3511,
  " teas": 3512,
  "gen": 3513,
  " sweater": 3514,
  " pengu": 3515,
  " office": 3516,
  " skipped": 3517,
  " forth": 3518,
  " stream": 3519,
  " herb": 3520,
  " case": 3521,
  " fisher": 3522,
  "arming": 3523,
  "Bobo": 3524,
  " Dolly": 3525,
  " grandpa": 3526,
  " flute": 3527,
  " shield": 3528,
  " fork": 3529,
  "keep": 3530,
  " staff": 3531,
  "irit": 3532,
  " half": 3533,
  " lying": 3534,
  " hippo": 3535,
  " handle": 3536,
  " grapes": 3537,
  " charming": 3538,
  " whenever": 3539,
  "oby": 3540,
  "rage": 3541,
  "ory": 3542,
  "isted": 3543,
  "rn": 3544,
  "ject": 3545,
  " cauliflower": 3546,
  " angel": 3547,
  " feathers": 3548,
  " valu": 3549,
  "assion": 3550,
  " counting": 3551,
  " tripped": 3552,
  " skin": 3553,
  "esday": 3554,
  " slept": 3555,
  " avocado": 3556,
  " ticket": 3557,
  " strawberry": 3558,
  "levator": 3559,
  " thinking": 3560,
  " design": 3561,
  " marry": 3562,
  " Peter": 3563,
  " knows": 3564,
  "acht": 3565,
  " themselves": 3566,
  " elevator": 3567,
  " led": 3568,
  " hunt": 3569,
  " tap": 3570,
  "zed": 3571,
  "ped": 3572,
  " competitive": 3573,
  " complain": 3574,
  " dishw": 3575,
  " dishwas": 3576,
  " dishwasher": 3577,
  " wrapped": 3578,
  "lephone": 3579,
  " gifted": 3580,
  " telephone": 3581,
  " spun": 3582,
  " eventually": 3583,
  " yacht": 3584,
  "edy": 3585,
  " shrink": 3586,
  " skip": 3587,
  " excite": 3588,
  " intell": 3589,
  " intellig": 3590,
  " iron": 3591,
  " gathered": 3592,
  " flea": 3593,
  " disappoin": 3594,
  " photo": 3595,
  " compassion": 3596,
  " haircut": 3597,
  " quit": 3598,
  " towers": 3599,
  " tray": 3600,
  " sauce": 3601,
  "Mummy": 3602,
  " pirate": 3603,
  " giggled": 3604,
  " decorate": 3605,
  " Rose": 3606,
  " poem": 3607,
  " pole": 3608,
  " anch": 3609,
  "rill": 3610,
  "ates": 3611,
  " nurse": 3612,
  " deter": 3613,
  " Tweet": 3614,
  " wire": 3615,
  " anchor": 3616,
  " valuable": 3617,
  " cricket": 3618,
  " question": 3619,
  " ears": 3620,
  " restless": 3621,
  " amb": 3622,
  " ambul": 3623,
  " ambulance": 3624,
  "opl": 3625,
  "elery": 3626,
  " shape": 3627,
  " ham": 3628,
  "eropl": 3629,
  " waff": 3630,
  " torn": 3631,
  " toe": 3632,
  " aeropl": 3633,
  "Jim": 3634,
  " determ": 3635,
  " slides": 3636,
  " buttons": 3637,
  " barrel": 3638,
  " hotel": 3639,
  " vide": 3640,
  " yaw": 3641,
  " numb": 3642,
  "Fluffy": 3643,
  " edge": 3644,
  " sett": 3645,
  "ache": 3646,
  " stranger": 3647,
  "aged": 3648,
  "ats": 3649,
  "ision": 3650,
  "Give": 3651,
  " numbers": 3652,
  " unlock": 3653,
  " tears": 3654,
  " pattern": 3655,
  "body": 3656,
  " zipper": 3657,
  " trail": 3658,
  " meal": 3659,
  " shut": 3660,
  "ating": 3661,
  " celery": 3662,
  " bull": 3663,
  " wife": 3664,
  " sight": 3665,
  " compassionate": 3666,
  " disappointed": 3667,
  " intelligent": 3668,
  " fisherman": 3669,
  " Jimmy": 3670,
  " salt": 3671,
  " spinning": 3672,
  " laughs": 3673,
  " ribb": 3674,
  " bushes": 3675,
  " means": 3676,
  " trap": 3677,
  " Boun": 3678,
  " weigh": 3679,
  " pit": 3680,
  "old": 3681,
  " bananas": 3682,
  " cardboard": 3683,
  " comput": 3684,
  " mod": 3685,
  " model": 3686,
  "?\".": 3687,
  " ple": 3688,
  "keeper": 3689,
  " soldier": 3690,
  " surf": 3691,
  "spit": 3692,
  "spital": 3693,
  " juicy": 3694,
  " walls": 3695,
  " Pete": 3696,
  " Kim": 3697,
  " pear": 3698,
  " hospital": 3699,
  " vie": 3700,
  " view": 3701,
  " newsp": 3702,
  " either": 3703,
  " ink": 3704,
  " mug": 3705,
  " Toby": 3706,
  "head": 3707,
  "ophie": 3708,
  "dest": 3709,
  "quit": 3710,
  "quito": 3711,
  " oil": 3712,
  " birdc": 3713,
  " short": 3714,
  " rid": 3715,
  " mitten": 3716,
  " curt": 3717,
  " added": 3718,
  " curtain": 3719,
  " birdcage": 3720,
  " silver": 3721,
  " People": 3722,
  " safely": 3723,
  " succe": 3724,
  " distant": 3725,
  " prep": 3726,
  " pee": 3727,
  " spear": 3728,
  "ention": 3729,
  " nail": 3730,
  " pap": 3731,
  " pal": 3732,
  "nam": 3733,
  "Mr": 3734,
  "'d": 3735,
  " spilled": 3736,
  " crib": 3737,
  " enc": 3738,
  " mos": 3739,
  " mosquito": 3740,
  "ushed": 3741,
  "!\".": 3742,
  " costume": 3743,
  " label": 3744,
  " yogurt": 3745,
  " wiped": 3746,
  " questions": 3747,
  " Buzz": 3748,
  " bikes": 3749,
  "uper": 3750,
  " dreamed": 3751,
  " lights": 3752,
  " painter": 3753,
  " pale": 3754,
  " coins": 3755,
  " rode": 3756,
  "uring": 3757,
  " playground": 3758,
  "utes": 3759,
  " purse": 3760,
  " cob": 3761,
  " bump": 3762,
  " task": 3763,
  " tummy": 3764,
  "ron": 3765,
  "aving": 3766,
  " succeed": 3767,
  " aeroplane": 3768,
  " graceful": 3769,
  " motorcy": 3770,
  " rubber": 3771,
  " minutes": 3772,
  " OK": 3773,
  " pretending": 3774,
  " shocked": 3775,
  " glove": 3776,
  " spirit": 3777,
  "par": 3778,
  " palace": 3779,
  " computer": 3780,
  " sausage": 3781,
  " prov": 3782,
  "ocer": 3783,
  " collar": 3784,
  " falls": 3785,
  " chain": 3786,
  " coal": 3787,
  "opter": 3788,
  "icopter": 3789,
  "urch": 3790,
  " helicopter": 3791,
  " Little": 3792,
  " stack": 3793,
  " itself": 3794,
  "ately": 3795,
  " por": 3796,
  " dust": 3797,
  "inocer": 3798,
  "ait": 3799,
  ",”": 3800,
  "inoceros": 3801,
  "nament": 3802,
  " scooter": 3803,
  "igerator": 3804,
  " cryst": 3805,
  " crystal": 3806,
  " kindness": 3807,
  " ornament": 3808,
  " knob": 3809,
  " pun": 3810,
  "uel": 3811,
  "rigerator": 3812,
  " steps": 3813,
  " packed": 3814,
  " parade": 3815,
  "ucet": 3816,
  " faucet": 3817,
  " golf": 3818,
  " rod": 3819,
  " oak": 3820,
  " gear": 3821,
  " melt": 3822,
  " lime": 3823,
  " Teddy": 3824,
  " ax": 3825,
  " newspaper": 3826,
  " baseball": 3827,
  " refrigerator": 3828,
  "umbled": 3829,
  " eye": 3830,
  " Everywhere": 3831,
  " modest": 3832,
  " vend": 3833,
  " leash": 3834,
  " lie": 3835,
  " those": 3836,
  " hour": 3837,
  " rhinoceros": 3838,
  "levision": 3839,
  " avail": 3840,
  " disappeared": 3841,
  " complet": 3842,
  " brothers": 3843,
  " matt": 3844,
  " driving": 3845,
  " picking": 3846,
  "rework": 3847,
  " hate": 3848,
  " firework": 3849,
  " makeup": 3850,
  " separ": 3851,
  "ugged": 3852,
  " Bill": 3853,
  " lic": 3854,
  "ilot": 3855,
  "ofa": 3856,
  " cable": 3857,
  " fog": 3858,
  " super": 3859,
  "cing": 3860,
  "Is": 3861,
  " license": 3862,
  " video": 3863,
  " Spike": 3864,
  " serve": 3865,
  " resc": 3866,
  "ampoo": 3867,
  " swinging": 3868,
  " Give": 3869,
  " television": 3870,
  " novel": 3871,
  "often": 3872,
  " onion": 3873,
  "stri": 3874,
  " inse": 3875,
  " pine": 3876,
  " sofa": 3877,
  " often": 3878,
  " available": 3879,
  " axe": 3880,
  " determined": 3881,
  " Birdy": 3882,
  " medal": 3883,
  " polish": 3884,
  " cups": 3885,
  " rubbed": 3886,
  " Cl": 3887,
  " church": 3888,
  " spell": 3889,
  " managed": 3890,
  " hall": 3891,
  " math": 3892,
  " hook": 3893,
  "time": 3894,
  "roph": 3895,
  "aked": 3896,
  "Well": 3897,
  "rophone": 3898,
  " porch": 3899,
  " cobwe": 3900,
  " cobweb": 3901,
  " disappear": 3902,
  " sparkly": 3903,
  " missile": 3904,
  " cooler": 3905,
  " bags": 3906,
  " taller": 3907,
  " drawings": 3908,
  " Fo": 3909,
  " alarm": 3910,
  " meadow": 3911,
  " screw": 3912,
  " Mum": 3913,
  " Bet": 3914,
  " vendor": 3915,
  " penguin": 3916,
  " diary": 3917,
  " bandage": 3918,
  " ward": 3919,
  " wardrobe": 3920,
  " batht": 3921,
  " bathtub": 3922,
  " basketball": 3923,
  " bookshe": 3924,
  " metal": 3925,
  " climbing": 3926,
  " growl": 3927,
  " hoc": 3928,
  " hockey": 3929,
  " stared": 3930,
  "stairs": 3931,
  "arry": 3932,
  " ig": 3933,
  " igl": 3934,
  " igloo": 3935,
  " bookshelf": 3936,
  " battery": 3937,
  " hurry": 3938,
  " gasped": 3939,
  " cherry": 3940,
  " enth": 3941,
  " enthus": 3942,
  " enthusia": 3943,
  " miner": 3944,
  " veil": 3945,
  " Johnny": 3946,
  " rolling": 3947,
  " rice": 3948,
  " alre": 3949,
  " already": 3950,
  " meat": 3951,
  " ostri": 3952,
  " thread": 3953,
  "erc": 3954,
  " may": 3955,
  "Bye": 3956,
  " insect": 3957,
  " papers": 3958,
  " hunter": 3959,
  " Snow": 3960,
  " stretched": 3961,
  " organize": 3962,
  " stud": 3963,
  " explain": 3964,
  " Pipp": 3965,
  " magaz": 3966,
  " grape": 3967,
  " swung": 3968,
  " knock": 3969,
  " root": 3970,
  " rise": 3971,
  " itch": 3972,
  "omed": 3973,
  " comet": 3974,
  "Wait": 3975,
  "Re": 3976,
  " mattress": 3977,
  " motorcycle": 3978,
  " microphone": 3979,
  " object": 3980,
  "affe": 3981,
  "istol": 3982,
  " ok": 3983,
  " notice": 3984,
  "verse": 3985,
  " mummy": 3986,
  " lumber": 3987,
  " bicy": 3988,
  "See": 3989,
  "Al": 3990,
  " encou": 3991,
  "ricane": 3992,
  " arg": 3993,
  " dreaming": 3994,
  " mustache": 3995,
  " realised": 3996,
  " cooking": 3997,
  " impro": 3998,
  " snap": 3999,
  " flame": 4000,
  " exerc": 4001,
  " reward": 4002,
  " pistol": 4003,
  " pilot": 4004,
  " dess": 4005,
  "nger": 4006,
  " jokes": 4007,
  " suggest": 4008,
  " Zoomy": 4009,
  " blackboard": 4010,
  "lcan": 4011,
  " winter": 4012,
  " wallet": 4013,
  " volcan": 4014,
  " troph": 4015,
  " unpack": 4016,
  " flour": 4017,
  "ometer": 4018,
  " sheet": 4019,
  " fought": 4020,
  "aul": 4021,
  "Gra": 4022,
  " bicycle": 4023,
  "iano": 4024,
  " network": 4025,
  " pastry": 4026,
  " buckle": 4027,
  " falling": 4028,
  "aches": 4029,
  "ipe": 4030,
  "rmometer": 4031,
  " peanut": 4032,
  " blin": 4033,
  " Lee": 4034,
  "lter": 4035,
  " trophy": 4036,
  " volcano": 4037,
  " trucks": 4038,
  " calling": 4039,
  " vi": 4040,
  " sunset": 4041,
  " shampoo": 4042,
  " rake": 4043,
  " camp": 4044,
  " bent": 4045,
  "aid": 4046,
  "Ouch": 4047,
  " ostrich": 4048,
  " pressed": 4049,
  " practice": 4050,
  " attach": 4051,
  " beef": 4052,
  " drain": 4053,
  " Pandy": 4054,
  "aky": 4055,
  "asing": 4056,
  " neat": 4057,
  " weep": 4058,
  " stom": 4059,
  " piano": 4060,
  " hours": 4061,
  " hammer": 4062,
  " teasp": 4063,
  " teaspoon": 4064,
  " hanging": 4065,
  " apron": 4066,
  " package": 4067,
  " human": 4068,
  "angu": 4069,
  " trains": 4070,
  " sweetie": 4071,
  " bury": 4072,
  " poke": 4073,
  " mem": 4074,
  "ured": 4075,
  " shelter": 4076,
  " stable": 4077,
  "lies": 4078,
  " discovered": 4079,
  " crane": 4080,
  "angar": 4081,
  "angaroo": 4082,
  " marched": 4083,
  " patch": 4084,
  "bol": 4085,
  " enjoying": 4086,
  " message": 4087,
  " squirrels": 4088,
  " track": 4089,
  " offered": 4090,
  " sne": 4091,
  " blouse": 4092,
  " against": 4093,
  "ummer": 4094,
  " kangaroo": 4095,
  " rag": 4096,
  " ins": 4097,
  " hut": 4098,
  " sym": 4099,
  " ow": 4100,
  " symbol": 4101,
  " magazine": 4102,
  " prunes": 4103,
  " passport": 4104,
  " early": 4105,
  "ctory": 4106,
  " displ": 4107,
  " display": 4108,
  " skirt": 4109,
  " skull": 4110,
  " factory": 4111,
  " ur": 4112,
  "igz": 4113,
  "igzag": 4114,
  " langu": 4115,
  " lend": 4116,
  " tu": 4117,
  " tube": 4118,
  " peeked": 4119,
  " excitement": 4120,
  " fingers": 4121,
  " prevent": 4122,
  " holds": 4123,
  " shovel": 4124,
  " frogs": 4125,
  " Fro": 4126,
  " stairs": 4127,
  "ature": 4128,
  " nation": 4129,
  " fuel": 4130,
  " dessert": 4131,
  " enthusiast": 4132,
  " enthusiastic": 4133,
  " accidentally": 4134,
  " journal": 4135,
  " bathe": 4136,
  " Zip": 4137,
  " castles": 4138,
  " perm": 4139,
  " check": 4140,
  " univer": 4141,
  " Bessie": 4142,
  " lip": 4143,
  " Look": 4144,
  " once": 4145,
  " rot": 4146,
  " cell": 4147,
  " son": 4148,
  " ten": 4149,
  "Little": 4150,
  " yoga": 4151,
  " football": 4152,
  " freez": 4153,
  " opens": 4154,
  " cube": 4155,
  " popped": 4156,
  " Dan": 4157,
  " kne": 4158,
  " oy": 4159,
  " junk": 4160,
  " happier": 4161,
  "kele": 4162,
  "keleton": 4163,
  " theater": 4164,
  " Buzzy": 4165,
  " zoomed": 4166,
  " bathrobe": 4167,
  " growing": 4168,
  " matches": 4169,
  " reading": 4170,
  " telling": 4171,
  "ffic": 4172,
  " loop": 4173,
  " allowed": 4174,
  " shaking": 4175,
  " Here": 4176,
  " hedge": 4177,
  " pipe": 4178,
  " cord": 4179,
  " five": 4180,
  " thermometer": 4181,
  " skeleton": 4182,
  "ience": 4183,
  "ium": 4184,
  "xygen": 4185,
  " distance": 4186,
  " restore": 4187,
  " disag": 4188,
  "azor": 4189,
  " slipp": 4190,
  " fastest": 4191,
  "ination": 4192,
  "come": 4193,
  "<bytes:32,226,128>": 4194,
  "iction": 4195,
  "ictionary": 4196,
  " pinch": 4197,
  " listening": 4198,
  " stumbled": 4199,
  " hanger": 4200,
  "ines": 4201,
  "ney": 4202,
  " viol": 4203,
  " superher": 4204,
  " superhero": 4205,
  " ribbon": 4206,
  " admire": 4207,
  " film": 4208,
  " stirred": 4209,
  " planet": 4210,
  " peek": 4211,
  " goal": 4212,
  " dictionary": 4213,
  " ahead": 4214,
  "case": 4215,
  " violin": 4216,
  " complete": 4217,
  " brick": 4218,
  " trash": 4219,
  " stickers": 4220,
  " surprises": 4221,
  " chose": 4222,
  " alive": 4223,
  " reverse": 4224,
  " helper": 4225,
  " Mummy": 4226,
  " gaz": 4227,
  " Tina": 4228,
  " toile": 4229,
  "fast": 4230,
  "Sh": 4231,
  "astic": 4232,
  " stops": 4233,
  " strugg": 4234,
  " jumps": 4235,
  " poppy": 4236,
  " chasing": 4237,
  "arian": 4238,
  " pony": 4239,
  " sub": 4240,
  " freezer": 4241,
  " blinked": 4242,
  " mineral": 4243,
  " accept": 4244,
  "undry": 4245,
  " respectful": 4246,
  " circles": 4247,
  " rail": 4248,
  " breakfast": 4249,
  " doesn": 4250,
  "place": 4251,
  " Ellie": 4252,
  "apon": 4253,
  "iest": 4254,
  " laundry": 4255,
  " cudd": 4256,
  " bill": 4257,
  "cu": 4258,
  "Jill": 4259,
  " toilet": 4260,
  " exercise": 4261,
  "ival": 4262,
  " strip": 4263,
  " hurricane": 4264,
  " vest": 4265,
  " hol": 4266,
  " fest": 4267,
  " festival": 4268,
  " switch": 4269,
  " laser": 4270,
  " leaving": 4271,
  " refused": 4272,
  "chan": 4273,
  " beet": 4274,
  " player": 4275,
  " grill": 4276,
  "iday": 4277,
  "render": 4278,
  " tooth": 4279,
  " summer": 4280,
  " holiday": 4281,
  " language": 4282,
  " waffle": 4283,
  " cabinet": 4284,
  " fireplace": 4285,
  " lions": 4286,
  " Mrs": 4287,
  " doors": 4288,
  " leak": 4289,
  "adium": 4290,
  " stadium": 4291,
  " pleased": 4292,
  " sniffed": 4293,
  " sneeze": 4294,
  " searching": 4295,
  " spoke": 4296,
  " mint": 4297,
  " Zoom": 4298,
  " monkeys": 4299,
  " airport": 4300,
  " rules": 4301,
  " twir": 4302,
  " Elly": 4303,
  " meowed": 4304,
  "htray": 4305,
  " men": 4306,
  " berry": 4307,
  "Did": 4308,
  " Betty": 4309,
  " lawn": 4310,
  " sandwic": 4311,
  " sandwiches": 4312,
  " lemons": 4313,
  " tightly": 4314,
  " forgave": 4315,
  " favour": 4316,
  " traffic": 4317,
  " comfort": 4318,
  " slap": 4319,
  " roared": 4320,
  " oats": 4321,
  " razor": 4322,
  " tip": 4323,
  "wards": 4324,
  "med": 4325,
  "Ow": 4326,
  "Em": 4327,
  " favourite": 4328,
  "chanic": 4329,
  " stomach": 4330,
  " separate": 4331,
  " boots": 4332,
  " meeting": 4333,
  " obser": 4334,
  " windows": 4335,
  " Or": 4336,
  " sticker": 4337,
  " pair": 4338,
  " slip": 4339,
  " anyway": 4340,
  " chim": 4341,
  " chimney": 4342,
  " finds": 4343,
  " agree": 4344,
  " caring": 4345,
  " mechanic": 4346,
  " ashtray": 4347,
  " Mar": 4348,
  " plastic": 4349,
  "iggly": 4350,
  " nature": 4351,
  " cur": 4352,
  "ince": 4353,
  " sent": 4354,
  "ki": 4355,
  " beetle": 4356,
  " tomatoes": 4357,
  " barking": 4358,
  " grabs": 4359,
  " resist": 4360,
  " cows": 4361,
  " mixer": 4362,
  " lightning": 4363,
  " breat": 4364,
  "ement": 4365,
  " blueberry": 4366,
  " ener": 4367,
  " unite": 4368,
  " Jazz": 4369,
  "res": 4370,
  " subway": 4371,
  " imagine": 4372,
  " classroom": 4373,
  " belongs": 4374,
  " minute": 4375,
  " veh": 4376,
  " vehic": 4377,
  " letters": 4378,
  " point": 4379,
  " holes": 4380,
  " poked": 4381,
  " sport": 4382,
  " giraffe": 4383,
  " Are": 4384,
  " cards": 4385,
  "year": 4386,
  " Y": 4387,
  " billboard": 4388,
  " oyster": 4389,
  " Pippin": 4390,
  " Bounce": 4391,
  " mistakes": 4392,
  " invite": 4393,
  " noteb": 4394,
  " notebook": 4395,
  " remove": 4396,
  " flood": 4397,
  " laught": 4398,
  " laughter": 4399,
  " kay": 4400,
  " kayak": 4401,
  " Big": 4402,
  "amber": 4403,
  " Sophie": 4404,
  "night": 4405,
  "la": 4406,
  " improve": 4407,
  " leaned": 4408,
  " Alice": 4409,
  " cartoon": 4410,
  " musician": 4411,
  " puddles": 4412,
  " country": 4413,
  " remain": 4414,
  " handed": 4415,
  "apa": 4416,
  " oxygen": 4417,
  " names": 4418,
  " rac": 4419,
  " yield": 4420,
  "te": 4421,
  "Jimmy": 4422,
  " glowing": 4423,
  " courage": 4424,
  " problems": 4425,
  " spoil": 4426,
  " warned": 4427,
  " warn": 4428,
  " swamp": 4429,
  " sandc": 4430,
  " sandcast": 4431,
  " bookcase": 4432,
  " proudly": 4433,
  " chamber": 4434,
  " whip": 4435,
  "chair": 4436,
  " Sandy": 4437,
  " size": 4438,
  " sudden": 4439,
  " strawberries": 4440,
  " wipe": 4441,
  " lawy": 4442,
  "eterin": 4443,
  "eterinarian": 4444,
  "ola": 4445,
  " dancer": 4446,
  " pulls": 4447,
  " Ru": 4448,
  " pushes": 4449,
  " above": 4450,
  " sadly": 4451,
  " beep": 4452,
  "igi": 4453,
  "lend": 4454,
  " wine": 4455,
  "vice": 4456,
  "eb": 4457,
  " slippery": 4458,
  " rescue": 4459,
  " frowned": 4460,
  " surrender": 4461,
  " panic": 4462,
  " ceiling": 4463,
  "Joe": 4464,
  " butterflies": 4465,
  " sandbox": 4466,
  " appl": 4467,
  " trade": 4468,
  " copper": 4469,
  " cliff": 4470,
  " soil": 4471,
  " navy": 4472,
  "ison": 4473,
  " pages": 4474,
  " fre": 4475,
  " kneel": 4476,
  "coli": 4477,
  " carrying": 4478,
  " incre": 4479,
  " armchair": 4480,
  " art": 4481,
  " planes": 4482,
  " Ow": 4483,
  "emember": 4484,
  " Polly": 4485,
  " kinds": 4486,
  " tease": 4487,
  "rod": 4488,
  " feelings": 4489,
  " veterinarian": 4490,
  "usie": 4491,
  " rece": 4492,
  " fort": 4493,
  " page": 4494,
  "ccoli": 4495,
  " x": 4496,
  "ebra": 4497,
  " energy": 4498,
  " provide": 4499,
  " repeat": 4500,
  " ignore": 4501,
  " believed": 4502,
  " delay": 4503,
  " brightly": 4504,
  "aud": 4505,
  " introd": 4506,
  "ecause": 4507,
  " weapon": 4508,
  " stair": 4509,
  "gie": 4510,
  " ext": 4511,
  "lendar": 4512,
  " tools": 4513,
  " regret": 4514,
  " prayed": 4515,
  " shakes": 4516,
  "scope": 4517,
  " mailman": 4518,
  " calendar": 4519,
  " Paul": 4520,
  "anda": 4521,
  " Co": 4522,
  "roscope": 4523,
  " somewhere": 4524,
  " heat": 4525,
  " waste": 4526,
  " ped": 4527,
  " lid": 4528,
  "edn": 4529,
  "ednesday": 4530,
  "lu": 4531,
  "cer": 4532,
  " sandcastle": 4533,
  " reminded": 4534,
  " apol": 4535,
  " apolog": 4536,
  " God": 4537,
  " zebra": 4538,
  " sounded": 4539,
  " keeping": 4540,
  " advice": 4541,
  " older": 4542,
  " nobody": 4543,
  " Where": 4544,
  " meas": 4545,
  " lives": 4546,
  " saving": 4547,
  "imed": 4548,
  " aw": 4549,
  "low": 4550,
  " lawyer": 4551,
  " vehicle": 4552,
  " mystery": 4553,
  " price": 4554,
  " choice": 4555,
  " invit": 4556,
  " freeze": 4557,
  " raise": 4558,
  " anywhere": 4559,
  " flies": 4560,
  "Your": 4561,
  " cane": 4562,
  "elcome": 4563,
  "oe": 4564,
  " suggested": 4565,
  " colourful": 4566,
  " imagined": 4567,
  " crossed": 4568,
  " inclu": 4569,
  " Grandpa": 4570,
  " happens": 4571,
  " breaks": 4572,
  "ations": 4573,
  " chairs": 4574,
  " shouts": 4575,
  " dear": 4576,
  " softly": 4577,
  " letting": 4578,
  " rooms": 4579,
  " starts": 4580,
  " shone": 4581,
  " rushed": 4582,
  " Su": 4583,
  "hest": 4584,
  " tax": 4585,
  "eer": 4586,
  " taxi": 4587,
  " applaud": 4588,
  " squeeze": 4589,
  " chickens": 4590,
  "aurant": 4591,
  " Next": 4592,
  " recog": 4593,
  " recogn": 4594,
  " replace": 4595,
  " smells": 4596,
  " restaurant": 4597,
  " Gigi": 4598,
  " Papa": 4599,
  " excitedly": 4600,
  " eaten": 4601,
  "aggie": 4602,
  " Wiggly": 4603,
  "ores": 4604,
  "alley": 4605,
  "lex": 4606,
  " pitch": 4607,
  " blowing": 4608,
  "apping": 4609,
  " content": 4610,
  " steam": 4611,
  " rained": 4612,
  " broccoli": 4613,
  " Carl": 4614,
  " valley": 4615,
  " ranch": 4616,
  " trem": 4617,
  " reind": 4618,
  " reindeer": 4619,
  " olive": 4620,
  "orge": 4621,
  " gain": 4622,
  " file": 4623,
  " tub": 4624,
  "eorge": 4625,
  "Next": 4626,
  "Mary": 4627,
  "Mark": 4628,
  " extra": 4629,
  " microscope": 4630,
  "arlie": 4631,
  " Ste": 4632,
  " dishes": 4633,
  " ended": 4634,
  " Wednesday": 4635,
  " Would": 4636,
  " equ": 4637,
  " V": 4638,
  " fresh": 4639,
  " prepare": 4640,
  " tornado": 4641,
  " delighted": 4642,
  " sneezed": 4643,
  " barks": 4644,
  " chewed": 4645,
  " bouncing": 4646,
  " hung": 4647,
  " mass": 4648,
  " blueberries": 4649,
  " spade": 4650,
  "ected": 4651,
  " reve": 4652,
  " event": 4653,
  "utor": 4654,
  "ero": 4655,
  " dare": 4656,
  "na": 4657,
  "Yuck": 4658,
  "Yay": 4659,
  " argue": 4660,
  " riding": 4661,
  " settle": 4662,
  " scold": 4663,
  "ggy": 4664,
  " hoping": 4665,
  " heads": 4666,
  " poison": 4667,
  " chance": 4668,
  " myself": 4669,
  " Fl": 4670,
  " gro": 4671,
  " tutor": 4672,
  "vet": 4673,
  "tain": 4674,
  "Will": 4675,
  "Daisy": 4676,
  "Ready": 4677,
  " Freddy": 4678,
  " shrugged": 4679,
  " quiz": 4680,
  " vac": 4681,
  " opera": 4682,
  "illie": 4683,
  " Binky": 4684,
  " vacation": 4685,
  " equip": 4686,
  " equipment": 4687,
  "cuss": 4688,
  " shivering": 4689,
  " burned": 4690,
  " giggle": 4691,
  " enter": 4692,
  " Spark": 4693,
  " baking": 4694,
  " missing": 4695,
  " prints": 4696,
  " discuss": 4697,
  " float": 4698,
  " evening": 4699,
  " skill": 4700,
  " End": 4701,
  " chores": 4702,
  "asis": 4703,
  " seas": 4704,
  " weather": 4705,
  " bend": 4706,
  " suff": 4707,
  "Qu": 4708,
  " reveal": 4709,
  " prune": 4710,
  " thanks": 4711,
  "acked": 4712,
  " fixing": 4713,
  " pushing": 4714,
  " aftern": 4715,
  " afternoon": 4716,
  " struc": 4717,
  " structure": 4718,
  " oasis": 4719,
  " sty": 4720,
  " mention": 4721,
  " bumped": 4722,
  " yawned": 4723,
  " Under": 4724,
  " trusted": 4725,
  " puzzles": 4726,
  " throwing": 4727,
  " throws": 4728,
  " spots": 4729,
  " perfume": 4730,
  " hills": 4731,
  " writing": 4732,
  " grand": 4733,
  " socks": 4734,
  " Lilly": 4735,
  " placed": 4736,
  " dem": 4737,
  "inking": 4738,
  "heart": 4739,
  "ky": 4740,
  " insisted": 4741,
  " beans": 4742,
  " captain": 4743,
  " coats": 4744,
  "otten": 4745,
  " below": 4746,
  " tracks": 4747,
  " parts": 4748,
  " Mike": 4749,
  "ana": 4750,
  " mall": 4751,
  " luck": 4752,
  "sity": 4753,
  "Ann": 4754,
  " pastel": 4755,
  "queaky": 4756,
  " printed": 4757,
  " claw": 4758,
  " sweetheart": 4759,
  " brighter": 4760,
  " following": 4761,
  " sticky": 4762,
  " shoulder": 4763,
  " shower": 4764,
  " unh": 4765,
  " cared": 4766,
  " sew": 4767,
  " Me": 4768,
  " sigh": 4769,
  "ef": 4770,
  "Ch": 4771,
  "Buddy": 4772,
  "\",": 4773,
  " unhappy": 4774,
  " punish": 4775,
  " Un": 4776,
  " impressed": 4777,
  " recom": 4778,
  " recomm": 4779,
  " recommend": 4780,
  " teaching": 4781,
  "peedy": 4782,
  " Who": 4783,
  " greedy": 4784,
  " expect": 4785,
  " Bow": 4786,
  " panda": 4787,
  "va": 4788,
  "Not": 4789,
  "All": 4790,
  " candles": 4791,
  "uggage": 4792,
  " exper": 4793,
  " deeper": 4794,
  " Ro": 4795,
  " unif": 4796,
  " uniform": 4797,
  " beg": 4798,
  " Hoppy": 4799,
  " Have": 4800,
  "look": 4801,
  "Daddy": 4802,
  " sprayed": 4803,
  " splashing": 4804,
  "Before": 4805,
  " sparkled": 4806,
  " easily": 4807,
  " clapping": 4808,
  " Penny": 4809,
  " cub": 4810,
  " Che": 4811,
  " Eventually": 4812,
  " score": 4813,
  " weight": 4814,
  " yucky": 4815,
  "enry": 4816,
  " hen": 4817,
  " luggage": 4818,
  " tour": 4819,
  "oof": 4820,
  "nce": 4821,
  "lp": 4822,
  "Jenny": 4823,
  "looking": 4824,
  " racing": 4825,
  " destroyed": 4826,
  " whisper": 4827,
  " ignored": 4828,
  " lemonade": 4829,
  "ittens": 4830,
  " steel": 4831,
  " follows": 4832,
  " checked": 4833,
  " lear": 4834,
  " learnt": 4835,
  " Help": 4836,
  " sir": 4837,
  "Surpr": 4838,
  " tremble": 4839,
  " permit": 4840,
  " scattered": 4841,
  " selling": 4842,
  " vanished": 4843,
  " worms": 4844,
  " cheek": 4845,
  "anges": 4846,
  " Olive": 4847,
  "cond": 4848,
  " Whenever": 4849,
  " buried": 4850,
  "urnit": 4851,
  "urniture": 4852,
  " chirp": 4853,
  "ucked": 4854,
  " spr": 4855,
  " fro": 4856,
  "ecting": 4857,
  " second": 4858,
  " upstairs": 4859,
  "riage": 4860,
  " Susie": 4861,
  "ari": 4862,
  " furniture": 4863,
  " wigg": 4864,
  "hood": 4865,
  "Mimi": 4866,
  " demand": 4867,
  " Snowy": 4868,
  "ween": 4869,
  " entered": 4870,
  " jogged": 4871,
  " streng": 4872,
  " whistled": 4873,
  "reek": 4874,
  " badly": 4875,
  " between": 4876,
  " sorting": 4877,
  " vroom": 4878,
  "uct": 4879,
  " reef": 4880,
  " jail": 4881,
  "ents": 4882,
  " Is": 4883,
  " creek": 4884,
  "iki": 4885,
  "Welcome": 4886,
  " claws": 4887,
  " style": 4888,
  " massage": 4889,
  "laimed": 4890,
  " Froggy": 4891,
  " supply": 4892,
  " bricks": 4893,
  " points": 4894,
  " marble": 4895,
  " counter": 4896,
  "redient": 4897,
  " hopes": 4898,
  " quite": 4899,
  " paid": 4900,
  " exclaimed": 4901,
  "ecture": 4902,
  " rush": 4903,
  " thumb": 4904,
  "ingredient": 4905,
  "ides": 4906,
  " lecture": 4907,
  " wre": 4908,
  " ingredient": 4909,
  " strength": 4910,
  "Surprise": 4911,
  " breathe": 4912,
  " scratch": 4913,
  " neighbour": 4914,
  " seats": 4915,
  " petals": 4916,
  " cutting": 4917,
  "izes": 4918,
  " Pr": 4919,
  " hurting": 4920,
  " climbs": 4921,
  " grant": 4922,
  " row": 4923,
  " Squeaky": 4924,
  " port": 4925,
  " bother": 4926,
  " invitation": 4927,
  " menu": 4928,
  " –": 4929,
  "Alice": 4930,
  " shopkeeper": 4931,
  " marriage": 4932,
  " raining": 4933,
  " bears": 4934,
  " cakes": 4935,
  " putting": 4936,
  " allow": 4937,
  "These": 4938,
  " Mittens": 4939,
  " Speedy": 4940,
  " Sm": 4941,
  " tug": 4942,
  "ges": 4943,
  " ingredients": 4944,
  "resses": 4945,
  " admired": 4946,
  " explored": 4947,
  " Grace": 4948,
  " pigs": 4949,
  " wags": 4950,
  " printer": 4951,
  " forgotten": 4952,
  " works": 4953,
  " snail": 4954,
  "urther": 4955,
  " agre": 4956,
  " starting": 4957,
  " Alex": 4958,
  " Lola": 4959,
  " heel": 4960,
  " waving": 4961,
  " wreck": 4962,
  " introduce": 4963,
  " observe": 4964,
  "Grandma": 4965,
  " drops": 4966,
  " eagerly": 4967,
  " balan": 4968,
  " apart": 4969,
  " jogging": 4970,
  " sailing": 4971,
  " shined": 4972,
  " fallen": 4973,
  " Finn": 4974,
  " difference": 4975,
  "ecially": 4976,
  " scoop": 4977,
  " soc": 4978,
  " plates": 4979,
  " washing": 4980,
  " daisy": 4981,
  " further": 4982,
  " hon": 4983,
  "right": 4984,
  "Because": 4985,
  " soccer": 4986,
  " Sharing": 4987,
  " strike": 4988,
  "specially": 4989,
  " acted": 4990,
  " floated": 4991,
  "thank": 4992,
  " blood": 4993,
  " Maggie": 4994,
  "atched": 4995,
  " pup": 4996,
  " during": 4997,
  " tuna": 4998,
  " increase": 4999,
  " studied": 5000,
  " yawn": 5001,
  " wandered": 5002,
  " folded": 5003,
  " Nana": 5004,
  " horses": 5005,
  " warning": 5006,
  " planted": 5007,
  " moves": 5008,
  " Remember": 5009,
  " beauty": 5010,
  " buzz": 5011,
  " highest": 5012,
  " flapped": 5013,
  " worth": 5014,
  "icer": 5015,
  " especially": 5016,
  " rul": 5017,
  " plays": 5018,
  "eration": 5019,
  "reat": 5020,
  " Tilly": 5021,
  " tong": 5022,
  " Owl": 5023,
  " urge": 5024,
  " examine": 5025,
  " presents": 5026,
  " given": 5027,
  " kingdom": 5028,
  "quest": 5029,
  " shouting": 5030,
  " conf": 5031,
  "reeze": 5032,
  " Kiki": 5033,
  " famil": 5034,
  " Everything": 5035,
  " watered": 5036,
  "quake": 5037,
  " reaches": 5038,
  " oh": 5039,
  " Lizzy": 5040,
  " Tu": 5041,
  " Tuesday": 5042,
  "Bella": 5043,
  "Bl": 5044,
  "..": 5045,
  " scolded": 5046,
  " Coco": 5047,
  "medi": 5048,
  "mediately": 5049,
  " university": 5050,
  " earthquake": 5051,
  " harb": 5052,
  " harbor": 5053,
  " solved": 5054,
  " elephants": 5055,
  " Charlie": 5056,
  " gifts": 5057,
  " quietly": 5058,
  " lands": 5059,
  " dressed": 5060,
  " twisted": 5061,
  " snapped": 5062,
  " sorts": 5063,
  " slapped": 5064,
  " brings": 5065,
  "raged": 5066,
  " soak": 5067,
  "unately": 5068,
  " See": 5069,
  " bak": 5070,
  "men": 5071,
  "Fred": 5072,
  "Ella": 5073,
  " tongue": 5074,
  " experience": 5075,
  " curled": 5076,
  "omeday": 5077,
  " sits": 5078,
  " zero": 5079,
  " zigzag": 5080,
  " crash": 5081,
  " hearts": 5082,
  " snugg": 5083,
  " Dave": 5084,
  " request": 5085,
  " Milly": 5086,
  " hadn": 5087,
  " inst": 5088,
  " pur": 5089,
  "Leo": 5090,
  "Emma": 5091,
  " memory": 5092,
  "Everyone": 5093,
  " wisdom": 5094,
  " Bubbles": 5095,
  " sliding": 5096,
  " planned": 5097,
  "sterday": 5098,
  " trave": 5099,
  " image": 5100,
  " Kate": 5101,
  " comf": 5102,
  " oranges": 5103,
  " operation": 5104,
  " kis": 5105,
  " kisses": 5106,
  " west": 5107,
  " Le": 5108,
  " mister": 5109,
  "sed": 5110,
  "pted": 5111,
  "esterday": 5112,
  " ruler": 5113,
  " skills": 5114,
  " Ruby": 5115,
  " squeezed": 5116,
  " stuffed": 5117,
  " bouncy": 5118,
  " attached": 5119,
  "ipping": 5120,
  " fields": 5121,
  " Finny": 5122,
  " Good": 5123,
  " paused": 5124,
  " prett": 5125,
  " worse": 5126,
  " licks": 5127,
  " someday": 5128,
  " sizes": 5129,
  " tide": 5130,
  "rise": 5131,
  "eath": 5132,
  "do": 5133,
  " suffer": 5134,
  " encourage": 5135,
  " accepted": 5136,
  " colours": 5137,
  " imagination": 5138,
  " pulling": 5139,
  " catching": 5140,
  " appear": 5141,
  " ideas": 5142,
  " sorted": 5143,
  " manage": 5144,
  " release": 5145,
  " Abby": 5146,
  " shot": 5147,
  "aded": 5148,
  "ories": 5149,
  "atie": 5150,
  " mama": 5151,
  " cape": 5152,
  " since": 5153,
  "mm": 5154,
  "Woof": 5155,
  "'ve": 5156,
  " measured": 5157,
  " twirled": 5158,
  " zookeeper": 5159,
  "Today": 5160,
  " blankets": 5161,
  " welcomed": 5162,
  " attention": 5163,
  " Rock": 5164,
  " immediately": 5165,
  " peaches": 5166,
  " pearl": 5167,
  " news": 5168,
  " Bop": 5169,
  " mice": 5170,
  " dried": 5171,
  " Toto": 5172,
  " tonight": 5173,
  " bones": 5174,
  "Ha": 5175,
  " season": 5176,
  " peanuts": 5177,
  " growled": 5178,
  " settled": 5179,
  " Before": 5180,
  " melted": 5181,
  " celebrated": 5182,
  " whistling": 5183,
  " wagging": 5184,
  " closely": 5185,
  " George": 5186,
  " Ros": 5187,
  " rabbits": 5188,
  "ction": 5189,
  " Pip": 5190,
  " calls": 5191,
  " sunrise": 5192,
  " spike": 5193,
  " leather": 5194,
  "indy": 5195,
  " Millie": 5196,
  " Bee": 5197,
  "sters": 5198,
  " Sky": 5199,
  " tucked": 5200,
  "yth": 5201,
  "ippy": 5202,
  "house": 5203,
  "With": 5204,
  " groc": 5205,
  " grocery": 5206,
  " recognize": 5207,
  " receive": 5208,
  " disagreed": 5209,
  " stealing": 5210,
  " Zara": 5211,
  " married": 5212,
  "ups": 5213,
  " winning": 5214,
  " fireman": 5215,
  " tastes": 5216,
  " ours": 5217,
  " remained": 5218,
  "ips": 5219,
  " quack": 5220,
  " glo": 5221,
  " downstairs": 5222,
  " Mo": 5223,
  " Ho": 5224,
  "etch": 5225,
  " dresses": 5226,
  " ble": 5227,
  " si": 5228,
  "Remy": 5229,
  " gloves": 5230,
  " snuggled": 5231,
  "Blue": 5232,
  " Steve": 5233,
  " lips": 5234,
  " memories": 5235,
  " Clara": 5236,
  " punished": 5237,
  "unday": 5238,
  " safari": 5239,
  " surround": 5240,
  " stirring": 5241,
  " easier": 5242,
  "fortunately": 5243,
  " sidew": 5244,
  " sidewalk": 5245,
  " understanding": 5246,
  " emer": 5247,
  " wooden": 5248,
  " zipped": 5249,
  " cras": 5250,
  " Pat": 5251,
  " stro": 5252,
  " Wally": 5253,
  " tremb": 5254,
  " soaked": 5255,
  " shed": 5256,
  " inf": 5257,
  " Hope": 5258,
  "ored": 5259,
  " Sunday": 5260,
  "ising": 5261,
  " palm": 5262,
  " toes": 5263,
  " tore": 5264,
  " bang": 5265,
  "rank": 5266,
  "ythm": 5267,
  " Danny": 5268,
  " universe": 5269,
  " encouraged": 5270,
  " Fox": 5271,
  " creatures": 5272,
  " collection": 5273,
  " potatoes": 5274,
  " straight": 5275,
  " baked": 5276,
  " hits": 5277,
  " snowball": 5278,
  " breaking": 5279,
  " Red": 5280,
  "icky": 5281,
  "ddy": 5282,
  " rang": 5283,
  " seeing": 5284,
  " backpack": 5285,
  "icing": 5286,
  " isn": 5287,
  "ding": 5288,
  "Bird": 5289,
  " trembling": 5290,
  " Smith": 5291,
  " Suzy": 5292,
  " pedal": 5293,
  " gazed": 5294,
  " pirates": 5295,
  " acorns": 5296,
  " ringing": 5297,
  " raised": 5298,
  " floating": 5299,
  " Ray": 5300,
  " offer": 5301,
  " grin": 5302,
  " flap": 5303,
  " Jess": 5304,
  "ops": 5305,
  " Ava": 5306,
  " Henry": 5307,
  " lung": 5308,
  "rr": 5309,
  "ien": 5310,
  "Peter": 5311,
  "Ok": 5312,
  " include": 5313,
  " fireworks": 5314,
  " unlocked": 5315,
  " relaxed": 5316,
  " kicking": 5317,
  " crawling": 5318,
  " muscles": 5319,
  " landsc": 5320,
  " bites": 5321,
  " firef": 5322,
  " shopping": 5323,
  " kites": 5324,
  " waits": 5325,
  " shouldn": 5326,
  " Each": 5327,
  " pebbles": 5328,
  "aped": 5329,
  "abies": 5330,
  " flat": 5331,
  " brus": 5332,
  " alright": 5333,
  " spit": 5334,
  " Baby": 5335,
  " hers": 5336,
  "isdom": 5337,
  " pad": 5338,
  " babies": 5339,
  " wob": 5340,
  "sing": 5341,
  "eep": 5342,
  "bles": 5343,
  "Lisa": 5344,
  " bleed": 5345,
  " families": 5346,
  " Follow": 5347,
  " Robby": 5348,
  "igging": 5349,
  " Zigzag": 5350,
  " brain": 5351,
  " appro": 5352,
  " watches": 5353,
  " unic": 5354,
  " unicorn": 5355,
  " Mandy": 5356,
  " web": 5357,
  "orted": 5358,
  " dared": 5359,
  " simp": 5360,
  "Would": 5361,
  " Rosie": 5362,
  " instr": 5363,
  " kneeled": 5364,
  " sneak": 5365,
  " shadows": 5366,
  " safet": 5367,
  " safety": 5368,
  " chewing": 5369,
  " petted": 5370,
  " visited": 5371,
  " mouths": 5372,
  " matched": 5373,
  " tallest": 5374,
  " resting": 5375,
  " drinking": 5376,
  " beds": 5377,
  " keeps": 5378,
  "Momo": 5379,
  " opin": 5380,
  " chall": 5381,
  " challen": 5382,
  " James": 5383,
  " exit": 5384,
  " girls": 5385,
  " kitty": 5386,
  " Sun": 5387,
  "ids": 5388,
  " digging": 5389,
  " breeze": 5390,
  "ther": 5391,
  "kins": 5392,
  " cartoons": 5393,
  " Maria": 5394,
  " disagree": 5395,
  " weeping": 5396,
  " silence": 5397,
  " ordered": 5398,
  " studying": 5399,
  " served": 5400,
  " piles": 5401,
  "velvet": 5402,
  " amazement": 5403,
  " King": 5404,
  " underground": 5405,
  " vet": 5406,
  "ishy": 5407,
  " muddy": 5408,
  " laid": 5409,
  "elle": 5410,
  "umes": 5411,
  " Mel": 5412,
  " weighed": 5413,
  " stitch": 5414,
  " playtime": 5415,
  " Slow": 5416,
  " none": 5417,
  "ishing": 5418,
  " These": 5419,
  " lined": 5420,
  "rec": 5421,
  "uzz": 5422,
  "sit": 5423,
  "ler": 5424,
  " velvet": 5425,
  "reci": 5426,
  " landscape": 5427,
  " roots": 5428,
  " repeated": 5429,
  " costumes": 5430,
  " Something": 5431,
  " vanish": 5432,
  " Not": 5433,
  " spoons": 5434,
  " crunch": 5435,
  " treasures": 5436,
  " roads": 5437,
  " signs": 5438,
  " mixing": 5439,
  " setting": 5440,
  " winner": 5441,
  "avid": 5442,
  " writ": 5443,
  " appreci": 5444,
  " nowhere": 5445,
  " bye": 5446,
  " twink": 5447,
  "!\",": 5448,
  "chie": 5449,
  " lick": 5450,
  " Lucky": 5451,
  "oral": 5452,
  " gust": 5453,
  " napping": 5454,
  "Tr": 5455,
  "!'": 5456,
  " emergen": 5457,
  " urged": 5458,
  " Bouncy": 5459,
  " rhythm": 5460,
  " sausages": 5461,
  " decorations": 5462,
  " decorated": 5463,
  " pinched": 5464,
  " perfectly": 5465,
  " pets": 5466,
  "Johnny": 5467,
  " sisters": 5468,
  "Bobby": 5469,
  " voices": 5470,
  " importance": 5471,
  "izing": 5472,
  "Thanks": 5473,
  " strang": 5474,
  " Wisdom": 5475,
  " jazz": 5476,
  " Bree": 5477,
  " Later": 5478,
  " happiest": 5479,
  " Tony": 5480,
  " six": 5481,
  " sip": 5482,
  "rs": 5483,
  "oved": 5484,
  "coon": 5485,
  "aved": 5486,
  "Yum": 5487,
  ".'": 5488,
  " Qu": 5489,
  " infant": 5490,
  " agreement": 5491,
  " mentioned": 5492,
  " prepared": 5493,
  " patterns": 5494,
  " knights": 5495,
  " guessed": 5496,
  " Peanut": 5497,
  " result": 5498,
  " Out": 5499,
  "shion": 5500,
  " draws": 5501,
  "oys": 5502,
  " clearing": 5503,
  " lets": 5504,
  " fashion": 5505,
  "umble": 5506,
  " Harry": 5507,
  " pra": 5508,
  " dire": 5509,
  " lily": 5510,
  " waist": 5511,
  " Ted": 5512,
  " wink": 5513,
  "Sp": 5514,
  " strangers": 5515,
  " crunchy": 5516,
  " sprink": 5517,
  " waffles": 5518,
  " poems": 5519,
  " scru": 5520,
  " admir": 5521,
  " escaped": 5522,
  " hurried": 5523,
  " eagle": 5524,
  " marks": 5525,
  " phot": 5526,
  " moments": 5527,
  "Sammy": 5528,
  " ourselves": 5529,
  " turning": 5530,
  "plash": 5531,
  "isten": 5532,
  " Frank": 5533,
  "ssible": 5534,
  " noon": 5535,
  " known": 5536,
  " Both": 5537,
  " Liz": 5538,
  " beard": 5539,
  " thrill": 5540,
  "irts": 5541,
  "ena": 5542,
  "oming": 5543,
  "hello": 5544,
  "iers": 5545,
  "Happy": 5546,
  "Dog": 5547,
  " grinned": 5548,
  " crashed": 5549,
  " Prin": 5550,
  " froz": 5551,
  " frozen": 5552,
  " apologized": 5553,
  "Emily": 5554,
  " cuddled": 5555,
  " spending": 5556,
  " disturbed": 5557,
  " logs": 5558,
  " soldiers": 5559,
  " pillows": 5560,
  " bowed": 5561,
  "ship": 5562,
  " ruin": 5563,
  " forgi": 5564,
  " ripped": 5565,
  " behaved": 5566,
  " bravely": 5567,
  " gran": 5568,
  " Car": 5569,
  " peel": 5570,
  "antly": 5571,
  " expected": 5572,
  " brid": 5573,
  " Watch": 5574,
  " goals": 5575,
  " limes": 5576,
  "ities": 5577,
  " fetch": 5578,
  "please": 5579,
  "Sophie": 5580,
  "Moral": 5581,
  "Jen": 5582,
  " photos": 5583,
  " emergency": 5584,
  " struggle": 5585,
  " fishing": 5586,
  " matching": 5587,
  " collecting": 5588,
  " beneath": 5589,
  " guy": 5590,
  "acob": 5591,
  " Joey": 5592,
  " Cudd": 5593,
  " Cuddles": 5594,
  " dads": 5595,
  " Did": 5596,
  " knelt": 5597,
  "vest": 5598,
  " hist": 5599,
  " history": 5600,
  " gained": 5601,
  "ishes": 5602,
  " lines": 5603,
  "ived": 5604,
  "ded": 5605,
  "Cat": 5606,
  " bridges": 5607,
  " challenge": 5608,
  " Rocky": 5609,
  " begged": 5610,
  " burning": 5611,
  "Goodbye": 5612,
  " collected": 5613,
  " answers": 5614,
  " drinks": 5615,
  " resp": 5616,
  " dragons": 5617,
  " buildings": 5618,
  " wondering": 5619,
  " rested": 5620,
  " Josh": 5621,
  " warmth": 5622,
  " trapped": 5623,
  "ctly": 5624,
  " slice": 5625,
  " skipping": 5626,
  " meow": 5627,
  " Its": 5628,
  " soared": 5629,
  " sore": 5630,
  "choo": 5631,
  "exture": 5632,
  " beat": 5633,
  " item": 5634,
  " Hop": 5635,
  "arth": 5636,
  " hesit": 5637,
  "omas": 5638,
  " pies": 5639,
  " texture": 5640,
  "ud": 5641,
  "Watch": 5642,
  " praised": 5643,
  " opinion": 5644,
  " simple": 5645,
  " approached": 5646,
  " wiggle": 5647,
  " scratched": 5648,
  " stamps": 5649,
  "Andy": 5650,
  " screams": 5651,
  " crabs": 5652,
  " kindly": 5653,
  " ago": 5654,
  " scaring": 5655,
  " Bug": 5656,
  " Bo": 5657,
  " lied": 5658,
  " threat": 5659,
  " Happy": 5660,
  "ales": 5661,
  "Ducky": 5662,
  " scrubbed": 5663,
  " comfy": 5664,
  " olives": 5665,
  " teasing": 5666,
  " twigs": 5667,
  " neighborhood": 5668,
  " golden": 5669,
  " Stitch": 5670,
  " Stop": 5671,
  " gathering": 5672,
  " sparkling": 5673,
  " Zoe": 5674,
  " wonders": 5675,
  " ladyb": 5676,
  " ladybug": 5677,
  "emb": 5678,
  " Katie": 5679,
  " blink": 5680,
  " brushed": 5681,
  " theirs": 5682,
  "ica": 5683,
  "akes": 5684,
  " boom": 5685,
  " east": 5686,
  "utter": 5687,
  "iti": 5688,
  "ury": 5689,
  "hind": 5690,
  "Miss": 5691,
  "embers": 5692,
  "vestig": 5693,
  " granted": 5694,
  " gaze": 5695,
  "Really": 5696,
  " herbs": 5697,
  " muffins": 5698,
  " copy": 5699,
  " Being": 5700,
  " Catty": 5701,
  " teaches": 5702,
  " nightm": 5703,
  " nightmare": 5704,
  "Benny": 5705,
  " remembers": 5706,
  " joking": 5707,
  " broom": 5708,
  " shoulders": 5709,
  "bbing": 5710,
  " strings": 5711,
  " slim": 5712,
  " Dare": 5713,
  " ropes": 5714,
  " ann": 5715,
  " eff": 5716,
  " Lou": 5717,
  " sting": 5718,
  " beamed": 5719,
  " investig": 5720,
  "ino": 5721,
  " fed": 5722,
  " tim": 5723,
  "zing": 5724,
  "lier": 5725,
  "Eventually": 5726,
  " investigate": 5727,
  " slimy": 5728,
  " thrilled": 5729,
  " writes": 5730,
  " brushes": 5731,
  " cubes": 5732,
  " Sparky": 5733,
  " pedals": 5734,
  " received": 5735,
  " sneaked": 5736,
  " argued": 5737,
  " Missile": 5738,
  " avocad": 5739,
  " avocados": 5740,
  " Always": 5741,
  " recorded": 5742,
  " refu": 5743,
  " Someone": 5744,
  " marching": 5745,
  " pencils": 5746,
  " glowed": 5747,
  " activ": 5748,
  " parties": 5749,
  " sparkle": 5750,
  " trips": 5751,
  " zooming": 5752,
  "osed": 5753,
  " created": 5754,
  " airpl": 5755,
  " swims": 5756,
  " headed": 5757,
  " Pinky": 5758,
  " hardly": 5759,
  " twin": 5760,
  "ogo": 5761,
  " grey": 5762,
  " eats": 5763,
  " Friend": 5764,
  " alien": 5765,
  " roaring": 5766,
  " doggy": 5767,
  "urry": 5768,
  " loose": 5769,
  "uest": 5770,
  " shock": 5771,
  " May": 5772,
  " Izzy": 5773,
  " hissed": 5774,
  " Henny": 5775,
  "anny": 5776,
  " dot": 5777,
  " awe": 5778,
  "wh": 5779,
  "Sandy": 5780,
  "Poppy": 5781,
  "Mmm": 5782,
  " effort": 5783,
  " traveled": 5784,
  " balancing": 5785,
  " chirped": 5786,
  " ‘": 5787,
  " students": 5788,
  " melting": 5789,
  " stretching": 5790,
  " mountains": 5791,
  " leader": 5792,
  " destination": 5793,
  " supposed": 5794,
  " cheering": 5795,
  " Annie": 5796,
  " radishes": 5797,
  " jewels": 5798,
  " screaming": 5799,
  " healed": 5800,
  " wears": 5801,
  " marbles": 5802,
  " pots": 5803,
  " steep": 5804,
  " sweeties": 5805,
  " Dodo": 5806,
  " keeper": 5807,
  " removed": 5808,
  " remote": 5809,
  " sticking": 5810,
  " master": 5811,
  " Cindy": 5812,
  "araway": 5813,
  " decides": 5814,
  " First": 5815,
  "ulie": 5816,
  " area": 5817,
  " loving": 5818,
  "elvet": 5819,
  "allow": 5820,
  " youth": 5821,
  "ppers": 5822,
  " inch": 5823,
  " Splash": 5824,
  " Squ": 5825,
  " guest": 5826,
  " nicer": 5827,
  " crow": 5828,
  " Titi": 5829,
  " Tw": 5830,
  " faraway": 5831,
  " wed": 5832,
  " tugged": 5833,
  "xury": 5834,
  "uxury": 5835,
  "uke": 5836,
  "mother": 5837,
  "iam": 5838,
  "ah": 5839,
  "Un": 5840,
  "True": 5841,
  " revealed": 5842,
  "Shh": 5843,
  " delivered": 5844,
  " stripes": 5845,
  " claps": 5846,
  " praying": 5847,
  " deser": 5848,
  " buckets": 5849,
  " snakes": 5850,
  " polished": 5851,
  "osity": 5852,
  " situ": 5853,
  " owned": 5854,
  " monsters": 5855,
  " realize": 5856,
  " tricked": 5857,
  "”.": 5858,
  " yelling": 5859,
  "ission": 5860,
  " Cra": 5861,
  " sled": 5862,
  " prop": 5863,
  " Moon": 5864,
  " Mon": 5865,
  " Sad": 5866,
  " hated": 5867,
  " cough": 5868,
  " hitting": 5869,
  "hee": 5870,
  "loe": 5871,
  "Time": 5872,
  "Ollie": 5873,
  "James": 5874,
  "Cl": 5875,
  " Yes": 5876,
  " bakery": 5877,
  " Velvet": 5878,
  " measuring": 5879,
  " permission": 5880,
  " provided": 5881,
  " complaining": 5882,
  "affes": 5883,
  " tickle": 5884,
  "aws": 5885,
  " safer": 5886,
  " fears": 5887,
  " seems": 5888,
  " Chicky": 5889,
  " secrets": 5890,
  " earlier": 5891,
  " continue": 5892,
  "avi": 5893,
  " cuts": 5894,
  " wherever": 5895,
  " opening": 5896,
  " staying": 5897,
  " parked": 5898,
  " talent": 5899,
  " Jacob": 5900,
  "agull": 5901,
  " faced": 5902,
  " mane": 5903,
  " frost": 5904,
  " giraffes": 5905,
  " seagull": 5906,
  " An": 5907,
  " Boo": 5908,
  " beside": 5909,
  " crew": 5910,
  " luxury": 5911,
  " Tuna": 5912,
  "sses": 5913,
  "jam": 5914,
  "boo": 5915,
  "Ex": 5916,
  "Boo": 5917,
  " Once": 5918,
  " 1": 5919,
  " proper": 5920,
  " refuse": 5921,
  " admiring": 5922,
  " bleeding": 5923,
  " pupil": 5924,
  " awes": 5925,
  " awesome": 5926,
  " struggled": 5927,
  " dusty": 5928,
  " magnets": 5929,
  "Meow": 5930,
  " sweat": 5931,
  " shooting": 5932,
  " horns": 5933,
  " heroes": 5934,
  " feeding": 5935,
  " discovery": 5936,
  " candies": 5937,
  " pans": 5938,
  " actually": 5939,
  " actions": 5940,
  " acting": 5941,
  "anging": 5942,
  " paints": 5943,
  " touching": 5944,
  " rule": 5945,
  " darker": 5946,
  " tails": 5947,
  " windy": 5948,
  " Earth": 5949,
  " David": 5950,
  " Duck": 5951,
  "usty": 5952,
  "ifi": 5953,
  " rele": 5954,
  "isty": 5955,
  "int": 5956,
  " bare": 5957,
  "ues": 5958,
  "mies": 5959,
  "ha": 5960,
  "cus": 5961,
  "Rob": 5962,
  "Rex": 5963,
  "Ro": 5964,
  "'.": 5965,
  " wedding": 5966,
  " timer": 5967,
  " surrounded": 5968,
  " prettiest": 5969,
  " neighbourhood": 5970,
  " Rover": 5971,
  " awake": 5972,
  " struggling": 5973,
  " sneaky": 5974,
  " weeks": 5975,
  " helmets": 5976,
  " tune": 5977,
  " spaceship": 5978,
  " neighbors": 5979,
  " flags": 5980,
  " dinosaurs": 5981,
  " spraying": 5982,
  " teamwork": 5983,
  " valued": 5984,
  "Stay": 5985,
  " patiently": 5986,
  " shrug": 5987,
  " company": 5988,
  " creation": 5989,
  " contest": 5990,
  " contain": 5991,
  " restored": 5992,
  " Re": 5993,
  " bedtime": 5994,
  " Kids": 5995,
  " glasses": 5996,
  " twisty": 5997,
  " foods": 5998,
  "anta": 5999,
  " vict": 6000,
  "quid": 6001,
  " Dino": 6002,
  "uckily": 6003,
  " Water": 6004,
  " obe": 6005,
  " Bye": 6006,
  " wanting": 6007,
  " liquid": 6008,
  " onwards": 6009,
  "ora": 6010,
  " wasted": 6011,
  " died": 6012,
  "ouch": 6013,
  " toss": 6014,
  " wiz": 6015,
  "pie": 6016,
  "ners": 6017,
  "ls": 6018,
  "iar": 6019,
  "dies": 6020,
  "aster": 6021,
  " obey": 6022,
  " frosting": 6023,
  " Quick": 6024,
  " appreciate": 6025,
  " Slowly": 6026,
  " siren": 6027,
  " recognized": 6028,
  " insist": 6029,
  " succeeded": 6030,
  " sights": 6031,
  " scooters": 6032,
  " loaded": 6033,
  " project": 6034,
  " bloomed": 6035,
  "compl": 6036,
  " paying": 6037,
  " Spring": 6038,
  "screen": 6039,
  " polishing": 6040,
  " crept": 6041,
  " paintings": 6042,
  " worker": 6043,
  " quacked": 6044,
  " Keep": 6045,
  " Kay": 6046,
  " glitter": 6047,
  " chef": 6048,
  " poking": 6049,
  "ashed": 6050,
  " pride": 6051,
  " catches": 6052,
  "enty": 6053,
  "ads": 6054,
  " Like": 6055,
  " stare": 6056,
  "rian": 6057,
  "amie": 6058,
  "lee": 6059,
  " Santa": 6060,
  " sings": 6061,
  " achie": 6062,
  "go": 6063,
  "band": 6064,
  "Tiny": 6065,
  "George": 6066,
  "Ew": 6067,
  " X": 6068,
  " airplane": 6069,
  " guys": 6070,
  " instruct": 6071,
  " instructions": 6072,
  "...\"": 6073,
  " honk": 6074,
  " scooped": 6075,
  " balanced": 6076,
  " demanded": 6077,
  " sighs": 6078,
  " Frog": 6079,
  " passports": 6080,
  " rescued": 6081,
  "Mrs": 6082,
  " nails": 6083,
  " mittens": 6084,
  " pears": 6085,
  " ribbons": 6086,
  " penguins": 6087,
  " thud": 6088,
  " cushions": 6089,
  " scattering": 6090,
  " blooming": 6091,
  " blows": 6092,
  " celebration": 6093,
  " splashes": 6094,
  " diving": 6095,
  "scin": 6096,
  " bringing": 6097,
  " Blink": 6098,
  " prec": 6099,
  " comple": 6100,
  " patience": 6101,
  " accompl": 6102,
  " cones": 6103,
  "uffin": 6104,
  " Everyday": 6105,
  " comm": 6106,
  "Whiskers": 6107,
  " traded": 6108,
  " peppers": 6109,
  " Dr": 6110,
  " flutter": 6111,
  " flav": 6112,
  " Jessie": 6113,
  " Fifi": 6114,
  " fascin": 6115,
  "ulp": 6116,
  " seven": 6117,
  " Ally": 6118,
  " eight": 6119,
  " Luke": 6120,
  " Lenny": 6121,
  " beads": 6122,
  "ofia": 6123,
  " mes": 6124,
  "ays": 6125,
  " hi": 6126,
  "nie": 6127,
  "Remember": 6128,
  "Paul": 6129,
  "Pete": 6130,
  "During": 6131,
  " wizard": 6132,
  " Friends": 6133,
  " Leave": 6134,
  " purred": 6135,
  " baker": 6136,
  " confl": 6137,
  " conflict": 6138,
  "uctantly": 6139,
  " froze": 6140,
  " applauded": 6141,
  " apologize": 6142,
  " reminder": 6143,
  " examined": 6144,
  " refres": 6145,
  " Behind": 6146,
  " protecting": 6147,
  " protected": 6148,
  " organizing": 6149,
  " laying": 6150,
  " villag": 6151,
  " visiting": 6152,
  " mission": 6153,
  " explorers": 6154,
  " drives": 6155,
  " Gogo": 6156,
  " officer": 6157,
  " untie": 6158,
  " usual": 6159,
  " unf": 6160,
  " learns": 6161,
  " homework": 6162,
  " goodnight": 6163,
  " backward": 6164,
  " scales": 6165,
  " starfish": 6166,
  "ults": 6167,
  " sadness": 6168,
  " oat": 6169,
  " Ab": 6170,
  " Muffin": 6171,
  "iggy": 6172,
  "lets": 6173,
  " pause": 6174,
  " todd": 6175,
  " boo": 6176,
  "zie": 6177,
  "die": 6178,
  "Zoomy": 6179,
  "Uh": 6180,
  "Our": 6181,
  "Luna": 6182,
  "Jake": 6183,
  "Have": 6184,
  "First": 6185,
  "Fo": 6186,
  "Bad": 6187,
  "Achoo": 6188,
  " toddler": 6189,
  " victory": 6190,
  " barely": 6191,
  " released": 6192,
  " firefight": 6193,
  " Jessica": 6194,
  " Hopper": 6195,
  " spikes": 6196,
  " prettier": 6197,
  " pastels": 6198,
  " Yesterday": 6199,
  " planets": 6200,
  " Pippa": 6201,
  " spells": 6202,
  " rides": 6203,
  " figures": 6204,
  " shivered": 6205,
  " recording": 6206,
  " Pepper": 6207,
  " leading": 6208,
  " Beep": 6209,
  " guns": 6210,
  " Jenna": 6211,
  " Chloe": 6212,
  " reluctantly": 6213,
  " muscle": 6214,
  " dragged": 6215,
  " wins": 6216,
  " Green": 6217,
  " Get": 6218,
  " Gr": 6219,
  " cracked": 6220,
  " smiley": 6221,
  "bbled": 6222,
  " Thomas": 6223,
  " struck": 6224,
  " Elephant": 6225,
  " changing": 6226,
  " exa": 6227,
  " whatever": 6228,
  " smallest": 6229,
  " Am": 6230,
  " helpers": 6231,
  " smar": 6232,
  " smarter": 6233,
  " Moo": 6234,
  " Love": 6235,
  "step": 6236,
  " yesterday": 6237,
  "igail": 6238,
  "ords": 6239,
  "iders": 6240,
  "ern": 6241,
  " cause": 6242,
  " dipped": 6243,
  " wound": 6244,
  "rance": 6245,
  "oh": 6246,
  "jo": 6247,
  "bl": 6248,
  "aa": 6249,
  "Tweet": 6250,
  "Somet": 6251,
  " Q": 6252,
  " exactly": 6253,
  " precious": 6254,
  "jamas": 6255,
  " Squirrel": 6256,
  " annoy": 6257,
  " Princess": 6258,
  " sprinkles": 6259,
  " buzzing": 6260,
  " Chew": 6261,
  " Rollie": 6262,
  " Meg": 6263,
  " warnings": 6264,
  " Marie": 6265,
  "Grandpa": 6266,
  " Betsy": 6267,
  " Robert": 6268,
  " reply": 6269,
  " delivering": 6270,
  " packing": 6271,
  "Ste": 6272,
  " inviting": 6273,
  " covers": 6274,
  " rockets": 6275,
  " bowls": 6276,
  " firemen": 6277,
  " Gir": 6278,
  " behavi": 6279,
  " Rabbit": 6280,
  " stole": 6281,
  " united": 6282,
  " vent": 6283,
  " hugging": 6284,
  " anytime": 6285,
  " sunlight": 6286,
  " becoming": 6287,
  " click": 6288,
  " shirts": 6289,
  " stern": 6290,
  " rings": 6291,
  " Hippy": 6292,
  "anna": 6293,
  " Sure": 6294,
  " cous": 6295,
  " die": 6296,
  " dam": 6297,
  " bank": 6298,
  "nies": 6299,
  "ho": 6300,
  "Teddy": 6301,
  "Silly": 6302,
  "Millie": 6303,
  "Jerry": 6304,
  "An": 6305,
  " Que": 6306,
  " Queen": 6307,
  " villagers": 6308,
  " situation": 6309,
  "Unfortunately": 6310,
  " activities": 6311,
  " Buggy": 6312,
  " snowballs": 6313,
  " wiggled": 6314,
  " Unfortunately": 6315,
  " introduc": 6316,
  " sports": 6317,
  " cuddle": 6318,
  " separated": 6319,
  " tickets": 6320,
  " Robo": 6321,
  " quarreling": 6322,
  " complained": 6323,
  " sending": 6324,
  "guing": 6325,
  " refle": 6326,
  " misses": 6327,
  " masks": 6328,
  " wraps": 6329,
  " princesses": 6330,
  " Star": 6331,
  " sparkles": 6332,
  " arrive": 6333,
  " arguing": 6334,
  " joked": 6335,
  " pajamas": 6336,
  " Po": 6337,
  " tru": 6338,
  " peered": 6339,
  " peas": 6340,
  " vines": 6341,
  " possible": 6342,
  " Dara": 6343,
  " gott": 6344,
  " gotten": 6345,
  " whose": 6346,
  " chips": 6347,
  " Joy": 6348,
  " Jilly": 6349,
  " cocoon": 6350,
  " fault": 6351,
  " weren": 6352,
  " Because": 6353,
  " By": 6354,
  " Hor": 6355,
  "irm": 6356,
  "iding": 6357,
  " pins": 6358,
  " Turtle": 6359,
  " Top": 6360,
  " wid": 6361,
  " sense": 6362,
  "rink": 6363,
  "fied": 6364,
  "eah": 6365,
  "bly": 6366,
  "Su": 6367,
  "Oops": 6368,
  "Milly": 6369,
  "Ah": 6370,
  " widened": 6371,
  " truly": 6372,
  " Giraffe": 6373,
  " fascinated": 6374,
  " completed": 6375,
  " properly": 6376,
  " items": 6377,
  " forgiving": 6378,
  " Hoot": 6379,
  " travell": 6380,
  " requested": 6381,
  " chirping": 6382,
  " Chess": 6383,
  " grandmother": 6384,
  " choices": 6385,
  " increased": 6386,
  " twirl": 6387,
  "cuse": 6388,
  " cuddly": 6389,
  " superheroes": 6390,
  " improved": 6391,
  " itchy": 6392,
  " knocks": 6393,
  " Snowman": 6394,
  " growling": 6395,
  " Foxy": 6396,
  " powers": 6397,
  " tricky": 6398,
  " discovering": 6399,
  " motion": 6400,
  " groups": 6401,
  " scarves": 6402,
  " Stay": 6403,
  " kicks": 6404,
  " bounces": 6405,
  " paths": 6406,
  " rainbows": 6407,
  " bells": 6408,
  " pockets": 6409,
  " startled": 6410,
  " Zipper": 6411,
  " naps": 6412,
  " biting": 6413,
  " perched": 6414,
  " blocking": 6415,
  " curiosity": 6416,
  " yells": 6417,
  " woof": 6418,
  " caused": 6419,
  " tractor": 6420,
  " brand": 6421,
  " mailed": 6422,
  " farther": 6423,
  " forehead": 6424,
  " snatched": 6425,
  " teased": 6426,
  " En": 6427,
  " greet": 6428,
  " somebody": 6429,
  " Fishy": 6430,
  " Want": 6431,
  " fab": 6432,
  " fabric": 6433,
  " spiders": 6434,
  " spins": 6435,
  " Barry": 6436,
  " Lena": 6437,
  " belly": 6438,
  " plenty": 6439,
  " thro": 6440,
  "anie": 6441,
  "atches": 6442,
  " gri": 6443,
  " pout": 6444,
  "rey": 6445,
  " Tara": 6446,
  " firm": 6447,
  " hus": 6448,
  " sides": 6449,
  "dam": 6450,
  "Ru": 6451,
  "Or": 6452,
  "Mandy": 6453,
  "Mar": 6454,
  "Lilly": 6455,
  "Dave": 6456,
  "Buzz": 6457,
  "  \n": 6458,
  " throat": 6459,
  "Sometimes": 6460,
  "steps": 6461,
  "Excuse": 6462,
  " direction": 6463,
  " buzzed": 6464,
  " honked": 6465,
  " Prince": 6466,
  " Uncle": 6467,
  "Charlie": 6468,
  " Sparkle": 6469,
  " observed": 6470,
  " rewarded": 6471,
  " hallway": 6472,
  " curtains": 6473,
  " Shadow": 6474,
  " tunnels": 6475,
  " policeman": 6476,
  " Truck": 6477,
  " folding": 6478,
  " Brownie": 6479,
  " giggling": 6480,
  " chases": 6481,
  " images": 6482,
  " dived": 6483,
  " creating": 6484,
  " pops": 6485,
  " shrinking": 6486,
  " stands": 6487,
  " pointy": 6488,
  " polar": 6489,
  " reaching": 6490,
  " Oak": 6491,
  " promises": 6492,
  " rip": 6493,
  " behaving": 6494,
  "though": 6495,
  " listens": 6496,
  " Patch": 6497,
  " Put": 6498,
  "aker": 6499,
  " usually": 6500,
  " handful": 6501,
  "inkle": 6502,
  " rocking": 6503,
  " swoop": 6504,
  " swit": 6505,
  " worries": 6506,
  " Woo": 6507,
  " neither": 6508,
  " sobbed": 6509,
  " soaring": 6510,
  "seek": 6511,
  "uture": 6512,
  " Holly": 6513,
  "anes": 6514,
  " Say": 6515,
  " nine": 6516,
  " dar": 6517,
  "ining": 6518,
  " future": 6519,
  " bur": 6520,
  "vin": 6521,
  "eff": 6522,
  "Yeah": 6523,
  "Pe": 6524,
  "Listen": 6525,
  "Hold": 6526,
  " husband": 6527,
  "blings": 6528,
  " deserve": 6529,
  " Nothing": 6530,
  " firefly": 6531,
  " siblings": 6532,
  " agrees": 6533,
  "Quack": 6534,
  " suffered": 6535,
  "lowers": 6536,
  " growls": 6537,
  " completely": 6538,
  " tasks": 6539,
  " basement": 6540,
  " leaning": 6541,
  " movies": 6542,
  " bracelets": 6543,
  " Birdie": 6544,
  " However": 6545,
  " whispers": 6546,
  " gasp": 6547,
  " vanilla": 6548,
  " celebrating": 6549,
  " avo": 6550,
  " interested": 6551,
  "iggie": 6552,
  " corners": 6553,
  "angled": 6554,
  " napkins": 6555,
  " contro": 6556,
  " grows": 6557,
  " dropping": 6558,
  " nests": 6559,
  " seesaw": 6560,
  " Olly": 6561,
  " pretends": 6562,
  " Gina": 6563,
  " stays": 6564,
  " Pl": 6565,
  " untied": 6566,
  " lett": 6567,
  " lettuce": 6568,
  " unp": 6569,
  "—": 6570,
  "ustom": 6571,
  " chuck": 6572,
  " chop": 6573,
  "ason": 6574,
  "abella": 6575,
  " For": 6576,
  " everyday": 6577,
  " noses": 6578,
  " lap": 6579,
  "onge": 6580,
  " scur": 6581,
  " scurried": 6582,
  " staring": 6583,
  " sponge": 6584,
  " cans": 6585,
  " repa": 6586,
  " bodies": 6587,
  " Mouse": 6588,
  "une": 6589,
  " bey": 6590,
  " beyond": 6591,
  " gross": 6592,
  "ido": 6593,
  " san": 6594,
  " sank": 6595,
  " custom": 6596,
  " cent": 6597,
  " dent": 6598,
  "eds": 6599,
  " ast": 6600,
  "cakes": 6601,
  "bie": 6602,
  "Sunny": 6603,
  "Maggie": 6604,
  "Henry": 6605,
  "Car": 6606,
  "==": 6607,
  " repaired": 6608,
  " Horsy": 6609,
  " ventured": 6610,
  " accomplish": 6611,
  " Crab": 6612,
  " Twinkle": 6613,
  " dots": 6614,
  "Doggy": 6615,
  " wobbly": 6616,
  " confident": 6617,
  "Chirpy": 6618,
  " peeking": 6619,
  " surface": 6620,
  " batteries": 6621,
  " tickled": 6622,
  " spreading": 6623,
  " pumpkins": 6624,
  " squares": 6625,
  " wishing": 6626,
  "awn": 6627,
  " supplies": 6628,
  " practicing": 6629,
  " speaking": 6630,
  " partic": 6631,
  " Nice": 6632,
  " sails": 6633,
  " keys": 6634,
  " patted": 6635,
  "ounce": 6636,
  " potion": 6637,
  " replaced": 6638,
  " Our": 6639,
  " reads": 6640,
  " sweets": 6641,
  "joyed": 6642,
  " Jolly": 6643,
  " singer": 6644,
  " Whist": 6645,
  " dollar": 6646,
  " squishy": 6647,
  " bravery": 6648,
  " Pup": 6649,
  " Pine": 6650,
  " Pam": 6651,
  " tearing": 6652,
  " Cow": 6653,
  " however": 6654,
  " slam": 6655,
  " Ex": 6656,
  " vowed": 6657,
  "Those": 6658,
  " Julie": 6659,
  "iley": 6660,
  " ranger": 6661,
  " Wink": 6662,
  " fact": 6663,
  " backwards": 6664,
  " losing": 6665,
  " Mix": 6666,
  "ooed": 6667,
  " yum": 6668,
  "utty": 6669,
  " Sofia": 6670,
  " merry": 6671,
  "itely": 6672,
  "uzzy": 6673,
  "pite": 6674,
  "eed": 6675,
  "Whee": 6676,
  "Very": 6677,
  "Susie": 6678,
  "Run": 6679,
  "Lola": 6680,
  "Bunny": 6681,
  "Big": 6682,
  "?'": 6683,
  " dentist": 6684,
  " unpacked": 6685,
  "Ruby": 6686,
  " grip": 6687,
  " Enjoy": 6688,
  " reflection": 6689,
  " firefighters": 6690,
  " refreshed": 6691,
  " chefs": 6692,
  "haust": 6693,
  " Monster": 6694,
  " guests": 6695,
  "Spike": 6696,
  " twinkling": 6697,
  " paddle": 6698,
  " padd": 6699,
  " stroked": 6700,
  " comforted": 6701,
  " sprang": 6702,
  " Suzie": 6703,
  " knees": 6704,
  " rotting": 6705,
  " student": 6706,
  " minerals": 6707,
  " shorts": 6708,
  " wires": 6709,
  " competition": 6710,
  " wandering": 6711,
  "ivi": 6712,
  " dolphins": 6713,
  " scratches": 6714,
  " arrows": 6715,
  " necklaces": 6716,
  " decorating": 6717,
  " Without": 6718,
  " entrance": 6719,
  " entire": 6720,
  " pouring": 6721,
  " calmed": 6722,
  " footsteps": 6723,
  " Nick": 6724,
  " marked": 6725,
  " snowmen": 6726,
  " counts": 6727,
  " filling": 6728,
  " planning": 6729,
  " rolls": 6730,
  " Ol": 6731,
  " lighter": 6732,
  " steady": 6733,
  " ripe": 6734,
  " workers": 6735,
  " uses": 6736,
  " satis": 6737,
  " deal": 6738,
  " softer": 6739,
  "ctions": 6740,
  " Paws": 6741,
  " poster": 6742,
  " choo": 6743,
  " flames": 6744,
  " Fit": 6745,
  " outdo": 6746,
  "?\",": 6747,
  " roses": 6748,
  " aside": 6749,
  " mommies": 6750,
  " Biggie": 6751,
  " Birthday": 6752,
  " stem": 6753,
  " stain": 6754,
  " risk": 6755,
  " players": 6756,
  "order": 6757,
  " Sorry": 6758,
  " Sl": 6759,
  " ni": 6760,
  " pec": 6761,
  "father": 6762,
  "fly": 6763,
  "eal": 6764,
  "cl": 6765,
  "Yummy": 6766,
  "Some": 6767,
  "Pipp": 6768,
  "Mine": 6769,
  "Lulu": 6770,
  "Le": 6771,
  "Great": 6772,
  "Fine": 6773,
  " outdoors": 6774,
  "hausted": 6775,
  " chuckled": 6776,
  "Steve": 6777,
  "Follow": 6778,
  " Abigail": 6779,
  " flavor": 6780,
  "Roar": 6781,
  " respons": 6782,
  " licking": 6783,
  " Goodbye": 6784,
  " cheeks": 6785,
  " begin": 6786,
  "Annie": 6787,
  " included": 6788,
  " Yawn": 6789,
  " shovels": 6790,
  " surfing": 6791,
  " Tweetie": 6792,
  " lollipops": 6793,
  " performed": 6794,
  " relief": 6795,
  " burns": 6796,
  " towels": 6797,
  " drums": 6798,
  " prayer": 6799,
  " Stella": 6800,
  " supported": 6801,
  " seeker": 6802,
  " Anne": 6803,
  "umbling": 6804,
  " desert": 6805,
  " recorder": 6806,
  " touches": 6807,
  "oline": 6808,
  " bathing": 6809,
  "brush": 6810,
  " pastries": 6811,
  " passing": 6812,
  " Zee": 6813,
  " elbow": 6814,
  " piggy": 6815,
  " signed": 6816,
  "ampoline": 6817,
  " winked": 6818,
  " closes": 6819,
  " steer": 6820,
  " hider": 6821,
  " conse": 6822,
  " consequ": 6823,
  " consequence": 6824,
  " conn": 6825,
  " remembering": 6826,
  " Jojo": 6827,
  "ledge": 6828,
  " waiter": 6829,
  " single": 6830,
  " strongest": 6831,
  " Pu": 6832,
  " overjoyed": 6833,
  " trampoline": 6834,
  " watering": 6835,
  " Dizzy": 6836,
  " knowledge": 6837,
  " chat": 6838,
  " flapping": 6839,
  " Jeff": 6840,
  "iles": 6841,
  " least": 6842,
  " opp": 6843,
  " Aunt": 6844,
  "alph": 6845,
  "ela": 6846,
  " shelves": 6847,
  "ently": 6848,
  " Brian": 6849,
  " Book": 6850,
  " notes": 6851,
  "ofty": 6852,
  "sty": 6853,
  " stool": 6854,
  " rising": 6855,
  " beam": 6856,
  "rix": 6857,
  "rixie": 6858,
  " third": 6859,
  " Hur": 6860,
  " Sw": 6861,
  " heav": 6862,
  "ercy": 6863,
  " mood": 6864,
  "aye": 6865,
  " bunch": 6866,
  " wow": 6867,
  " tangled": 6868,
  " tiss": 6869,
  "zes": 6870,
  "vroom": 6871,
  "uri": 6872,
  "Zoom": 6873,
  "Take": 6874,
  "Sn": 6875,
  "Out": 6876,
  "Mike": 6877,
  "Luckily": 6878,
  "Lizzy": 6879,
  "Katie": 6880,
  "Get": 6881,
  "Ellie": 6882,
  "Dolly": 6883,
  "Bear": 6884,
  "urious": 6885,
  " Hurricane": 6886,
  " consequences": 6887,
  " particular": 6888,
  " control": 6889,
  " darling": 6890,
  " swooped": 6891,
  " introduced": 6892,
  " cousin": 6893,
  " achieve": 6894,
  " Kaylee": 6895,
  " Reg": 6896,
  " 10": 6897,
  " hesitated": 6898,
  " forgiven": 6899,
  " instrum": 6900,
  "rrr": 6901,
  " backpacks": 6902,
  " surroundings": 6903,
  " sewed": 6904,
  " Vivi": 6905,
  " twirling": 6906,
  " humans": 6907,
  " ornaments": 6908,
  " loading": 6909,
  " adding": 6910,
  " sneezing": 6911,
  " squeaked": 6912,
  " mushrooms": 6913,
  " wipes": 6914,
  " ships": 6915,
  " matters": 6916,
  " prayers": 6917,
  " machines": 6918,
  " minded": 6919,
  " Nutty": 6920,
  " kittens": 6921,
  " fits": 6922,
  "icha": 6923,
  "ichael": 6924,
  " whistles": 6925,
  " baths": 6926,
  " Ziggy": 6927,
  " joining": 6928,
  " bars": 6929,
  " Oxy": 6930,
  " fairies": 6931,
  " dancers": 6932,
  " tables": 6933,
  " darkness": 6934,
  " rains": 6935,
  " impo": 6936,
  " impossible": 6937,
  "ths": 6938,
  "autious": 6939,
  " Ph": 6940,
  " ends": 6941,
  "bert": 6942,
  "romise": 6943,
  "urtles": 6944,
  " decis": 6945,
  " decisions": 6946,
  " blown": 6947,
  " swords": 6948,
  " Janie": 6949,
  " Jamie": 6950,
  " Jones": 6951,
  " Fido": 6952,
  " exhausted": 6953,
  " bru": 6954,
  " spat": 6955,
  " rocked": 6956,
  " Belle": 6957,
  " Beth": 6958,
  " Lau": 6959,
  " stew": 6960,
  " rusty": 6961,
  " rumble": 6962,
  " thorn": 6963,
  " Softy": 6964,
  " Sc": 6965,
  " sale": 6966,
  "inny": 6967,
  " toaster": 6968,
  " aimed": 6969,
  " aff": 6970,
  " turtles": 6971,
  "no": 6972,
  "fall": 6973,
  "een": 6974,
  "Rose": 6975,
  "Penny": 6976,
  "May": 6977,
  "Jump": 6978,
  "Harry": 6979,
  "Danny": 6980,
  " icing": 6981,
  " heavier": 6982,
  " slammed": 6983,
  " mesmer": 6984,
  " Sadly": 6985,
  "alloween": 6986,
  " directions": 6987,
  " sewing": 6988,
  " grandfather": 6989,
  " regretted": 6990,
  " Rudy": 6991,
  " curly": 6992,
  " tipto": 6993,
  " loops": 6994,
  " lending": 6995,
  "Grace": 6996,
  " bumps": 6997,
  " determination": 6998,
  " angels": 6999,
  " forks": 7000,
  " gracefully": 7001,
  " jackets": 7002,
  " Shiver": 7003,
  " erase": 7004,
  " ghosts": 7005,
  " frowning": 7006,
  " clowns": 7007,
  " twisting": 7008,
  " wakes": 7009,
  " tested": 7010,
  " swimmer": 7011,
  " Spirit": 7012,
  " prick": 7013,
  " forgets": 7014,
  " source": 7015,
  "Beep": 7016,
  " salty": 7017,
  " sparks": 7018,
  " robber": 7019,
  " crumb": 7020,
  " doctors": 7021,
  " Jennie": 7022,
  " health": 7023,
  " guide": 7024,
  " Toot": 7025,
  " tighter": 7026,
  "eese": 7027,
  " slowed": 7028,
  " Other": 7029,
  " Jacky": 7030,
  " heading": 7031,
  " wrist": 7032,
  " Pink": 7033,
  " fart": 7034,
  " talents": 7035,
  " Those": 7036,
  " skirts": 7037,
  " uns": 7038,
  " Dina": 7039,
  " fever": 7040,
  " yourselves": 7041,
  "ept": 7042,
  "abel": 7043,
  " Ju": 7044,
  "dding": 7045,
  " Faye": 7046,
  " aloud": 7047,
  " nodding": 7048,
  " Wo": 7049,
  " lace": 7050,
  " carts": 7051,
  " gobbled": 7052,
  "ters": 7053,
  " neare": 7054,
  "chy": 7055,
  " Mild": 7056,
  " Mill": 7057,
  " Mam": 7058,
  "ades": 7059,
  "ading": 7060,
  " Liam": 7061,
  " stumble": 7062,
  " stung": 7063,
  " Ind": 7064,
  " und": 7065,
  " geese": 7066,
  " goo": 7067,
  "lle": 7068,
  " nuzz": 7069,
  " Toys": 7070,
  "you": 7071,
  "sm": 7072,
  "ody": 7073,
  "oke": 7074,
  "neath": 7075,
  "hi": 7076,
  "gers": 7077,
  "cited": 7078,
  "cie": 7079,
  "Co": 7080,
  "Baby": 7081,
  "Bet": 7082,
  "Alex": 7083,
  " farthest": 7084,
  " crumbs": 7085,
  " tissue": 7086,
  " pecked": 7087,
  " astron": 7088,
  " astronaut": 7089,
  " customer": 7090,
  " avoid": 7091,
  " switched": 7092,
  " annoyed": 7093,
  " sweaty": 7094,
  " Sadie": 7095,
  " Didi": 7096,
  " ruining": 7097,
  ".'\"": 7098,
  " stroll": 7099,
  "...": 7100,
  " rows": 7101,
  " Suki": 7102,
  " yielded": 7103,
  " countryside": 7104,
  " breathed": 7105,
  "Shrink": 7106,
  " slipping": 7107,
  " Frosty": 7108,
  " objects": 7109,
  " insects": 7110,
  " cobwebs": 7111,
  " pleaded": 7112,
  " models": 7113,
  " videos": 7114,
  " Trust": 7115,
  " frowns": 7116,
  " combed": 7117,
  " performing": 7118,
  " solut": 7119,
  " rubs": 7120,
  " Starry": 7121,
  " hopeful": 7122,
  " self": 7123,
  " fleas": 7124,
  " active": 7125,
  " honesty": 7126,
  "iggles": 7127,
  " Thanks": 7128,
  "iversity": 7129,
  " Zero": 7130,
  " paintbrush": 7131,
  " hides": 7132,
  " disob": 7133,
  " warmer": 7134,
  " dollhouse": 7135,
  " glued": 7136,
  " badge": 7137,
  " magpie": 7138,
  " donkey": 7139,
  " tweet": 7140,
  " snuck": 7141,
  " Cro": 7142,
  " underneath": 7143,
  " among": 7144,
  " skunk": 7145,
  " feast": 7146,
  " sunscreen": 7147,
  " swept": 7148,
  " Jon": 7149,
  " Fle": 7150,
  " outf": 7151,
  " outfit": 7152,
  " leap": 7153,
  " loses": 7154,
  " force": 7155,
  " Match": 7156,
  " ev": 7157,
  " lies": 7158,
  " Lina": 7159,
  "oosh": 7160,
  " Se": 7161,
  " mater": 7162,
  "aying": 7163,
  " cautious": 7164,
  " cor": 7165,
  " den": 7166,
  "reverse": 7167,
  " Tippy": 7168,
  " Try": 7169,
  " Te": 7170,
  " bumpy": 7171,
  " bun": 7172,
  " sy": 7173,
  "iel": 7174,
  "Vroom": 7175,
  "Sad": 7176,
  "Lina": 7177,
  "Keep": 7178,
  "Kim": 7179,
  "For": 7180,
  "Elly": 7181,
  "Even": 7182,
  "--": 7183,
  " materi": 7184,
  "Betty": 7185,
  " unsure": 7186,
  " prickly": 7187,
  " responsible": 7188,
  "Pippin": 7189,
  " Whistle": 7190,
  " damage": 7191,
  "ulpture": 7192,
  "piece": 7193,
  " talented": 7194,
  "Clara": 7195,
  " masterpiece": 7196,
  " spits": 7197,
  " purr": 7198,
  " Davey": 7199,
  " Megan": 7200,
  " including": 7201,
  " gazing": 7202,
  " prevented": 7203,
  " blinking": 7204,
  " knocking": 7205,
  " designed": 7206,
  " squeezing": 7207,
  "iolet": 7208,
  " scrub": 7209,
  " reminds": 7210,
  " Along": 7211,
  " stuffing": 7212,
  " leads": 7213,
  " ignoring": 7214,
  " trusting": 7215,
  " imagining": 7216,
  " zooms": 7217,
  " markers": 7218,
  " Chick": 7219,
  " visitors": 7220,
  " fans": 7221,
  " raind": 7222,
  " raindr": 7223,
  " raindrops": 7224,
  " dragonfly": 7225,
  " planting": 7226,
  " buying": 7227,
  " joins": 7228,
  " slower": 7229,
  " creams": 7230,
  " ache": 7231,
  " printing": 7232,
  " curiously": 7233,
  " def": 7234,
  " rainy": 7235,
  " adults": 7236,
  " Percy": 7237,
  " Pen": 7238,
  " loudest": 7239,
  "bbie": 7240,
  " afterwards": 7241,
  " Candy": 7242,
  "arac": 7243,
  " slither": 7244,
  " unw": 7245,
  " Day": 7246,
  " charac": 7247,
  "uren": 7248,
  " flight": 7249,
  "ddie": 7250,
  " age": 7251,
  " Wiggles": 7252,
  " sculpture": 7253,
  " scra": 7254,
  " treehouse": 7255,
  " reason": 7256,
  " rever": 7257,
  " oc": 7258,
  " occ": 7259,
  " ashes": 7260,
  " Adam": 7261,
  " anger": 7262,
  "elia": 7263,
  " shown": 7264,
  " Mint": 7265,
  " Mother": 7266,
  " earn": 7267,
  " Baa": 7268,
  " Bally": 7269,
  " Ball": 7270,
  " dod": 7271,
  "addie": 7272,
  " Listen": 7273,
  " Laser": 7274,
  "cept": 7275,
  " rather": 7276,
  "ilo": 7277,
  " plain": 7278,
  "igers": 7279,
  " Halloween": 7280,
  " Hold": 7281,
  "aned": 7282,
  "ans": 7283,
  " halves": 7284,
  "llen": 7285,
  " munch": 7286,
  " cash": 7287,
  " Tam": 7288,
  " backed": 7289,
  " sens": 7290,
  " sway": 7291,
  " aud": 7292,
  " tigers": 7293,
  " tipped": 7294,
  "rup": 7295,
  "rin": 7296,
  "fted": 7297,
  "auren": 7298,
  "Put": 7299,
  "Lena": 7300,
  "Gina": 7301,
  "Che": 7302,
  "Buzzy": 7303,
  "Boys": 7304,
  "Bow": 7305,
  " audience": 7306,
  " occas": 7307,
  " reversed": 7308,
  " unwra": 7309,
  " bunnies": 7310,
  " evil": 7311,
  " solution": 7312,
  " Indy": 7313,
  " nearest": 7314,
  " oppos": 7315,
  " opposite": 7316,
  " satisfied": 7317,
  " Oliver": 7318,
  " paddled": 7319,
  " accomplishment": 7320,
  " Woolly": 7321,
  " firmly": 7322,
  " travelled": 7323,
  "Suzy": 7324,
  " behaviour": 7325,
  " wounds": 7326,
  " unfam": 7327,
  " unfamil": 7328,
  " unfamiliar": 7329,
  " fluttered": 7330,
  " tossed": 7331,
  " twinkled": 7332,
  " wobbled": 7333,
  " brushing": 7334,
  " recommended": 7335,
  " grocer": 7336,
  " groceries": 7337,
  " rails": 7338,
  " oysters": 7339,
  " camping": 7340,
  "Always": 7341,
  " papa": 7342,
  " surfboard": 7343,
  " pleasure": 7344,
  "achel": 7345,
  " tires": 7346,
  " Snugg": 7347,
  " Snuggles": 7348,
  " Snap": 7349,
  " Shake": 7350,
  " wealth": 7351,
  " Up": 7352,
  " reminding": 7353,
  " temper": 7354,
  " indeed": 7355,
  " squeal": 7356,
  " twists": 7357,
  " lifting": 7358,
  " presses": 7359,
  " solving": 7360,
  " wiping": 7361,
  " Brun": 7362,
  " Bruno": 7363,
  " journeys": 7364,
  " caterpillars": 7365,
  " Near": 7366,
  " drivers": 7367,
  " bows": 7368,
  " Gracie": 7369,
  " Bluey": 7370,
  " bandages": 7371,
  "!”.": 7372,
  "ampion": 7373,
  "Joey": 7374,
  " bottles": 7375,
  " rubbing": 7376,
  " tasting": 7377,
  " duckling": 7378,
  " Gray": 7379,
  " colder": 7380,
  " talks": 7381,
  " fins": 7382,
  "issa": 7383,
  " adult": 7384,
  " stopping": 7385,
  " stol": 7386,
  " stolen": 7387,
  " colored": 7388,
  " cheers": 7389,
  " overcome": 7390,
  " buses": 7391,
  "pecting": 7392,
  " twice": 7393,
  " Weapon": 7394,
  " surprising": 7395,
  " amount": 7396,
  " Elle": 7397,
  " Ed": 7398,
  "umph": 7399,
  " champion": 7400,
  "using": 7401,
  " abil": 7402,
  " flipped": 7403,
  " everybody": 7404,
  "obody": 7405,
  " Wake": 7406,
  "aren": 7407,
  "inda": 7408,
  " soaking": 7409,
  "ching": 7410,
  " form": 7411,
  " Bark": 7412,
  " insp": 7413,
  " plucked": 7414,
  "ira": 7415,
  "endy": 7416,
  " miles": 7417,
  " mooed": 7418,
  " maker": 7419,
  " cott": 7420,
  " lower": 7421,
  "itches": 7422,
  "itu": 7423,
  "itude": 7424,
  " Trixie": 7425,
  " Tia": 7426,
  " freed": 7427,
  " sill": 7428,
  " ting": 7429,
  " tid": 7430,
  " tin": 7431,
  "wise": 7432,
  "uing": 7433,
  "pit": 7434,
  "hny": 7435,
  "found": 7436,
  "Under": 7437,
  "Tina": 7438,
  "Pandy": 7439,
  "Pat": 7440,
  "Kate": 7441,
  "Julie": 7442,
  "Jazz": 7443,
  "Hurry": 7444,
  "Fro": 7445,
  "David": 7446,
  "Dan": 7447,
  "Cindy": 7448,
  "'.\"": 7449,
  " inspired": 7450,
  " cashier": 7451,
  " corre": 7452,
  " Excited": 7453,
  "People": 7454,
  " pouted": 7455,
  " Poor": 7456,
  "hopper": 7457,
  "lsa": 7458,
  " Two": 7459,
  " efforts": 7460,
  "what": 7461,
  " swimsuit": 7462,
  "chievous": 7463,
  " stroke": 7464,
  " familiar": 7465,
  " Isabella": 7466,
  " punishment": 7467,
  " seasons": 7468,
  " tubes": 7469,
  " trembled": 7470,
  " apologised": 7471,
  " Copper": 7472,
  " raccoon": 7473,
  " Yell": 7474,
  " Yet": 7475,
  " strips": 7476,
  " goalie": 7477,
  " neatly": 7478,
  " encourag": 7479,
  "Alright": 7480,
  " Cla": 7481,
  " taped": 7482,
  " speeding": 7483,
  " repeating": 7484,
  " repeats": 7485,
  " sniffing": 7486,
  " weekend": 7487,
  " automobiles": 7488,
  " guardian": 7489,
  " Show": 7490,
  " borrowed": 7491,
  " friendships": 7492,
  " coloured": 7493,
  " figured": 7494,
  " pigeons": 7495,
  " squeak": 7496,
  " mischievous": 7497,
  " sharks": 7498,
  " Brad": 7499,
  " lifts": 7500,
  " pancakes": 7501,
  " forgetting": 7502,
  " action": 7503,
  " banged": 7504,
  " peacefully": 7505,
  " circus": 7506,
  " robots": 7507,
  " robin": 7508,
  " troubles": 7509,
  " healing": 7510,
  " results": 7511,
  " respected": 7512,
  "osen": 7513,
  "Josh": 7514,
  " explorer": 7515,
  " drifted": 7516,
  " dripping": 7517,
  " grasshopper": 7518,
  "Afterwards": 7519,
  " belts": 7520,
  " Jackie": 7521,
  " tops": 7522,
  "ngela": 7523,
  " written": 7524,
  " thrown": 7525,
  " Ruff": 7526,
  " Ra": 7527,
  "ptop": 7528,
  " Pin": 7529,
  " parted": 7530,
  " Ke": 7531,
  " gardener": 7532,
  "bbit": 7533,
  " tapping": 7534,
  " Cally": 7535,
  "feree": 7536,
  " Dusty": 7537,
  " decision": 7538,
  " chosen": 7539,
  " char": 7540,
  "Thomas": 7541,
  "ashes": 7542,
  " swap": 7543,
  " swall": 7544,
  " swallowed": 7545,
  "ably": 7546,
  " flock": 7547,
  " flip": 7548,
  " flown": 7549,
  " Fish": 7550,
  " cond": 7551,
  " newfound": 7552,
  " Wendy": 7553,
  " Welcome": 7554,
  " laptop": 7555,
  " becomes": 7556,
  "owny": 7557,
  " backs": 7558,
  " scored": 7559,
  " spice": 7560,
  "ici": 7561,
  "urr": 7562,
  " referee": 7563,
  " Acorn": 7564,
  "idey": 7565,
  "cho": 7566,
  " Michael": 7567,
  " echo": 7568,
  " ease": 7569,
  "itted": 7570,
  " onions": 7571,
  " onward": 7572,
  " younger": 7573,
  "cky": 7574,
  "kelly": 7575,
  " rays": 7576,
  " yelp": 7577,
  " within": 7578,
  " playroom": 7579,
  "vers": 7580,
  " inches": 7581,
  "ighing": 7582,
  " Hook": 7583,
  "amb": 7584,
  "oring": 7585,
  " Skelly": 7586,
  " wasting": 7587,
  "erm": 7588,
  " dump": 7589,
  " lump": 7590,
  "ition": 7591,
  " Tank": 7592,
  " ty": 7593,
  "woo": 7594,
  "uess": 7595,
  "son": 7596,
  "ibbit": 7597,
  "cher": 7598,
  "but": 7599,
  "Toby": 7600,
  "Ribbit": 7601,
  "Op": 7602,
  "Nick": 7603,
  "Liz": 7604,
  "Jessie": 7605,
  "Guess": 7606,
  "Days": 7607,
  "Bang": 7608,
  "Bill": 7609,
  "Br": 7610,
  "Abby": 7611,
  "Aunt": 7612,
  "Am": 7613,
  "?!\"": 7614,
  "!’": 7615,
  " ouch": 7616,
  " spices": 7617,
  " Claire": 7618,
  " Yellow": 7619,
  " sensation": 7620,
  " cautiously": 7621,
  " disobey": 7622,
  "Coco": 7623,
  " nuzzled": 7624,
  " Mamma": 7625,
  " tiptoed": 7626,
  " thorns": 7627,
  " bruises": 7628,
  " Puppy": 7629,
  " connected": 7630,
  " beginning": 7631,
  " behavior": 7632,
  " messes": 7633,
  " Kayla": 7634,
  " purrs": 7635,
  " Smoke": 7636,
  " bothering": 7637,
  " bothered": 7638,
  " Isn": 7639,
  " groaned": 7640,
  " Steppy": 7641,
  " invitations": 7642,
  " breathing": 7643,
  " hedgeh": 7644,
  " hedgehog": 7645,
  " languages": 7646,
  " pokes": 7647,
  " enthusiasm": 7648,
  " Cloud": 7649,
  " haircuts": 7650,
  " designs": 7651,
  " knots": 7652,
  " lowered": 7653,
  " librarian": 7654,
  " sniffs": 7655,
  " spills": 7656,
  " miller": 7657,
  " rats": 7658,
  " lizards": 7659,
  " cracker": 7660,
  " Although": 7661,
  " guessing": 7662,
  " fooled": 7663,
  " packages": 7664,
  " Stret": 7665,
  "orky": 7666,
  " crossing": 7667,
  " teapot": 7668,
  " moonlight": 7669,
  " bellies": 7670,
  " spoonful": 7671,
  " wrapping": 7672,
  " shaped": 7673,
  " arrives": 7674,
  " joyful": 7675,
  " Bloom": 7676,
  " purpose": 7677,
  "armer": 7678,
  " Chr": 7679,
  " Cha": 7680,
  " secure": 7681,
  " queens": 7682,
  " patches": 7683,
  " beeh": 7684,
  " beehive": 7685,
  " winners": 7686,
  " smelling": 7687,
  " dresser": 7688,
  " drawn": 7689,
  " cons": 7690,
  " sandpit": 7691,
  "acles": 7692,
  " wrink": 7693,
  " Ria": 7694,
  " caw": 7695,
  "thur": 7696,
  " Purr": 7697,
  " Pizza": 7698,
  " Pill": 7699,
  " cleaner": 7700,
  " CD": 7701,
  " needles": 7702,
  " grabbing": 7703,
  " willing": 7704,
  " swo": 7705,
  " swollen": 7706,
  " Jay": 7707,
  " Forky": 7708,
  " cosy": 7709,
  " coach": 7710,
  " Woof": 7711,
  " Willy": 7712,
  "opes": 7713,
  " scen": 7714,
  " rect": 7715,
  " Abbie": 7716,
  " App": 7717,
  " whimp": 7718,
  " smashed": 7719,
  " shady": 7720,
  "espite": 7721,
  "sess": 7722,
  " Bi": 7723,
  " weighing": 7724,
  " weeds": 7725,
  " Luckily": 7726,
  " Lion": 7727,
  " stitches": 7728,
  " Time": 7729,
  " rust": 7730,
  " playhouse": 7731,
  "rick": 7732,
  "rier": 7733,
  " plot": 7734,
  "igning": 7735,
  "antern": 7736,
  "ening": 7737,
  "atur": 7738,
  "imm": 7739,
  " napped": 7740,
  " height": 7741,
  " lantern": 7742,
  " lamb": 7743,
  " lent": 7744,
  " waking": 7745,
  " hoo": 7746,
  " tot": 7747,
  " bully": 7748,
  " aim": 7749,
  "the": 7750,
  "sa": 7751,
  "rthur": 7752,
  "rily": 7753,
  "mates": 7754,
  "match": 7755,
  "ji": 7756,
  "form": 7757,
  "cope": 7758,
  "aver": 7759,
  "Zara": 7760,
  "Try": 7761,
  "Soup": 7762,
  "Like": 7763,
  "Jamie": 7764,
  "Jon": 7765,
  "Hop": 7766,
  "Barry": 7767,
  "Bessie": 7768,
  "Bee": 7769,
  "Ab": 7770,
  " 2": 7771,
  " rectangle": 7772,
  " encouraging": 7773,
  " correctly": 7774,
  " defin": 7775,
  " definitely": 7776,
  " Croco": 7777,
  " laces": 7778,
  " instruments": 7779,
  " Books": 7780,
  " Mixy": 7781,
  " center": 7782,
  " centre": 7783,
  " gasps": 7784,
  "Marie": 7785,
  "annah": 7786,
  " Granny": 7787,
  " insisting": 7788,
  " sweaters": 7789,
  " Crabby": 7790,
  " activity": 7791,
  " Louise": 7792,
  " respond": 7793,
  " peeled": 7794,
  " Frankie": 7795,
  " admiration": 7796,
  " Melissa": 7797,
  " wobble": 7798,
  " encouragement": 7799,
  " suffering": 7800,
  " Leaf": 7801,
  " Leafy": 7802,
  "Freddy": 7803,
  " scratching": 7804,
  " uniforms": 7805,
  " University": 7806,
  " Meowny": 7807,
  " discussed": 7808,
  " Flora": 7809,
  " Flame": 7810,
  " massages": 7811,
  " Cocoa": 7812,
  " beeped": 7813,
  " Ruf": 7814,
  " Rufus": 7815,
  "Sharing": 7816,
  " films": 7817,
  " pinching": 7818,
  " Daniel": 7819,
  " displayed": 7820,
  " stomp": 7821,
  " exercises": 7822,
  " screws": 7823,
  " Climb": 7824,
  " motorcycles": 7825,
  " labels": 7826,
  " encount": 7827,
  " aeroplanes": 7828,
  " streamers": 7829,
  " edges": 7830,
  " sniffled": 7831,
  " gems": 7832,
  "ivity": 7833,
  " crackers": 7834,
  " sweep": 7835,
  " stamped": 7836,
  " relaxing": 7837,
  " destroying": 7838,
  " giggles": 7839,
  " wisely": 7840,
  " springing": 7841,
  " larger": 7842,
  " minding": 7843,
  " Spidey": 7844,
  " Spoon": 7845,
  "ertain": 7846,
  " serv": 7847,
  " Nobody": 7848,
  " Ni": 7849,
  " Nibbles": 7850,
  " horiz": 7851,
  " horizon": 7852,
  " probably": 7853,
  " marker": 7854,
  " creativity": 7855,
  " belongings": 7856,
  " mints": 7857,
  "armen": 7858,
  " Chirp": 7859,
  " shops": 7860,
  " cowb": 7861,
  "ushroom": 7862,
  " jobs": 7863,
  " fills": 7864,
  " Okay": 7865,
  " Oink": 7866,
  "aterpillar": 7867,
  " dances": 7868,
  " worrying": 7869,
  " brightest": 7870,
  " months": 7871,
  " convin": 7872,
  " Doll": 7873,
  " realizing": 7874,
  " Jody": 7875,
  " meaning": 7876,
  " craft": 7877,
  " handsome": 7878,
  " storekeeper": 7879,
  "ears": 7880,
  " Rachel": 7881,
  " Rich": 7882,
  " Rain": 7883,
  "beep": 7884,
  " deed": 7885,
  "byes": 7886,
  "that": 7887,
  " squaw": 7888,
  " glared": 7889,
  " cheaper": 7890,
  " doorway": 7891,
  " focus": 7892,
  " Comet": 7893,
  "Which": 7894,
  " slapping": 7895,
  " moons": 7896,
  " Elsa": 7897,
  " waterfall": 7898,
  " pos": 7899,
  " possess": 7900,
  " cares": 7901,
  " intr": 7902,
  " changes": 7903,
  " blast": 7904,
  " Jem": 7905,
  " Jump": 7906,
  " Farmer": 7907,
  " Fire": 7908,
  " goodbyes": 7909,
  "agic": 7910,
  "ighty": 7911,
  " meals": 7912,
  " scurry": 7913,
  " clues": 7914,
  " clicked": 7915,
  " manners": 7916,
  "ulf": 7917,
  "ummies": 7918,
  "urrender": 7919,
  "illed": 7920,
  " Angela": 7921,
  " whoosh": 7922,
  "aling": 7923,
  "eling": 7924,
  " birdse": 7925,
  " birdseed": 7926,
  " kings": 7927,
  " momma": 7928,
  " Mighty": 7929,
  " Mushroom": 7930,
  " Mop": 7931,
  " Man": 7932,
  " Bumpy": 7933,
  " noticing": 7934,
  " wept": 7935,
  "ldy": 7936,
  "ppies": 7937,
  "river": 7938,
  "rie": 7939,
  " inj": 7940,
  " Ha": 7941,
  "orking": 7942,
  "orter": 7943,
  "ley": 7944,
  "anced": 7945,
  "anet": 7946,
  " gest": 7947,
  "iddy": 7948,
  " sav": 7949,
  "onies": 7950,
  "immer": 7951,
  "omb": 7952,
  " ponies": 7953,
  " coug": 7954,
  " daring": 7955,
  " dip": 7956,
  " waded": 7957,
  " Tidy": 7958,
  " Tiger": 7959,
  " Tree": 7960,
  " Take": 7961,
  " bomb": 7962,
  " bitten": 7963,
  " wider": 7964,
  " tummies": 7965,
  " tumbled": 7966,
  " tying": 7967,
  "zoom": 7968,
  "zi": 7969,
  "yes": 7970,
  "tock": 7971,
  "per": 7972,
  "oey": 7973,
  "iky": 7974,
  "iving": 7975,
  "ezi": 7976,
  "ba": 7977,
  "Zip": 7978,
  "Ray": 7979,
  "Pinky": 7980,
  "Pip": 7981,
  "Pl": 7982,
  "Bounce": 7983,
  "Brian": 7984,
  "By": 7985,
  " ill": 7986,
  " scurrying": 7987,
  " intrig": 7988,
  "aturday": 7989,
  " Apple": 7990,
  " wrinkled": 7991,
  " consider": 7992,
  "erms": 7993,
  "umphrey": 7994,
  " characters": 7995,
  " Seat": 7996,
  " outfits": 7997,
  " Flexible": 7998,
  " Wonder": 7999,
  " Judge": 8000,
  " mesmerized": 8001,
  " affect": 8002,
  " Regina": 8003,
  " Reginald": 8004,
  " Swing": 8005,
  " Slinky": 8006,
  " risks": 8007,
  "====": 8008,
  " burst": 8009,
  " greeted": 8010,
  " travelling": 8011,
  " damaged": 8012,
  " sternly": 8013,
  " annoying": 8014,
  " commun": 8015,
  " common": 8016,
  " seagulls": 8017,
  "while": 8018,
  "udrey": 8019,
  " hesitant": 8020,
  " respon": 8021,
  " response": 8022,
  " sprinkled": 8023,
  " twinkle": 8024,
  " writer": 8025,
  " simply": 8026,
  " flaps": 8027,
  "Birdy": 8028,
  " Leopard": 8029,
  " differences": 8030,
  " allowing": 8031,
  " demanding": 8032,
  "Nothing": 8033,
  " Uni": 8034,
  "Quick": 8035,
  " Flappy": 8036,
  " Flap": 8037,
  " aware": 8038,
  " delayed": 8039,
  " Yog": 8040,
  "years": 8041,
  " vehicles": 8042,
  " observing": 8043,
  " vests": 8044,
  "Albert": 8045,
  " mayor": 8046,
  " screwd": 8047,
  " screwdriver": 8048,
  " preparing": 8049,
  " hamm": 8050,
  "keepers": 8051,
  " fishermen": 8052,
  " garb": 8053,
  " garbage": 8054,
  " Shampoo": 8055,
  " Unt": 8056,
  " Until": 8057,
  "However": 8058,
  "guess": 8059,
  " cops": 8060,
  "mbers": 8061,
  " presented": 8062,
  " beanst": 8063,
  " beanstalk": 8064,
  " genie": 8065,
  " pays": 8066,
  " classmates": 8067,
  " Stan": 8068,
  " returning": 8069,
  " stirs": 8070,
  " panicked": 8071,
  "izziness": 8072,
  " pours": 8073,
  " Spinny": 8074,
  " acts": 8075,
  " driveway": 8076,
  " Number": 8077,
  " Navy": 8078,
  "Behind": 8079,
  "ophia": 8080,
  " streets": 8081,
  " bathed": 8082,
  " visitor": 8083,
  " visits": 8084,
  "asty": 8085,
  " politely": 8086,
  " creations": 8087,
  "ounced": 8088,
  "Jolly": 8089,
  " sets": 8090,
  " bits": 8091,
  " pennies": 8092,
  " pens": 8093,
  "Instead": 8094,
  " throughout": 8095,
  " Ouch": 8096,
  " Old": 8097,
  " antic": 8098,
  " anticip": 8099,
  "boat": 8100,
  " farmers": 8101,
  " grassy": 8102,
  " races": 8103,
  " beloved": 8104,
  " owners": 8105,
  " Giant": 8106,
  " concer": 8107,
  " cutter": 8108,
  "acing": 8109,
  " Joan": 8110,
  " floats": 8111,
  " Ralph": 8112,
  " Roy": 8113,
  " bravest": 8114,
  " cafe": 8115,
  " braver": 8116,
  "ctar": 8117,
  " Kelly": 8118,
  " magician": 8119,
  " glitt": 8120,
  " budge": 8121,
  " bubb": 8122,
  " dangers": 8123,
  " snorted": 8124,
  " tapped": 8125,
  " cleared": 8126,
  " Cici": 8127,
  " Cross": 8128,
  " toward": 8129,
  "roken": 8130,
  " runner": 8131,
  " Eddie": 8132,
  "antha": 8133,
  "urple": 8134,
  "apers": 8135,
  "apay": 8136,
  "apaya": 8137,
  "ushing": 8138,
  " blocked": 8139,
  "retty": 8140,
  " thoughts": 8141,
  "ssy": 8142,
  "ongr": 8143,
  " members": 8144,
  "hings": 8145,
  " clue": 8146,
  " sadder": 8147,
  "ums": 8148,
  " aren": 8149,
  " rods": 8150,
  " seals": 8151,
  " rewards": 8152,
  " reapp": 8153,
  "rab": 8154,
  " Arm": 8155,
  " Ant": 8156,
  " whales": 8157,
  " nectar": 8158,
  " boards": 8159,
  " bol": 8160,
  " shall": 8161,
  " Mic": 8162,
  " Bucky": 8163,
  " Bad": 8164,
  " Lauren": 8165,
  " Luc": 8166,
  " stacked": 8167,
  " stings": 8168,
  " stall": 8169,
  " stun": 8170,
  " hissing": 8171,
  "exi": 8172,
  " rotten": 8173,
  "Only": 8174,
  " beaver": 8175,
  " beast": 8176,
  " plug": 8177,
  "irls": 8178,
  "ending": 8179,
  "anwhile": 8180,
  " Saturday": 8181,
  " Sk": 8182,
  "atty": 8183,
  " gon": 8184,
  " gonna": 8185,
  "arty": 8186,
  " nasty": 8187,
  " nur": 8188,
  "omp": 8189,
  "erious": 8190,
  "ering": 8191,
  "erk": 8192,
  " mitt": 8193,
  " puff": 8194,
  " dizziness": 8195,
  " Tato": 8196,
  " Toy": 8197,
  " Ti": 8198,
  " faded": 8199,
  " toad": 8200,
  " wig": 8201,
  " ais": 8202,
  " ties": 8203,
  " tuck": 8204,
  "yl": 8205,
  "eeling": 8206,
  "cused": 8207,
  "broken": 8208,
  "ais": 8209,
  "Want": 8210,
  "Tilly": 8211,
  "Slow": 8212,
  "Rock": 8213,
  "RR": 8214,
  "Papa": 8215,
  "Pr": 8216,
  "Olive": 8217,
  "Frank": 8218,
  "Friend": 8219,
  "Deal": 8220,
  "Dear": 8221,
  "Bop": 8222,
  ",'": 8223,
  "ylv": 8224,
  "ylvia": 8225,
  " Tibby": 8226,
  " anticipation": 8227,
  " intrigued": 8228,
  "immering": 8229,
  " convinced": 8230,
  " encountered": 8231,
  " rustling": 8232,
  " yelped": 8233,
  " squealed": 8234,
  " temperature": 8235,
  " munching": 8236,
  " earned": 8237,
  " slithered": 8238,
  " Penel": 8239,
  " Penelope": 8240,
  " materials": 8241,
  "Sadie": 8242,
  " syrup": 8243,
  " Laura": 8244,
  " forgiveness": 8245,
  " beaming": 8246,
  " Auntie": 8247,
  "Leave": 8248,
  "cloud": 8249,
  " choosing": 8250,
  " dollars": 8251,
  " Playing": 8252,
  "hole": 8253,
  " Amanda": 8254,
  " Abi": 8255,
  " flavors": 8256,
  " Ready": 8257,
  "Uncle": 8258,
  " crowd": 8259,
  " hesitation": 8260,
  " meowing": 8261,
  " Quack": 8262,
  "Trust": 8263,
  " appreciation": 8264,
  " opinions": 8265,
  " lungs": 8266,
  " offering": 8267,
  " pedaled": 8268,
  " quacking": 8269,
  " grandp": 8270,
  " grandparent": 8271,
  "Willow": 8272,
  " scolds": 8273,
  " Violet": 8274,
  " invites": 8275,
  " artist": 8276,
  "laire": 8277,
  " Marsh": 8278,
  " slips": 8279,
  " stomachs": 8280,
  " comforting": 8281,
  " cuddles": 8282,
  "Should": 8283,
  " disagre": 8284,
  " permitted": 8285,
  " symbols": 8286,
  " vibr": 8287,
  " desser": 8288,
  " desserts": 8289,
  " magazines": 8290,
  "Isabella": 8291,
  " newspapers": 8292,
  " Tweety": 8293,
  " Robot": 8294,
  "ironment": 8295,
  " disturbing": 8296,
  " supporting": 8297,
  " traveling": 8298,
  " postc": 8299,
  " Shiny": 8300,
  "ivia": 8301,
  " statues": 8302,
  " environment": 8303,
  " envelopes": 8304,
  " ''": 8305,
  " croaked": 8306,
  " William": 8307,
  " sunflowers": 8308,
  " Peep": 8309,
  " roars": 8310,
  " mushy": 8311,
  " performance": 8312,
  " performer": 8313,
  " terrified": 8314,
  " generosity": 8315,
  "creams": 8316,
  " wiser": 8317,
  " nervously": 8318,
  " Brush": 8319,
  " digs": 8320,
  "ments": 8321,
  " packet": 8322,
  " exploration": 8323,
  " sprays": 8324,
  "izzie": 8325,
  " forgives": 8326,
  " puzzled": 8327,
  " glows": 8328,
  " express": 8329,
  " chewy": 8330,
  " Only": 8331,
  " cloths": 8332,
  " Nate": 8333,
  " despite": 8334,
  " desc": 8335,
  "Goodnight": 8336,
  " collap": 8337,
  " lunchtime": 8338,
  "olo": 8339,
  " pills": 8340,
  " teachers": 8341,
  " batt": 8342,
  " baskets": 8343,
  " corns": 8344,
  " Chip": 8345,
  " Chuck": 8346,
  " Chug": 8347,
  " sailboat": 8348,
  " sailors": 8349,
  " Zoey": 8350,
  " mailing": 8351,
  " guards": 8352,
  " shines": 8353,
  " raking": 8354,
  " rivers": 8355,
  "Does": 8356,
  "anga": 8357,
  "Johny": 8358,
  "upin": 8359,
  " cupcakes": 8360,
  " cloudy": 8361,
  "asha": 8362,
  " dreamt": 8363,
  " Op": 8364,
  " Oh": 8365,
  " dressing": 8366,
  " hotter": 8367,
  " sweetest": 8368,
  " conc": 8369,
  "athan": 8370,
  " realizes": 8371,
  "acher": 8372,
  "acle": 8373,
  " stores": 8374,
  " Razor": 8375,
  "sol": 8376,
  " Whip": 8377,
  " defe": 8378,
  " closing": 8379,
  " Pippy": 8380,
  " Pol": 8381,
  " Pop": 8382,
  " cheat": 8383,
  " Everybody": 8384,
  " bud": 8385,
  " grat": 8386,
  " gratitude": 8387,
  " focused": 8388,
  " shares": 8389,
  " snug": 8390,
  " snar": 8391,
  " tale": 8392,
  " Caterpillar": 8393,
  " Cle": 8394,
  " trading": 8395,
  " amused": 8396,
  " skate": 8397,
  " longest": 8398,
  " unable": 8399,
  " Bobba": 8400,
  "…": 8401,
  "quet": 8402,
  " Despite": 8403,
  " Dust": 8404,
  " swallow": 8405,
  "ift": 8406,
  " June": 8407,
  " Fix": 8408,
  " Fun": 8409,
  "iece": 8410,
  " except": 8411,
  " Wait": 8412,
  " scent": 8413,
  " clerk": 8414,
  "ics": 8415,
  " sever": 8416,
  " several": 8417,
  " reass": 8418,
  " reck": 8419,
  " reckless": 8420,
  "rave": 8421,
  " jing": 8422,
  "illip": 8423,
  " funn": 8424,
  " Audrey": 8425,
  " Aly": 8426,
  "uggy": 8427,
  "elie": 8428,
  " birdhouse": 8429,
  " shorter": 8430,
  " shh": 8431,
  "esses": 8432,
  " Milo": 8433,
  " Mina": 8434,
  " Moppy": 8435,
  " eld": 8436,
  " Brave": 8437,
  " Lexi": 8438,
  " Land": 8439,
  " hisses": 8440,
  " rack": 8441,
  "oochy": 8442,
  " plugged": 8443,
  " Hatty": 8444,
  "lect": 8445,
  " gap": 8446,
  " Thermometer": 8447,
  " pouch": 8448,
  " pant": 8449,
  " certain": 8450,
  " lun": 8451,
  "ouquet": 8452,
  " wadd": 8453,
  " Tick": 8454,
  " fist": 8455,
  " bouquet": 8456,
  " bound": 8457,
  " theat": 8458,
  " sou": 8459,
  "water": 8460,
  "uses": 8461,
  "sn": 8462,
  "rinky": 8463,
  "line": 8464,
  "jack": 8465,
  "giving": 8466,
  "date": 8467,
  "cted": 8468,
  "bird": 8469,
  "bed": 8470,
  "act": 8471,
  "aven": 8472,
  "Tw": 8473,
  "Ralph": 8474,
  "Promise": 8475,
  "Mon": 8476,
  "King": 8477,
  "Hmm": 8478,
  "Claire": 8479,
  "Binky": 8480,
  "Beth": 8481,
  "Both": 8482,
  "Adam": 8483,
  "Ava": 8484,
  " 5": 8485,
  "snap": 8486,
  " theatre": 8487,
  " vibrant": 8488,
  " disagreement": 8489,
  "aisies": 8490,
  " aisle": 8491,
  " Skip": 8492,
  " bolt": 8493,
  "ongrat": 8494,
  "ongratul": 8495,
  " concerned": 8496,
  " gesture": 8497,
  " injured": 8498,
  "Abigail": 8499,
  " Bibo": 8500,
  " whimpered": 8501,
  " Clouds": 8502,
  " disobeyed": 8503,
  " type": 8504,
  " echoed": 8505,
  " conduct": 8506,
  " swimsuits": 8507,
  "Froggy": 8508,
  " tidied": 8509,
  " cottage": 8510,
  " ability": 8511,
  " unwrap": 8512,
  " scraped": 8513,
  " undone": 8514,
  " Laurie": 8515,
  " Phillip": 8516,
  "Snow": 8517,
  " Booker": 8518,
  " steering": 8519,
  "Someone": 8520,
  " nibbled": 8521,
  " Mixie": 8522,
  " facts": 8523,
  "Suzie": 8524,
  " cousins": 8525,
  " Beepy": 8526,
  " refreshing": 8527,
  " achieved": 8528,
  " sirens": 8529,
  " obeyed": 8530,
  "Robert": 8531,
  "Robby": 8532,
  " pupils": 8533,
  " sleds": 8534,
  " situations": 8535,
  " Square": 8536,
  " Maya": 8537,
  " Friendship": 8538,
  " announced": 8539,
  " Print": 8540,
  " winks": 8541,
  " Melon": 8542,
  " Sunshine": 8543,
  "ienced": 8544,
  " crashing": 8545,
  " lectures": 8546,
  " seconds": 8547,
  " whispering": 8548,
  " Roll": 8549,
  " experienced": 8550,
  " Whoever": 8551,
  "Anne": 8552,
  " luckily": 8553,
  " demon": 8554,
  " demonst": 8555,
  " styles": 8556,
  " bendy": 8557,
  " bends": 8558,
  " Flick": 8559,
  " Volly": 8560,
  " Stealing": 8561,
  " delaying": 8562,
  " Rude": 8563,
  " —": 8564,
  "fficer": 8565,
  " cells": 8566,
  " lumberjack": 8567,
  " explains": 8568,
  " Snowball": 8569,
  " foggy": 8570,
  " cables": 8571,
  " helicopters": 8572,
  " providing": 8573,
  " mugs": 8574,
  " crickets": 8575,
  " hunters": 8576,
  "oint": 8577,
  " jets": 8578,
  " quarreled": 8579,
  " hippos": 8580,
  " thundercloud": 8581,
  " angrily": 8582,
  " angrier": 8583,
  " travels": 8584,
  " guarding": 8585,
  " compete": 8586,
  " pressing": 8587,
  " crocodiles": 8588,
  " repairs": 8589,
  " Albert": 8590,
  " Trucky": 8591,
  " blooms": 8592,
  " toolbox": 8593,
  " bulbs": 8594,
  " tunes": 8595,
  " suitcase": 8596,
  " suits": 8597,
  " crowns": 8598,
  "arlings": 8599,
  "weed": 8600,
  " answering": 8601,
  " Birds": 8602,
  " tentacles": 8603,
  "ugging": 8604,
  " digger": 8605,
  " Bussy": 8606,
  " Spicy": 8607,
  " Space": 8608,
  "occo": 8609,
  "amedics": 8610,
  " teams": 8611,
  " practised": 8612,
  "eresa": 8613,
  " medals": 8614,
  " chews": 8615,
  " designing": 8616,
  " salon": 8617,
  " covering": 8618,
  " spoiling": 8619,
  " storms": 8620,
  " heartbroken": 8621,
  "assport": 8622,
  " shrank": 8623,
  " Grand": 8624,
  " joyfully": 8625,
  "armony": 8626,
  " smoother": 8627,
  " passen": 8628,
  "ordan": 8629,
  "Finny": 8630,
  " resisted": 8631,
  " welcoming": 8632,
  " attend": 8633,
  " guesses": 8634,
  " guided": 8635,
  " smartest": 8636,
  " Todd": 8637,
  " shinier": 8638,
  " understands": 8639,
  " riverb": 8640,
  " riverbank": 8641,
  "angles": 8642,
  " mixture": 8643,
  "ampered": 8644,
  " seaweed": 8645,
  " snowf": 8646,
  " snowfl": 8647,
  " arr": 8648,
  " fires": 8649,
  " owls": 8650,
  " plans": 8651,
  " creamy": 8652,
  " Officer": 8653,
  " Oxygen": 8654,
  " Janey": 8655,
  " deli": 8656,
  " delivery": 8657,
  " differently": 8658,
  " riches": 8659,
  " realise": 8660,
  " messed": 8661,
  " triangles": 8662,
  " explo": 8663,
  "azy": 8664,
  " finishing": 8665,
  " final": 8666,
  " fixer": 8667,
  "earl": 8668,
  " Ricky": 8669,
  " Rit": 8670,
  " Rita": 8671,
  " Ry": 8672,
  " Ryan": 8673,
  " Rh": 8674,
  " warmly": 8675,
  " causing": 8676,
  " towns": 8677,
  " hatch": 8678,
  "ipes": 8679,
  "emies": 8680,
  " Passport": 8681,
  " Point": 8682,
  " Party": 8683,
  " Papaya": 8684,
  " Purple": 8685,
  " Pet": 8686,
  " Pot": 8687,
  " paramedics": 8688,
  " Kanga": 8689,
  " coloring": 8690,
  "ildren": 8691,
  " glanced": 8692,
  "bbers": 8693,
  " doorb": 8694,
  " doorbell": 8695,
  "ortunately": 8696,
  " grumbled": 8697,
  " enemies": 8698,
  " Cable": 8699,
  " Cara": 8700,
  " Cook": 8701,
  " Cir": 8702,
  " strum": 8703,
  "ullaby": 8704,
  " daddies": 8705,
  " pecks": 8706,
  " Bobbie": 8707,
  " Dezi": 8708,
  " Dull": 8709,
  " Dot": 8710,
  "asers": 8711,
  " blades": 8712,
  " blade": 8713,
  " blur": 8714,
  " suns": 8715,
  "abelle": 8716,
  " flips": 8717,
  " Jumpy": 8718,
  " prove": 8719,
  " prank": 8720,
  " Fair": 8721,
  " Find": 8722,
  " expecting": 8723,
  "ssa": 8724,
  " although": 8725,
  " Benji": 8726,
  "agnet": 8727,
  " Wise": 8728,
  " Well": 8729,
  " War": 8730,
  " carve": 8731,
  " failed": 8732,
  " faith": 8733,
  " scampered": 8734,
  " spy": 8735,
  " clut": 8736,
  "ula": 8737,
  " robbers": 8738,
  " robe": 8739,
  "icent": 8740,
  " rely": 8741,
  " reun": 8742,
  " odd": 8743,
  "rya": 8744,
  " locks": 8745,
  " Arya": 8746,
  " Ac": 8747,
  " alley": 8748,
  " whiskers": 8749,
  " whine": 8750,
  " whir": 8751,
  "elina": 8752,
  " soot": 8753,
  " Muggy": 8754,
  " Maddie": 8755,
  " More": 8756,
  " Make": 8757,
  " Ms": 8758,
  " Band": 8759,
  " Lazy": 8760,
  " Lot": 8761,
  " Lots": 8762,
  "stick": 8763,
  " Ice": 8764,
  " hiss": 8765,
  " heron": 8766,
  " rushing": 8767,
  " playdate": 8768,
  " Hello": 8769,
  "ige": 8770,
  "ets": 8771,
  "off": 8772,
  " Since": 8773,
  " Summer": 8774,
  "att": 8775,
  " glee": 8776,
  " habit": 8777,
  "idence": 8778,
  "iden": 8779,
  " niece": 8780,
  " heaven": 8781,
  " washes": 8782,
  " mer": 8783,
  " puck": 8784,
  " pound": 8785,
  " darlings": 8786,
  " daisies": 8787,
  " ding": 8788,
  " lullaby": 8789,
  "inted": 8790,
  " Teresa": 8791,
  " Tizzy": 8792,
  " Tock": 8793,
  " Ty": 8794,
  " fulf": 8795,
  " bless": 8796,
  "uise": 8797,
  "sers": 8798,
  "pop": 8799,
  "mate": 8800,
  "ming": 8801,
  "lor": 8802,
  "ib": 8803,
  "fire": 8804,
  "Wake": 8805,
  "Sofia": 8806,
  "Splash": 8807,
  "Speedy": 8808,
  "Squeaky": 8809,
  "Sun": 8810,
  "Mother": 8811,
  "Mel": 8812,
  "Karen": 8813,
  "Kids": 8814,
  "Kiki": 8815,
  "Jacob": 8816,
  "Jess": 8817,
  "Ice": 8818,
  "Hoppy": 8819,
  "Ho": 8820,
  "Gogo": 8821,
  "Gigi": 8822,
  "Got": 8823,
  "Eat": 8824,
  "Danger": 8825,
  "Carl": 8826,
  "ibil": 8827,
  " reunited": 8828,
  " Cookie": 8829,
  " Potato": 8830,
  " snowflakes": 8831,
  " demonstrated": 8832,
  " conductor": 8833,
  "Two": 8834,
  " souven": 8835,
  " souvenir": 8836,
  "elieve": 8837,
  " Alyssa": 8838,
  " skateboard": 8839,
  " snarled": 8840,
  " concent": 8841,
  " battle": 8842,
  "Friends": 8843,
  " Yogi": 8844,
  " coughed": 8845,
  " savanna": 8846,
  " Jemma": 8847,
  " squawked": 8848,
  " Rainbow": 8849,
  " Climbing": 8850,
  " heights": 8851,
  " scenery": 8852,
  " Chris": 8853,
  "Open": 8854,
  " dumped": 8855,
  " charge": 8856,
  " Kevin": 8857,
  " Rae": 8858,
  " tingling": 8859,
  " freedom": 8860,
  " Barky": 8861,
  " Edu": 8862,
  " Eduard": 8863,
  " Eduardo": 8864,
  " occasions": 8865,
  " occasion": 8866,
  "rints": 8867,
  " swaying": 8868,
  "ansform": 8869,
  " dodging": 8870,
  " dodged": 8871,
  " Ballie": 8872,
  "Sadly": 8873,
  " Teacher": 8874,
  " strolled": 8875,
  " astronauts": 8876,
  " Wolf": 8877,
  " mesmerised": 8878,
  " afford": 8879,
  " instrument": 8880,
  " particularly": 8881,
  "Outside": 8882,
  "Snap": 8883,
  " Switch": 8884,
  " Puss": 8885,
  " Slide": 8886,
  " stains": 8887,
  " Pupil": 8888,
  " Wooly": 8889,
  " switches": 8890,
  "Maria": 8891,
  " introducing": 8892,
  " Queeny": 8893,
  " Grumpy": 8894,
  " firefighter": 8895,
  " fluttering": 8896,
  " accomplished": 8897,
  " container": 8898,
  "jamin": 8899,
  " Monkey": 8900,
  " airplanes": 8901,
  "artha": 8902,
  " peels": 8903,
  " Cars": 8904,
  " Printy": 8905,
  " waistband": 8906,
  " Breezy": 8907,
  " webs": 8908,
  " approach": 8909,
  "ienna": 8910,
  " Sundays": 8911,
  " emerged": 8912,
  "etchup": 8913,
  " BeeBee": 8914,
  " Rosa": 8915,
  " pearls": 8916,
  " experiences": 8917,
  " confidence": 8918,
  " neighbours": 8919,
  "Chloe": 8920,
  " grandd": 8921,
  " entering": 8922,
  " Flore": 8923,
  " Florence": 8924,
  " Carlos": 8925,
  " applauding": 8926,
  " awful": 8927,
  " Marth": 8928,
  " Martha": 8929,
  " Orin": 8930,
  " bills": 8931,
  "Shrinky": 8932,
  "Share": 8933,
  " peeks": 8934,
  " freezing": 8935,
  " checking": 8936,
  " burying": 8937,
  " stomped": 8938,
  " ostriches": 8939,
  " meatball": 8940,
  " meatballs": 8941,
  " disappears": 8942,
  " novels": 8943,
  "Isn": 8944,
  " mattresses": 8945,
  " melts": 8946,
  " gears": 8947,
  " computers": 8948,
  " weighs": 8949,
  " hamster": 8950,
  " intelligence": 8951,
  "rnie": 8952,
  " dives": 8953,
  "undred": 8954,
  "ctopuses": 8955,
  " posts": 8956,
  " spilling": 8957,
  "Meanwhile": 8958,
  " erasers": 8959,
  " silent": 8960,
  "guard": 8961,
  " examining": 8962,
  " address": 8963,
  " tempted": 8964,
  " copied": 8965,
  " combing": 8966,
  " disguise": 8967,
  " protects": 8968,
  " testing": 8969,
  " Becky": 8970,
  " embra": 8971,
  " apr": 8972,
  " aprons": 8973,
  " afar": 8974,
  " lamps": 8975,
  " cherish": 8976,
  " Still": 8977,
  " humming": 8978,
  " Bury": 8979,
  " Bund": 8980,
  " Bundles": 8981,
  " stretches": 8982,
  " minds": 8983,
  " Spiky": 8984,
  " weaker": 8985,
  " calmly": 8986,
  " zookeepers": 8987,
  " Dogs": 8988,
  " footp": 8989,
  " footprints": 8990,
  " Annabelle": 8991,
  "Still": 8992,
  " lifeguard": 8993,
  " giants": 8994,
  " Nurse": 8995,
  " wildf": 8996,
  "ellyfish": 8997,
  " recipe": 8998,
  "iggled": 8999,
  " wrapper": 9000,
  "Jackie": 9001,
  " Fredrick": 9002,
  " obst": 9003,
  " toucan": 9004,
  " fences": 9005,
  " cruel": 9006,
  " warri": 9007,
  "ubber": 9008,
  " Chair": 9009,
  " earr": 9010,
  " earrings": 9011,
  "eading": 9012,
  " attem": 9013,
  " attack": 9014,
  "ippers": 9015,
  " Johnson": 9016,
  "amps": 9017,
  "artled": 9018,
  " lessons": 9019,
  " treated": 9020,
  "peat": 9021,
  "peed": 9022,
  " drip": 9023,
  " Ox": 9024,
  " stepping": 9025,
  " nightfall": 9026,
  " Ginny": 9027,
  " Gill": 9028,
  " enjoyable": 9029,
  "accoon": 9030,
  "acy": 9031,
  " hearing": 9032,
  "”,": 9033,
  " Rubber": 9034,
  " Rolly": 9035,
  " Rick": 9036,
  " beautif": 9037,
  " forests": 9038,
  " quilt": 9039,
  " Poochy": 9040,
  " untangle": 9041,
  " untw": 9042,
  " Herbie": 9043,
  " Herb": 9044,
  " bluebird": 9045,
  " endings": 9046,
  " snapping": 9047,
  " clover": 9048,
  " handing": 9049,
  "andel": 9050,
  " Carmen": 9051,
  " Celia": 9052,
  " Cory": 9053,
  " Clive": 9054,
  "essy": 9055,
  "roccoli": 9056,
  " thanking": 9057,
  "imals": 9058,
  " slug": 9059,
  " transform": 9060,
  " host": 9061,
  " hoof": 9062,
  " waterm": 9063,
  " watermel": 9064,
  " watermelon": 9065,
  " poppies": 9066,
  " opt": 9067,
  "quar": 9068,
  "quarium": 9069,
  " Deal": 9070,
  "ives": 9071,
  " intently": 9072,
  " chatter": 9073,
  "ashing": 9074,
  " learner": 9075,
  "abr": 9076,
  "abrina": 9077,
  " Jellyfish": 9078,
  " Jed": 9079,
  " Fel": 9080,
  " Felix": 9081,
  "ieves": 9082,
  "ooks": 9083,
  " exch": 9084,
  " otherwise": 9085,
  " ages": 9086,
  " seeking": 9087,
  "ager": 9088,
  " Samantha": 9089,
  " laz": 9090,
  "opy": 9091,
  " scre": 9092,
  " spies": 9093,
  " sped": 9094,
  " clip": 9095,
  " level": 9096,
  " god": 9097,
  " godmother": 9098,
  "icola": 9099,
  "icious": 9100,
  "icate": 9101,
  " treas": 9102,
  "ugar": 9103,
  "ali": 9104,
  "Theo": 9105,
  " boil": 9106,
  " ketchup": 9107,
  " shooed": 9108,
  " forts": 9109,
  " Magnet": 9110,
  "sel": 9111,
  " Broccoli": 9112,
  " Bessy": 9113,
  " Bones": 9114,
  " Bang": 9115,
  " Ba": 9116,
  " Lupin": 9117,
  " Life": 9118,
  " Lumber": 9119,
  " Lime": 9120,
  " online": 9121,
  "unched": 9122,
  "exit": 9123,
  " rider": 9124,
  " rises": 9125,
  " ruff": 9126,
  " rout": 9127,
  "vered": 9128,
  " plumber": 9129,
  "igger": 9130,
  " thieves": 9131,
  " Humphrey": 9132,
  " Hank": 9133,
  " Sophia": 9134,
  " Sly": 9135,
  "aty": 9136,
  " germs": 9137,
  " haw": 9138,
  "onnie": 9139,
  " mate": 9140,
  " mur": 9141,
  " moo": 9142,
  " passes": 9143,
  " poop": 9144,
  " congratul": 9145,
  " dandel": 9146,
  " dashed": 9147,
  " dips": 9148,
  " dep": 9149,
  " det": 9150,
  " limp": 9151,
  " lur": 9152,
  "ouraged": 9153,
  "repeat": 9154,
  "rees": 9155,
  "rest": 9156,
  "incy": 9157,
  " Tip": 9158,
  " Tra": 9159,
  " fet": 9160,
  " huff": 9161,
  " buddy": 9162,
  " born": 9163,
  " aquarium": 9164,
  "wen": 9165,
  "uild": 9166,
  "sack": 9167,
  "she": 9168,
  "ration": 9169,
  "rough": 9170,
  "okay": 9171,
  "nor": 9172,
  "mar": 9173,
  "just": 9174,
  "even": 9175,
  "ese": 9176,
  "dges": 9177,
  "dinky": 9178,
  "dog": 9179,
  "doo": 9180,
  "couraged": 9181,
  "cake": 9182,
  "can": 9183,
  "aige": 9184,
  "action": 9185,
  "Wiggly": 9186,
  "Tara": 9187,
  "Ted": 9188,
  "Surrender": 9189,
  "Rabbit": 9190,
  "Polly": 9191,
  "Near": 9192,
  "Nice": 9193,
  "Martha": 9194,
  "Maddie": 9195,
  "Kelly": 9196,
  "Joy": 9197,
  "Jay": 9198,
  "Hope": 9199,
  "Fish": 9200,
  "En": 9201,
  "Duck": 9202,
  "Curious": 9203,
  "Catch": 9204,
  "Caw": 9205,
  "Belle": 9206,
  "Bug": 9207,
  "Bo": 9208,
  "Arthur": 9209,
  "Any": 9210,
  "',": 9211,
  " icky": 9212,
  " fetched": 9213,
  " lurking": 9214,
  " dandelion": 9215,
  " murky": 9216,
  " matey": 9217,
  " hawk": 9218,
  " treasured": 9219,
  " transformed": 9220,
  " beautifully": 9221,
  " wildflowers": 9222,
  " merma": 9223,
  " Accident": 9224,
  " Accidents": 9225,
  " Rhythm": 9226,
  "Snowy": 9227,
  " bounded": 9228,
  " waddled": 9229,
  "lectric": 9230,
  " Polite": 9231,
  "solut": 9232,
  "solutely": 9233,
  " collapsed": 9234,
  " descri": 9235,
  " Marsha": 9236,
  " grandparents": 9237,
  " Quacky": 9238,
  "Slowly": 9239,
  " stunning": 9240,
  " Luca": 9241,
  " Microscope": 9242,
  " reappeared": 9243,
  " bubbly": 9244,
  " glittered": 9245,
  " communicate": 9246,
  " Hailey": 9247,
  " possession": 9248,
  " cowboys": 9249,
  " servant": 9250,
  " responded": 9251,
  "Jonny": 9252,
  "immi": 9253,
  "Amanda": 9254,
  "Brown": 9255,
  "Brad": 9256,
  " Keith": 9257,
  " strokes": 9258,
  " cotton": 9259,
  " abilities": 9260,
  " unwrapped": 9261,
  "Cheap": 9262,
  " material": 9263,
  " Teach": 9264,
  " Sean": 9265,
  " Fleur": 9266,
  " Jonathan": 9267,
  " Jonny": 9268,
  " Thanksgiving": 9269,
  " gooey": 9270,
  " Millicent": 9271,
  " chatted": 9272,
  " elbows": 9273,
  " nibble": 9274,
  " satisf": 9275,
  " Olivia": 9276,
  " yumm": 9277,
  " yummiest": 9278,
  " Cowy": 9279,
  " Whistler": 9280,
  " aston": 9281,
  " customers": 9282,
  " burrow": 9283,
  " Trucko": 9284,
  "Davey": 9285,
  "Ahoy": 9286,
  " Pok": 9287,
  " Pokie": 9288,
  " Chewy": 9289,
  "rances": 9290,
  " Amie": 9291,
  " Gramps": 9292,
  "Foxy": 9293,
  " glittering": 9294,
  " tossing": 9295,
  " shrugs": 9296,
  "Rover": 9297,
  "allows": 9298,
  " timid": 9299,
  " nightmares": 9300,
  " Melinda": 9301,
  " disagreeing": 9302,
  " sneaks": 9303,
  " pedaling": 9304,
  " banging": 9305,
  " inform": 9306,
  " Modest": 9307,
  "Without": 9308,
  " sincere": 9309,
  " Lea": 9310,
  " honking": 9311,
  " rowing": 9312,
  " Helping": 9313,
  " tours": 9314,
  " Cheese": 9315,
  " Chef": 9316,
  " cubs": 9317,
  " experim": 9318,
  " experiment": 9319,
  " discussing": 9320,
  "William": 9321,
  " Flutter": 9322,
  " Flash": 9323,
  " Flip": 9324,
  " Vroom": 9325,
  " valleys": 9326,
  "oebe": 9327,
  " Paula": 9328,
  " kneeling": 9329,
  " surrendered": 9330,
  " beeps": 9331,
  " lawyers": 9332,
  " sandcastles": 9333,
  " kayaks": 9334,
  " energet": 9335,
  " energetic": 9336,
  " curre": 9337,
  " current": 9338,
  " agreeing": 9339,
  " windowsill": 9340,
  " slaps": 9341,
  " holidays": 9342,
  " ponyt": 9343,
  " ponytail": 9344,
  " urging": 9345,
  " rags": 9346,
  "Grab": 9347,
  " pilots": 9348,
  "Along": 9349,
  " hooks": 9350,
  " Claws": 9351,
  " Clumsy": 9352,
  " Close": 9353,
  " rescuing": 9354,
  " porc": 9355,
  " porcup": 9356,
  " porcupine": 9357,
  " stacking": 9358,
  " chains": 9359,
  " bumping": 9360,
  " settling": 9361,
  " haircutter": 9362,
  " disappoint": 9363,
  " taps": 9364,
  " staffs": 9365,
  " squeezes": 9366,
  " leans": 9367,
  " persistence": 9368,
  " cooed": 9369,
  " postman": 9370,
  " Sharp": 9371,
  " Share": 9372,
  " jacks": 9373,
  " accidents": 9374,
  "Megan": 9375,
  " roofs": 9376,
  " Using": 9377,
  " Use": 9378,
  " process": 9379,
  " proved": 9380,
  " prod": 9381,
  " mailboxes": 9382,
  " stretchy": 9383,
  " diamonds": 9384,
  " exams": 9385,
  " shoots": 9386,
  " engines": 9387,
  " sneezes": 9388,
  " discoveries": 9389,
  " hangers": 9390,
  " orders": 9391,
  " frustration": 9392,
  " chocolates": 9393,
  " spaces": 9394,
  " swans": 9395,
  " tents": 9396,
  " successfully": 9397,
  " protection": 9398,
  " tests": 9399,
  " laws": 9400,
  " Stacy": 9401,
  "ethos": 9402,
  "ethoscope": 9403,
  " mindful": 9404,
  " Spidy": 9405,
  "everse": 9406,
  " chopping": 9407,
  "Toot": 9408,
  " expert": 9409,
  " beaks": 9410,
  " Annabel": 9411,
  "Stand": 9412,
  " Onion": 9413,
  " dial": 9414,
  " div": 9415,
  " Nora": 9416,
  " Never": 9417,
  " Nail": 9418,
  " Night": 9419,
  " layer": 9420,
  " horri": 9421,
  " kissing": 9422,
  " shrunk": 9423,
  " bushy": 9424,
  " crushed": 9425,
  "asketball": 9426,
  "meow": 9427,
  " Blake": 9428,
  " sacks": 9429,
  " Chant": 9430,
  " Chantelle": 9431,
  " pastor": 9432,
  " Zane": 9433,
  " Zog": 9434,
  " guilt": 9435,
  " continuing": 9436,
  " raising": 9437,
  " compan": 9438,
  " companion": 9439,
  " signal": 9440,
  " keyhole": 9441,
  " creep": 9442,
  " marve": 9443,
  "ampi": 9444,
  " Afterwards": 9445,
  " snowing": 9446,
  "ouple": 9447,
  " mats": 9448,
  "peck": 9449,
  "pecker": 9450,
  " drift": 9451,
  " drill": 9452,
  " Oat": 9453,
  " Ot": 9454,
  "shop": 9455,
  " woodpecker": 9456,
  "boards": 9457,
  " adventurer": 9458,
  "quee": 9459,
  "queeze": 9460,
  "stered": 9461,
  " nights": 9462,
  " sleeps": 9463,
  " drawers": 9464,
  " owns": 9465,
  " restoring": 9466,
  " discouraged": 9467,
  " sweeter": 9468,
  " Gwen": 9469,
  " Gl": 9470,
  " convers": 9471,
  " conqu": 9472,
  " zipping": 9473,
  " Does": 9474,
  " reality": 9475,
  " drown": 9476,
  " messages": 9477,
  " headache": 9478,
  " workshop": 9479,
  " Joanna": 9480,
  " Jodie": 9481,
  "Hippy": 9482,
  " Ropy": 9483,
  " Raccoon": 9484,
  " Rocco": 9485,
  " Rolo": 9486,
  " Ravi": 9487,
  " Rory": 9488,
  " Rus": 9489,
  " Russel": 9490,
  " Ric": 9491,
  " Rico": 9492,
  "beh": 9493,
  " wolves": 9494,
  " woken": 9495,
  "lescope": 9496,
  " squished": 9497,
  " Pearl": 9498,
  " Perri": 9499,
  " Past": 9500,
  " Pick": 9501,
  " Katy": 9502,
  " Karen": 9503,
  " Kin": 9504,
  " cheated": 9505,
  " cheet": 9506,
  " cheetah": 9507,
  "orth": 9508,
  " magn": 9509,
  " magnif": 9510,
  " hardest": 9511,
  " winds": 9512,
  " Think": 9513,
  " stored": 9514,
  " twenty": 9515,
  " snipped": 9516,
  " snip": 9517,
  " telescope": 9518,
  "andas": 9519,
  " orch": 9520,
  " orchard": 9521,
  " Comp": 9522,
  " Curious": 9523,
  " Cate": 9524,
  " Con": 9525,
  " underwater": 9526,
  " trigger": 9527,
  " Eva": 9528,
  " peep": 9529,
  "antastic": 9530,
  "antr": 9531,
  " hoe": 9532,
  " pose": 9533,
  " Dee": 9534,
  " Dream": 9535,
  "ousy": 9536,
  " decl": 9537,
  " declared": 9538,
  " whoever": 9539,
  "apons": 9540,
  "apes": 9541,
  " chilly": 9542,
  " chill": 9543,
  " chin": 9544,
  "usic": 9545,
  "usp": 9546,
  "uspicious": 9547,
  " abo": 9548,
  " aboard": 9549,
  "asant": 9550,
  " blushed": 9551,
  " blob": 9552,
  "rett": 9553,
  " flashes": 9554,
  " flashed": 9555,
  " Jordan": 9556,
  " Jason": 9557,
  " Fanny": 9558,
  " Furry": 9559,
  " Fold": 9560,
  " Fight": 9561,
  " Fighting": 9562,
  " mustered": 9563,
  " brakes": 9564,
  " goodness": 9565,
  " alb": 9566,
  " album": 9567,
  " Win": 9568,
  " carries": 9569,
  " facing": 9570,
  " clam": 9571,
  " outcome": 9572,
  " leaking": 9573,
  "aint": 9574,
  "ecc": 9575,
  "ecca": 9576,
  " canv": 9577,
  " canvas": 9578,
  "icated": 9579,
  " reb": 9580,
  " rebuild": 9581,
  " octopuses": 9582,
  " jugg": 9583,
  "gets": 9584,
  " Aman": 9585,
  " Alf": 9586,
  "alf": 9587,
  " birdie": 9588,
  " Tomorrow": 9589,
  " necks": 9590,
  " booth": 9591,
  " killed": 9592,
  " shatter": 9593,
  " shoo": 9594,
  " Mousy": 9595,
  " Mabel": 9596,
  " Mine": 9597,
  " Mick": 9598,
  "sey": 9599,
  " Basketball": 9600,
  " Bonnie": 9601,
  " Bolly": 9602,
  " Bed": 9603,
  " upside": 9604,
  " Lift": 9605,
  " Lizzie": 9606,
  " Linda": 9607,
  "storm": 9608,
  " stethoscope": 9609,
  " Icy": 9610,
  " Im": 9611,
  " beating": 9612,
  "ilted": 9613,
  " inter": 9614,
  " plank": 9615,
  " itches": 9616,
  " Hula": 9617,
  " Hannah": 9618,
  " Hana": 9619,
  "amboo": 9620,
  "iran": 9621,
  "oray": 9622,
  "enee": 9623,
  "ingly": 9624,
  " Sugar": 9625,
  " Speed": 9626,
  " Sienna": 9627,
  " Super": 9628,
  " Sister": 9629,
  " Soup": 9630,
  "idier": 9631,
  "arley": 9632,
  "arrin": 9633,
  " hey": 9634,
  "erf": 9635,
  " pandas": 9636,
  " pipes": 9637,
  " couple": 9638,
  " lush": 9639,
  "oula": 9640,
  "ouched": 9641,
  "its": 9642,
  "inct": 9643,
  " Things": 9644,
  " Tuck": 9645,
  " fantastic": 9646,
  " fuzzy": 9647,
  " ferry": 9648,
  " fired": 9649,
  " fif": 9650,
  " fade": 9651,
  " hundred": 9652,
  " hood": 9653,
  " bamboo": 9654,
  " wiggly": 9655,
  " wicked": 9656,
  " tantr": 9657,
  " tumbling": 9658,
  " tend": 9659,
  " ter": 9660,
  "wee": 9661,
  "uss": 9662,
  "oving": 9663,
  "moo": 9664,
  "lap": 9665,
  "long": 9666,
  "lo": 9667,
  "ka": 9668,
  "ein": 9669,
  "cled": 9670,
  "cat": 9671,
  "Zoe": 9672,
  "Zigzag": 9673,
  "Wednesday": 9674,
  "Tony": 9675,
  "Toto": 9676,
  "Tree": 9677,
  "Tam": 9678,
  "Ruff": 9679,
  "Pam": 9680,
  "Nora": 9681,
  "Nina": 9682,
  "Never": 9683,
  "Nate": 9684,
  "Magic": 9685,
  "Milo": 9686,
  "Mint": 9687,
  "Mouse": 9688,
  "Luke": 9689,
  "June": 9690,
  "Janie": 9691,
  "Honey": 9692,
  "Fortunately": 9693,
  "Freeze": 9694,
  "Fl": 9695,
  "Down": 9696,
  "Ding": 9697,
  "Crab": 9698,
  "Candy": 9699,
  "Brrr": 9700,
  "Baa": 9701,
  "Bless": 9702,
  "Back": 9703,
  "Arrr": 9704,
  "Aw": 9705,
  " tender": 9706,
  " tantrum": 9707,
  " Foldy": 9708,
  " Connor": 9709,
  " magnifying": 9710,
  " drowned": 9711,
  " conversation": 9712,
  " Otto": 9713,
  " horrible": 9714,
  " information": 9715,
  " satisfaction": 9716,
  "Brownie": 9717,
  "marine": 9718,
  " detail": 9719,
  " depths": 9720,
  " Lumbery": 9721,
  " lazily": 9722,
  " attempt": 9723,
  " warriors": 9724,
  " obstacle": 9725,
  " waistbands": 9726,
  " concentrated": 9727,
  " fulfill": 9728,
  " Tyler": 9729,
  " Warmy": 9730,
  " Fairland": 9731,
  " Circle": 9732,
  " attendant": 9733,
  " lunged": 9734,
  " panting": 9735,
  " eldest": 9736,
  " defeated": 9737,
  " Open": 9738,
  " Chugger": 9739,
  " postcards": 9740,
  " puffed": 9741,
  " nurses": 9742,
  " nurs": 9743,
  " nursery": 9744,
  " hammered": 9745,
  " hammers": 9746,
  " considerate": 9747,
  "Playing": 9748,
  "Play": 9749,
  " crafts": 9750,
  " cowboy": 9751,
  " servants": 9752,
  " hooves": 9753,
  " lanterns": 9754,
  " scene": 9755,
  " Christ": 9756,
  " Christm": 9757,
  " Christmas": 9758,
  " Stretchy": 9759,
  " Stretch": 9760,
  "Auntie": 9761,
  " condition": 9762,
  " Ruffles": 9763,
  " Excitedly": 9764,
  "Daniel": 9765,
  "Frog": 9766,
  "Check": 9767,
  " swayed": 9768,
  " sculptures": 9769,
  " character": 9770,
  " syring": 9771,
  " syringe": 9772,
  " leaping": 9773,
  " amongst": 9774,
  " Crocodile": 9775,
  " nuzzles": 9776,
  " Mammy": 9777,
  " Judy": 9778,
  " Otherwise": 9779,
  " Scale": 9780,
  " Bethany": 9781,
  " Phoebe": 9782,
  " Jeffy": 9783,
  " connect": 9784,
  "Pippa": 9785,
  " nibb": 9786,
  " nibbling": 9787,
  " paddling": 9788,
  " Piney": 9789,
  " confidently": 9790,
  " Planet": 9791,
  " Sayid": 9792,
  " Oakley": 9793,
  " popsic": 9794,
  "Ahh": 9795,
  " fascinating": 9796,
  " completing": 9797,
  " honks": 9798,
  " Xia": 9799,
  " Xiao": 9800,
  " Quickly": 9801,
  " releasing": 9802,
  " property": 9803,
  " Animals": 9804,
  " Another": 9805,
  " deserves": 9806,
  " deserved": 9807,
  " crowded": 9808,
  "whoosh": 9809,
  "udged": 9810,
  " meows": 9811,
  " slices": 9812,
  "Catty": 9813,
  " Carol": 9814,
  " granny": 9815,
  "istening": 9816,
  " scrubbing": 9817,
  " sprinkle": 9818,
  "Spark": 9819,
  "Spin": 9820,
  "!'.": 9821,
  "!''": 9822,
  " appreciated": 9823,
  " challenges": 9824,
  " unicorns": 9825,
  "Birds": 9826,
  " Moira": 9827,
  " quacks": 9828,
  " instantly": 9829,
  " honor": 9830,
  " scoops": 9831,
  " thumbs": 9832,
  " wiggling": 9833,
  " sprung": 9834,
  " Cheap": 9835,
  " begun": 9836,
  " Roar": 9837,
  " Mikey": 9838,
  " bending": 9839,
  " Ve": 9840,
  " Veil": 9841,
  " Steven": 9842,
  " extraord": 9843,
  " extraordinary": 9844,
  " contents": 9845,
  "lowing": 9846,
  " zebras": 9847,
  " increasing": 9848,
  " kneels": 9849,
  " freely": 9850,
  " applause": 9851,
  " yielding": 9852,
  " racers": 9853,
  " racer": 9854,
  " Marcus": 9855,
  " Orange": 9856,
  " beetles": 9857,
  " cuddling": 9858,
  " submarine": 9859,
  " checkout": 9860,
  " nations": 9861,
  " campfire": 9862,
  " suggestion": 9863,
  " suggests": 9864,
  " pistols": 9865,
  " studies": 9866,
  " disappearing": 9867,
  " Club": 9868,
  " insepar": 9869,
  " inseparable": 9870,
  " dustp": 9871,
  " dustpan": 9872,
  "atelyn": 9873,
  " collars": 9874,
  " succeeding": 9875,
  " cobra": 9876,
  "namon": 9877,
  " surfed": 9878,
  " pleasant": 9879,
  " traps": 9880,
  " ribbit": 9881,
  " trailer": 9882,
  " cauliflowers": 9883,
  "cutter": 9884,
  " tanks": 9885,
  " sleigh": 9886,
  " Snake": 9887,
  " speeds": 9888,
  " speaker": 9889,
  "angerous": 9890,
  " umbrell": 9891,
  " umbrellas": 9892,
  " sniffling": 9893,
  " delightful": 9894,
  " desks": 9895,
  " coole": 9896,
  " coolest": 9897,
  " borrowing": 9898,
  " seriously": 9899,
  " trumpets": 9900,
  " competing": 9901,
  " accidently": 9902,
  " zips": 9903,
  " picnics": 9904,
  " scrunch": 9905,
  " scram": 9906,
  " scrambled": 9907,
  " fishes": 9908,
  " costs": 9909,
  " unlo": 9910,
  " adds": 9911,
  " Trunk": 9912,
  " islands": 9913,
  " sneezy": 9914,
  " striking": 9915,
  " motors": 9916,
  " refusing": 9917,
  " tickles": 9918,
  " scares": 9919,
  "onde": 9920,
  " soapy": 9921,
  " trusts": 9922,
  " Goldy": 9923,
  " mattered": 9924,
  " surv": 9925,
  " survive": 9926,
  "ooper": 9927,
  " cherished": 9928,
  " String": 9929,
  " suppl": 9930,
  " supplied": 9931,
  " hummed": 9932,
  " alongside": 9933,
  " Catch": 9934,
  "izzes": 9935,
  " protein": 9936,
  " Spud": 9937,
  " prizes": 9938,
  " prized": 9939,
  "colored": 9940,
  " chopped": 9941,
  " speck": 9942,
  " sickness": 9943,
  "Stella": 9944,
  " serving": 9945,
  " Nicola": 9946,
  " Nature": 9947,
  " meetings": 9948,
  "unted": 9949,
  " desper": 9950,
  " circled": 9951,
  " spoken": 9952,
  " shyly": 9953,
  " marking": 9954,
  "Jacky": 9955,
  " bands": 9956,
  " crouched": 9957,
  " crisp": 9958,
  " benches": 9959,
  "appl": 9960,
  "applaud": 9961,
  " phones": 9962,
  " believing": 9963,
  " prey": 9964,
  " lonel": 9965,
  " secretly": 9966,
  " passion": 9967,
  " jars": 9968,
  "Finn": 9969,
  " respecting": 9970,
  "eadow": 9971,
  " attitude": 9972,
  " piglets": 9973,
  "ancel": 9974,
  "ancelot": 9975,
  " raked": 9976,
  "osure": 9977,
  " mixes": 9978,
  " quieter": 9979,
  " creak": 9980,
  " marsh": 9981,
  " marshm": 9982,
  " marshmallows": 9983,
  " judges": 9984,
  "ample": 9985,
  " cupcake": 9986,
  " winking": 9987,
  " landing": 9988,
  " nestled": 9989,
  " arrest": 9990,
  " mustn": 9991,
  " coolness": 9992,
  " fights": 9993,
  " dries": 9994,
  " Of": 9995,
  "shrink": 9996,
  "shaped": 9997,
  "shadow": 9998,
  " woodcutter": 9999,
  " promising": 10000,
  "ientist": 10001,
  "coat": 10002,
  " adventurers": 10003,
  " tablet": 10004,
  " floors": 10005,
  " movements": 10006,
  " Gulp": 10007,
  " followers": 10008,
  " enjoys": 10009,
  " month": 10010,
  " conv": 10011,
  " convince": 10012,
  " hops": 10013,
  "athy": 10014,
  "hne": 10015,
  " business": 10016,
  " Johny": 10017,
  " wriggled": 10018,
  " ponds": 10019,
  " cracks": 10020,
  " explan": 10021,
  " explanation": 10022,
  "azel": 10023,
  " Renee": 10024,
  " Reading": 10025,
  " Rumble": 10026,
  " Ruth": 10027,
  " Run": 10028,
  " Rir": 10029,
  " Riri": 10030,
  " sooner": 10031,
  " Which": 10032,
  "ressed": 10033,
  " caf": 10034,
  " raincoat": 10035,
  " softness": 10036,
  " softest": 10037,
  " softened": 10038,
  " listener": 10039,
  " hates": 10040,
  " squinted": 10041,
  " squir": 10042,
  " quizzes": 10043,
  " Paige": 10044,
  " Pretty": 10045,
  " Promise": 10046,
  " Piggy": 10047,
  " Pilot": 10048,
  " offic": 10049,
  " officers": 10050,
  " Kiran": 10051,
  " Kari": 10052,
  " glistening": 10053,
  " glimmering": 10054,
  " flyer": 10055,
  " foss": 10056,
  " fossil": 10057,
  " foam": 10058,
  " nearly": 10059,
  " kindest": 10060,
  " handles": 10061,
  " Cari": 10062,
  " Cream": 10063,
  " Cand": 10064,
  " Cap": 10065,
  " Care": 10066,
  " Cr": 10067,
  "Whist": 10068,
  " slime": 10069,
  " trot": 10070,
  " moan": 10071,
  " peck": 10072,
  " hoses": 10073,
  " unless": 10074,
  " unz": 10075,
  " posit": 10076,
  " caref": 10077,
  " Davy": 10078,
  "aura": 10079,
  "ively": 10080,
  "aphne": 10081,
  " chip": 10082,
  "usan": 10083,
  " blonde": 10084,
  " bled": 10085,
  "ucksack": 10086,
  "icking": 10087,
  " swir": 10088,
  " flashing": 10089,
  " flippers": 10090,
  " flicked": 10091,
  " flick": 10092,
  " Jell": 10093,
  " Jellie": 10094,
  " cocked": 10095,
  " coiled": 10096,
  " example": 10097,
  " worst": 10098,
  " ali": 10099,
  " aliens": 10100,
  " Benjamin": 10101,
  " Whee": 10102,
  " Windy": 10103,
  " carton": 10104,
  " carved": 10105,
  " fail": 10106,
  "ightning": 10107,
  "open": 10108,
  "oped": 10109,
  " background": 10110,
  " scientist": 10111,
  " science": 10112,
  " scowl": 10113,
  " spied": 10114,
  " manager": 10115,
  "ulped": 10116,
  "umed": 10117,
  "umm": 10118,
  " outsm": 10119,
  " leashes": 10120,
  " lever": 10121,
  " knives": 10122,
  " knit": 10123,
  " roamed": 10124,
  " roles": 10125,
  "ically": 10126,
  " doggie": 10127,
  " treet": 10128,
  " section": 10129,
  "urora": 10130,
  " catn": 10131,
  " catnip": 10132,
  " oar": 10133,
  " funer": 10134,
  " funeral": 10135,
  " loaf": 10136,
  " loc": 10137,
  " Arthur": 10138,
  " Ana": 10139,
  " whines": 10140,
  "alerious": 10141,
  "alie": 10142,
  "elsey": 10143,
  "elax": 10144,
  " Tomato": 10145,
  " smash": 10146,
  " bobbing": 10147,
  " Music": 10148,
  " Mila": 10149,
  " Much": 10150,
  " electric": 10151,
  " Bert": 10152,
  " Boy": 10153,
  " Bell": 10154,
  " Bal": 10155,
  " dodge": 10156,
  " weapons": 10157,
  " Lightning": 10158,
  " Larry": 10159,
  " Lia": 10160,
  "university": 10161,
  "stantly": 10162,
  "stupid": 10163,
  " stinky": 10164,
  " stump": 10165,
  "cell": 10166,
  "cellent": 10167,
  " rucksack": 10168,
  " rumbling": 10169,
  " plum": 10170,
  " plun": 10171,
  " plat": 10172,
  " platform": 10173,
  " thump": 10174,
  " Hazel": 10175,
  " Harmony": 10176,
  " Hung": 10177,
  " Honey": 10178,
  " Hug": 10179,
  " Hi": 10180,
  "eta": 10181,
  "leaf": 10182,
  "leam": 10183,
  " Susan": 10184,
  " Squeeze": 10185,
  " Sasha": 10186,
  " Sylvia": 10187,
  " Serious": 10188,
  " Sweet": 10189,
  " Seth": 10190,
  " Sleep": 10191,
  " Sour": 10192,
  " Sir": 10193,
  "atalie": 10194,
  " gleam": 10195,
  " gulped": 10196,
  " giddy": 10197,
  " gulp": 10198,
  " gates": 10199,
  " groom": 10200,
  "idden": 10201,
  "lling": 10202,
  "lls": 10203,
  " saves": 10204,
  "onfused": 10205,
  "arted": 10206,
  "ima": 10207,
  " main": 10208,
  " mound": 10209,
  " mend": 10210,
  "aylor": 10211,
  " puffy": 10212,
  " cooper": 10213,
  " calf": 10214,
  " cities": 10215,
  " cin": 10216,
  " cinnamon": 10217,
  " dumb": 10218,
  " ditch": 10219,
  " date": 10220,
  "itched": 10221,
  "ites": 10222,
  "itam": 10223,
  "inner": 10224,
  " Taylor": 10225,
  " Tears": 10226,
  " Taking": 10227,
  " Too": 10228,
  " fading": 10229,
  " topp": 10230,
  " bon": 10231,
  " suspicious": 10232,
  " sinking": 10233,
  " sly": 10234,
  " tugging": 10235,
  " tar": 10236,
  "working": 10237,
  "whee": 10238,
  "welcome": 10239,
  "under": 10240,
  "rit": 10241,
  "pher": 10242,
  "pow": 10243,
  "pr": 10244,
  "oison": 10245,
  "oot": 10246,
  "nings": 10247,
  "law": 10248,
  "like": 10249,
  "ker": 10250,
  "ks": 10251,
  "jest": 10252,
  "hoo": 10253,
  "gr": 10254,
  "flowing": 10255,
  "freeze": 10256,
  "ece": 10257,
  "ean": 10258,
  "eat": 10259,
  "des": 10260,
  "bounce": 10261,
  "bling": 10262,
  "bang": 10263,
  "boom": 10264,
  "bs": 10265,
  "Years": 10266,
  "Yesterday": 10267,
  "Wisdom": 10268,
  "Wally": 10269,
  "Whe": 10270,
  "Wo": 10271,
  "Violet": 10272,
  "Trixie": 10273,
  "Ten": 10274,
  "Sweet": 10275,
  "Squ": 10276,
  "Sc": 10277,
  "Ros": 10278,
  "Pretty": 10279,
  "Pizza": 10280,
  "Pin": 10281,
  "Oxygen": 10282,
  "Mabel": 10283,
  "Michael": 10284,
  "Mittens": 10285,
  "Many": 10286,
  "Move": 10287,
  "Mila": 10288,
  "Laura": 10289,
  "Lauren": 10290,
  "Lion": 10291,
  "Kelsey": 10292,
  "Kay": 10293,
  "Jilly": 10294,
  "Izzy": 10295,
  "Hannah": 10296,
  "Grow": 10297,
  "Feeling": 10298,
  "Free": 10299,
  "Eddie": 10300,
  "Elephant": 10301,
  "Ever": 10302,
  "Dino": 10303,
  "Dare": 10304,
  "Confused": 10305,
  "Celina": 10306,
  "Cir": 10307,
  "Books": 10308,
  "Ball": 10309,
  "Bu": 10310,
  "Ant": 10311,
  "AT": 10312,
  "?!": 10313,
  ".’": 10314,
  " ”": 10315,
  " ou": 10316,
  " 4": 10317,
  "Bubbles": 10318,
  "Kaylee": 10319,
  "Rosa": 10320,
  "Scampi": 10321,
  "Wheee": 10322,
  "pril": 10323,
  " toppings": 10324,
  " cooperate": 10325,
  " Baloo": 10326,
  " electricity": 10327,
  " local": 10328,
  " oars": 10329,
  "ummaged": 10330,
  " Crane": 10331,
  " Carefully": 10332,
  " Captain": 10333,
  "<bytes:32,99,97,102,195>": 10334,
  " café": 10335,
  " desperately": 10336,
  " details": 10337,
  "Tamia": 10338,
  "loat": 10339,
  " fifty": 10340,
  "erfect": 10341,
  " planks": 10342,
  " interrup": 10343,
  " interrupted": 10344,
  " Immediately": 10345,
  " Alfie": 10346,
  " juggle": 10347,
  " conquered": 10348,
  " marveled": 10349,
  " divided": 10350,
  " produc": 10351,
  " astonished": 10352,
  " described": 10353,
  "Anytime": 10354,
  " Tractor": 10355,
  " limped": 10356,
  " Bailey": 10357,
  " screec": 10358,
  " screeched": 10359,
  " exchange": 10360,
  " untwisted": 10361,
  " embraced": 10362,
  " granddaughter": 10363,
  "ibility": 10364,
  "Jessica": 10365,
  " pounds": 10366,
  "sticks": 10367,
  " Bandage": 10368,
  " soothing": 10369,
  " clutching": 10370,
  " clutched": 10371,
  " Petey": 10372,
  " Petal": 10373,
  " explode": 10374,
  " passengers": 10375,
  " passenger": 10376,
  " Grandmother": 10377,
  "Monica": 10378,
  " certainly": 10379,
  " elders": 10380,
  " funniest": 10381,
  " funnier": 10382,
  " jingled": 10383,
  " reassured": 10384,
  " Fixer": 10385,
  " snuggly": 10386,
  " Opal": 10387,
  " expression": 10388,
  " postcard": 10389,
  "Prince": 10390,
  "RRRR": 10391,
  " tucks": 10392,
  " mitts": 10393,
  " plugs": 10394,
  " stunned": 10395,
  " Lucas": 10396,
  " Microphone": 10397,
  " bubbling": 10398,
  " glittery": 10399,
  " community": 10400,
  "========": 10401,
  " coughing": 10402,
  " Jemima": 10403,
  " possessions": 10404,
  " Bik": 10405,
  " Biko": 10406,
  " Jayden": 10407,
  " Purrkins": 10408,
  "Opal": 10409,
  " types": 10410,
  " charity": 10411,
  " tingle": 10412,
  " surprisingly": 10413,
  " Tamia": 10414,
  " Penney": 10415,
  " leapt": 10416,
  " tweets": 10417,
  " disobedient": 10418,
  " undo": 10419,
  " healthier": 10420,
  "Maya": 10421,
  " bruised": 10422,
  "Snake": 10423,
  " responsibility": 10424,
  "Leopard": 10425,
  " pecul": 10426,
  " peculiar": 10427,
  " risky": 10428,
  " chooses": 10429,
  " Pamela": 10430,
  " avoiding": 10431,
  "Peace": 10432,
  " Truckie": 10433,
  "Rudy": 10434,
  " Enormous": 10435,
  " Horse": 10436,
  "Another": 10437,
  " venture": 10438,
  "Something": 10439,
  "Tweety": 10440,
  "joiced": 10441,
  " oatme": 10442,
  " oatmeal": 10443,
  " unfor": 10444,
  " unforget": 10445,
  " unforgett": 10446,
  " unforgettable": 10447,
  " Drop": 10448,
  " command": 10449,
  " commot": 10450,
  " commotion": 10451,
  "Eww": 10452,
  " Keeping": 10453,
  " insists": 10454,
  " Reena": 10455,
  "Robbie": 10456,
  "Excited": 10457,
  " Angry": 10458,
  "Climb": 10459,
  "Click": 10460,
  " Monty": 10461,
  "why": 10462,
  " refuses": 10463,
  " blinks": 10464,
  " Liza": 10465,
  " Quincy": 10466,
  " emergenc": 10467,
  " emergencies": 10468,
  " bleeds": 10469,
  " landscapes": 10470,
  "rrrr": 10471,
  " palms": 10472,
  " stroking": 10473,
  " Mole": 10474,
  " purring": 10475,
  " instinct": 10476,
  " Seeing": 10477,
  " strikes": 10478,
  " scooping": 10479,
  " snails": 10480,
  "uction": 10481,
  " hens": 10482,
  " Cheer": 10483,
  "Chicky": 10484,
  " luckier": 10485,
  " grandch": 10486,
  " grandchildren": 10487,
  " seashe": 10488,
  " Sparkles": 10489,
  " Flop": 10490,
  " scolding": 10491,
  " events": 10492,
  " reveals": 10493,
  " contented": 10494,
  " awoke": 10495,
  " apology": 10496,
  " Coal": 10497,
  " beeping": 10498,
  " whips": 10499,
  " flooded": 10500,
  " Yuck": 10501,
  " sentence": 10502,
  " March": 10503,
  " Original": 10504,
  " tips": 10505,
  " grilling": 10506,
  "chanted": 10507,
  " rotted": 10508,
  " lipstick": 10509,
  " checkmate": 10510,
  " enthusiastically": 10511,
  " displaying": 10512,
  " inspected": 10513,
  " kangaroos": 10514,
  " attaching": 10515,
  " practices": 10516,
  "aids": 10517,
  " exercising": 10518,
  " snaps": 10519,
  " argum": 10520,
  "Seeing": 10521,
  " notices": 10522,
  " meadows": 10523,
  " vending": 10524,
  " axes": 10525,
  " painters": 10526,
  " encl": 10527,
  " enclosure": 10528,
  " views": 10529,
  " bullies": 10530,
  " yawning": 10531,
  " marrying": 10532,
  "assionate": 10533,
  " values": 10534,
  " shields": 10535,
  " carpets": 10536,
  " sinks": 10537,
  " Robin": 10538,
  " chalks": 10539,
  " ordering": 10540,
  " repairing": 10541,
  " thunderstorm": 10542,
  " otters": 10543,
  " slee": 10544,
  " binoc": 10545,
  " binocular": 10546,
  " binoculars": 10547,
  " complicated": 10548,
  " Shark": 10549,
  " Shall": 10550,
  " alligators": 10551,
  " Noelle": 10552,
  "Everyday": 10553,
  "Meg": 10554,
  "nels": 10555,
  " colouring": 10556,
  " crackle": 10557,
  " crawls": 10558,
  " envy": 10559,
  " collects": 10560,
  " engineer": 10561,
  " unlike": 10562,
  " addresses": 10563,
  " Alvin": 10564,
  " croak": 10565,
  " squeaky": 10566,
  " stripe": 10567,
  " clearly": 10568,
  " admit": 10569,
  " tickling": 10570,
  " Pea": 10571,
  " thicker": 10572,
  " breaths": 10573,
  " misbeh": 10574,
  " misty": 10575,
  " rarely": 10576,
  " seller": 10577,
  "arlott": 10578,
  "arlotte": 10579,
  " harvest": 10580,
  "erald": 10581,
  " decoration": 10582,
  " payoff": 10583,
  " unkind": 10584,
  " eagerness": 10585,
  " Brother": 10586,
  " Jillian": 10587,
  " afloat": 10588,
  " imaginary": 10589,
  " melons": 10590,
  " numbered": 10591,
  " Step": 10592,
  "ethro": 10593,
  " pinches": 10594,
  " pines": 10595,
  "?”.": 10596,
  " supper": 10597,
  " Cats": 10598,
  " tidying": 10599,
  " capture": 10600,
  " capes": 10601,
  " capt": 10602,
  " captured": 10603,
  "lette": 10604,
  " pillowcase": 10605,
  "Startled": 10606,
  "Stret": 10607,
  " service": 10608,
  " serves": 10609,
  " invis": 10610,
  " invisible": 10611,
  " North": 10612,
  " Nina": 10613,
  " Na": 10614,
  " Naom": 10615,
  " Naomi": 10616,
  " layers": 10617,
  "Becky": 10618,
  " records": 10619,
  " distract": 10620,
  "screw": 10621,
  " sharpen": 10622,
  " Freddie": 10623,
  " Thankfully": 10624,
  " lunchbox": 10625,
  " crops": 10626,
  " crump": 10627,
  " crumpled": 10628,
  " crut": 10629,
  " crutch": 10630,
  " spinach": 10631,
  " cardinal": 10632,
  " court": 10633,
  "ubu": 10634,
  " swingset": 10635,
  " --": 10636,
  " buckled": 10637,
  " buckles": 10638,
  " Emmy": 10639,
  " petal": 10640,
  " pudding": 10641,
  "astly": 10642,
  " attacked": 10643,
  " piglet": 10644,
  " foxes": 10645,
  "rench": 10646,
  "ippee": 10647,
  " emerald": 10648,
  " railing": 10649,
  " raises": 10650,
  " drying": 10651,
  " compromise": 10652,
  "ggles": 10653,
  " puppies": 10654,
  " deepest": 10655,
  " deeply": 10656,
  "ouncy": 10657,
  "Join": 10658,
  " potent": 10659,
  " potenti": 10660,
  " potential": 10661,
  " snowed": 10662,
  " snowy": 10663,
  " surely": 10664,
  " cupboards": 10665,
  " lefto": 10666,
  "phan": 10667,
  "phanage": 10668,
  "otton": 10669,
  " dinners": 10670,
  " wisest": 10671,
  " gladly": 10672,
  " cooled": 10673,
  " Ostri": 10674,
  " access": 10675,
  " lightly": 10676,
  " Ask": 10677,
  " steered": 10678,
  " fully": 10679,
  "’.": 10680,
  " tastiest": 10681,
  "ferent": 10682,
  " owning": 10683,
  " disaster": 10684,
  " sweetly": 10685,
  " Gary": 10686,
  " Gin": 10687,
  " Ginnie": 10688,
  " vol": 10689,
  " volunt": 10690,
  " ric": 10691,
  " richest": 10692,
  " coldness": 10693,
  " rightful": 10694,
  " sandals": 10695,
  " sandy": 10696,
  "atha": 10697,
  " messier": 10698,
  "acul": 10699,
  "aculous": 10700,
  " floppy": 10701,
  " triumph": 10702,
  "Benji": 10703,
  " throne": 10704,
  " singers": 10705,
  " finishes": 10706,
  "Looks": 10707,
  " Race": 10708,
  " Res": 10709,
  " bedding": 10710,
  " Whale": 10711,
  " warmest": 10712,
  " warmed": 10713,
  " deeds": 10714,
  " impact": 10715,
  "pting": 10716,
  "this": 10717,
  " appet": 10718,
  " palette": 10719,
  "izab": 10720,
  "izabeth": 10721,
  " majest": 10722,
  " mast": 10723,
  "ools": 10724,
  " Katelyn": 10725,
  " Kirsty": 10726,
  " Kid": 10727,
  " Ky": 10728,
  " Kyle": 10729,
  " magically": 10730,
  " gardens": 10731,
  " glues": 10732,
  " gloom": 10733,
  " glided": 10734,
  " glist": 10735,
  " glistened": 10736,
  " chees": 10737,
  " cheesy": 10738,
  " hurtful": 10739,
  "akers": 10740,
  " overw": 10741,
  " overwhe": 10742,
  " overwhel": 10743,
  " overwhelmed": 10744,
  " foreshadow": 10745,
  " grumbling": 10746,
  " grad": 10747,
  " gradually": 10748,
  " fond": 10749,
  " cleans": 10750,
  " winding": 10751,
  " Through": 10752,
  "iona": 10753,
  " twitched": 10754,
  "atest": 10755,
  "atever": 10756,
  " enchanted": 10757,
  " lists": 10758,
  "roma": 10759,
  " snoring": 10760,
  " snatch": 10761,
  " flowing": 10762,
  " cloak": 10763,
  " kinder": 10764,
  " tem": 10765,
  " tempting": 10766,
  " taker": 10767,
  " tales": 10768,
  "andar": 10769,
  " orphanage": 10770,
  " Cotton": 10771,
  " Cece": 10772,
  " Cher": 10773,
  "Butter": 10774,
  " stray": 10775,
  "Whose": 10776,
  " howled": 10777,
  " howl": 10778,
  " trad": 10779,
  " trader": 10780,
  " trim": 10781,
  " mopping": 10782,
  " moat": 10783,
  " nicest": 10784,
  " jumper": 10785,
  " Momma": 10786,
  " Eating": 10787,
  " El": 10788,
  " Elizabeth": 10789,
  " greed": 10790,
  " hover": 10791,
  " hovering": 10792,
  " unscrew": 10793,
  " unst": 10794,
  " vitam": 10795,
  " var": 10796,
  " poles": 10797,
  " Daphne": 10798,
  "ousand": 10799,
  " deciding": 10800,
  "nders": 10801,
  "ustrated": 10802,
  "istory": 10803,
  " chugged": 10804,
  "Three": 10805,
  " absolutely": 10806,
  "asper": 10807,
  " sunb": 10808,
  "epeat": 10809,
  " swirls": 10810,
  "abbed": 10811,
  "abra": 10812,
  "ifferent": 10813,
  " flipping": 10814,
  " fluff": 10815,
  " Jasper": 10816,
  " Janet": 10817,
  " Jul": 10818,
  " Julia": 10819,
  " Jad": 10820,
  " Fiona": 10821,
  " Fools": 10822,
  " Frances": 10823,
  " Feeling": 10824,
  " Fuzz": 10825,
  "ooky": 10826,
  " excellent": 10827,
  " bride": 10828,
  " goodies": 10829,
  "agine": 10830,
  "agle": 10831,
  " Samuel": 10832,
  " Working": 10833,
  " Wr": 10834,
  " lasers": 10835,
  " lava": 10836,
  " launch": 10837,
  " parking": 10838,
  "onghead": 10839,
  " likely": 10840,
  " scores": 10841,
  " scal": 10842,
  " scaly": 10843,
  " scri": 10844,
  " spooky": 10845,
  " spiky": 10846,
  " spades": 10847,
  " spout": 10848,
  " cluck": 10849,
  "umans": 10850,
  " goggles": 10851,
  " gopher": 10852,
  " canoe": 10853,
  "icia": 10854,
  "oodles": 10855,
  "urdy": 10856,
  "urs": 10857,
  " rejoiced": 10858,
  "racted": 10859,
  " losers": 10860,
  " Aurora": 10861,
  " Aiden": 10862,
  " Achoo": 10863,
  " Aero": 10864,
  " Ag": 10865,
  " loos": 10866,
  "ality": 10867,
  "alking": 10868,
  " neighed": 10869,
  " smelt": 10870,
  " boiling": 10871,
  " bold": 10872,
  " bond": 10873,
  " ker": 10874,
  " kernels": 10875,
  "chief": 10876,
  "cha": 10877,
  " shimmering": 10878,
  " shave": 10879,
  " Meadow": 10880,
  " Magic": 10881,
  " Mira": 10882,
  " Mail": 10883,
  "enter": 10884,
  " Bubu": 10885,
  " Believe": 10886,
  " doomed": 10887,
  " dozed": 10888,
  " dock": 10889,
  " wee": 10890,
  " Lancelot": 10891,
  "riendly": 10892,
  "unate": 10893,
  " sturdy": 10894,
  " stumbling": 10895,
  " stained": 10896,
  " stam": 10897,
  " Shell": 10898,
  " rummaged": 10899,
  " ramp": 10900,
  "pples": 10901,
  " dayd": 10902,
  " daydream": 10903,
  " inched": 10904,
  " placing": 10905,
  " plo": 10906,
  " plopped": 10907,
  " thousand": 10908,
  " Harley": 10909,
  " Hot": 10910,
  "leven": 10911,
  "eng": 10912,
  "inging": 10913,
  " Sabrina": 10914,
  " Surrender": 10915,
  " Sid": 10916,
  " samp": 10917,
  "onk": 10918,
  "arrow": 10919,
  "imits": 10920,
  "imon": 10921,
  " noodles": 10922,
  "isher": 10923,
  " mashed": 10924,
  " mow": 10925,
  " pace": 10926,
  " piled": 10927,
  " cages": 10928,
  " dou": 10929,
  " ded": 10930,
  " du": 10931,
  "reet": 10932,
  " wanna": 10933,
  " wary": 10934,
  " wax": 10935,
  " Trees": 10936,
  " Tek": 10937,
  " Terry": 10938,
  " Tell": 10939,
  " TH": 10940,
  " fuss": 10941,
  " faint": 10942,
  " furious": 10943,
  " fate": 10944,
  " hint": 10945,
  " hips": 10946,
  "eded": 10947,
  " wrench": 10948,
  " signing": 10949,
  " sipping": 10950,
  " aroma": 10951,
  " aid": 10952,
  " tit": 10953,
  "val": 10954,
  "ua": 10955,
  "sion": 10956,
  "sour": 10957,
  "rustrated": 10958,
  "rate": 10959,
  "poison": 10960,
  "ple": 10961,
  "now": 10962,
  "lish": 10963,
  "ika": 10964,
  "have": 10965,
  "fived": 10966,
  "field": 10967,
  "dangerous": 10968,
  "ders": 10969,
  "dad": 10970,
  "da": 10971,
  "crow": 10972,
  "cre": 10973,
  "che": 10974,
  "blower": 10975,
  "bt": 10976,
  "aith": 10977,
  "Zee": 10978,
  "Yippee": 10979,
  "Wise": 10980,
  "Up": 10981,
  "Things": 10982,
  "Tick": 10983,
  "TH": 10984,
  "Simon": 10985,
  "Slap": 10986,
  "Sasha": 10987,
  "Sylvia": 10988,
  "Summer": 10989,
  "Sleep": 10990,
  "Send": 10991,
  "Riley": 10992,
  "Right": 10993,
  "Rot": 10994,
  "Red": 10995,
  "RE": 10996,
  "Poula": 10997,
  "Paws": 10998,
  "Park": 10999,
  "Pen": 11000,
  "Other": 11001,
  "Old": 11002,
  "Ol": 11003,
  "Nana": 11004,
  "Marry": 11005,
  "Make": 11006,
  "Mam": 11007,
  "Mo": 11008,
  "Kali": 11009,
  "Kara": 11010,
  "Ju": 11011,
  "Henny": 11012,
  "Hide": 11013,
  "HH": 11014,
  "Girls": 11015,
  "Fido": 11016,
  "Four": 11017,
  "Find": 11018,
  "Ernie": 11019,
  "Dr": 11020,
  "Comp": 11021,
  "Carmen": 11022,
  "Cra": 11023,
  "Bouncy": 11024,
  "Bring": 11025,
  "Boom": 11026,
  "Aiden": 11027,
  "Ally": 11028,
  "Aly": 11029,
  "?,\"": 11030,
  ",’": 11031,
  "\"!": 11032,
  " ir": 11033,
  " 9": 11034,
  "Alya": 11035,
  "Moki": 11036,
  "Mamma": 11037,
  "Olivia": 11038,
  "Penney": 11039,
  "reetings": 11040,
  " doubt": 11041,
  " sample": 11042,
  " stamm": 11043,
  " stammered": 11044,
  " Mailman": 11045,
  " Writing": 11046,
  " sunburn": 11047,
  " various": 11048,
  " Cherry": 11049,
  " majestic": 11050,
  " appetite": 11051,
  " triumphant": 11052,
  "aculously": 11053,
  " accessories": 11054,
  "Stretching": 11055,
  " Stephen": 11056,
  " sleeve": 11057,
  " argument": 11058,
  " seashells": 11059,
  " instincts": 11060,
  " produced": 11061,
  " ouchie": 11062,
  "Circle": 11063,
  "Squash": 11064,
  "grateful": 11065,
  " target": 11066,
  " bonfire": 11067,
  " plunge": 11068,
  " treetops": 11069,
  " outsmart": 11070,
  " scowled": 11071,
  " swirled": 11072,
  " carefree": 11073,
  " positive": 11074,
  " unzip": 11075,
  " trotted": 11076,
  " Candles": 11077,
  " arrested": 11078,
  " loneliness": 11079,
  " crispy": 11080,
  " speckled": 11081,
  " unload": 11082,
  " popsicles": 11083,
  "Aww": 11084,
  " terror": 11085,
  " hundreds": 11086,
  " shattered": 11087,
  " peephole": 11088,
  " peeped": 11089,
  " Compassionate": 11090,
  " Compy": 11091,
  " Pastry": 11092,
  " Pasta": 11093,
  " Glitter": 11094,
  " creepy": 11095,
  " dialed": 11096,
  " disappointment": 11097,
[...]
